[PAD]
[UNK]
[start]
[end]
!
"
#
$
%
'
(
)
*
+
,
-
.
0
1
2
3
4
5
6
7
8
9
:
;
<
=
>
?
@
A
B
C
D
E
F
G
H
I
J
K
L
M
N
O
P
Q
R
S
T
U
V
W
X
Y
Z
[
\
]
_
`
a
b
c
d
e
f
g
h
i
j
k
l
m
n
o
p
q
r
s
t
u
v
w
x
y
z
{
|
~
«
»
،
؛
؟
ء
آ
أ
ؤ
إ
ئ
ا
ب
ة
ت
ث
ج
ح
خ
د
ذ
ر
ز
س
ش
ص
ض
ط
ظ
ع
غ
ف
ق
ك
ل
م
ن
ه
و
ى
ي
ٓ
ٔ
ٕ
٪
٬
ٱ
–
—
‘
’
“
”
…
في
من
على
إلى
عن
أن
التي
##ا
يوم
مع
##ة
##ه
##ها
بعد
##ي
اليوم
الذي
الرئيس
خلال
##ات
رئيس
##ت
الروسية
##ين
الروسي
القدم
أعلنت
بين
أعلن
##ية
لكرة
مدينة
المتحدة
وذلك
ما
الثاني
الى
الخارجية
وزير
وزارة
العام
روسيا
الأول
الثلاثاء
شركة
الخميس
##ون
الجمعة
الأمريكية
السبت
إن
الأحد
الأربعاء
دبي
أمس
الاثنين
فريق
العالم
كورونا
##ن
كانون
تشرين
مجلس
الأمريكي
الدولي
البلاد
جديدة
ان
ال
عام
محمد
موسكو
بن
ضمن
قبل
العاصمة
##م
الوزراء
قال
##هم
هذا
حول
الاتحاد
الحكومة
الماضي
الجيش
##ر
عدد
دولار
بأن
حيث
أكثر
##و
الدوري
منذ
لا
المصري
الولايات
الدولية
مارس
ضد
أكد
وكالة
بسبب
المباراة
أول
الإمارات
##ان
الدفاع
أمام
المقبل
19
منطقة
هذه
الدولة
السورية
الأمن
سوريا
ديسمبر
##وا
يناير
أفادت
نوفمبر
فبراير
##د
غير
قد
مايو
السلطات
شمال
عبر
السعودية
يوليو
ألف
##ل
عبد
كأس
يونيو
نادي
العامة
عاما
أنه
جنوب
مليون
10
الأولى
سبتمبر
بطولة
السوري
آذار
أبوظبي
##س
الشرطة
العربية
الجاري
القوات
قوات
الجولة
شباط
أو
تنظيم
السابق
بينهما
دون
فيها
نحو
أحد
تموز
مصر
نيسان
مجموعة
حزيران
كان
20
قتل
لم
داعش
المنتخب
##ته
الصحة
حتى
ترامب
بشأن
الوطني
عملية
المصرية
آب
15
تم
باسم
شخصا
ذلك
أغسطس
فيروس
الأوروبي
##ب
أنها
الدور
##ك
مساء
الشيخ
قالت
الإسباني
فيه
فيديو
12
فيما
أكتوبر
العراق
كشفت
نائب
العالمية
16
محكمة
كل
وسائل
24
المرحلة
الإسرائيلي
الفرنسي
وسط
دونالد
صحيفة
هيئة
30
مصادر
أبريل
إطار
فلاديمير
بفيروس
الله
لدى
بلاده
المستجد
##ف
النفط
له
11
كشف
موقع
دولة
أيار
أيلول
منافسات
الجديد
مقتل
##يا
ذكرت
لها
أوروبا
آل
الثانية
شرق
بهدف
##تها
إطلاق
كما
بوتين
سورية
غزة
تحت
قطاع
بعض
25
أثناء
##تين
الأمم
مقابل
أكدت
العربي
##ع
عليه
جرت
14
أي
البريطانية
بها
##ى
العمل
الدول
الشارقة
17
الذين
إدارة
18
إصابة
كانت
الاجتماعي
بشكل
مركز
ضيفه
التركي
13
مدريد
حالة
الأخيرة
مشروع
مواقع
نظيره
إيران
التواصل
جديد
##ز
العراقية
الجديدة
عليها
مصدر
وهو
إسرائيل
المجلس
السعودي
واشنطن
الفلسطينية
المنطقة
21
دعا
ملعب
داخل
محافظة
أفاد
دوري
طائرة
22
العسكرية
##ق
الإسرائيلية
النهائي
الأسبوع
إثر
حركة
للتنس
الخاصة
جميع
والتي
مليار
23
علي
أشخاص
الإيراني
شهر
##اء
لجنة
المملكة
دول
قرار
26
كوفيد
الصين
27
منظمة
الداخلية
الانتخابات
التركية
العالمي
نشر
ولاية
مباراة
غرب
علماء
الفرنسية
التابعة
ثلاثة
سنوات
أكبر
ريال
##ح
صباح
الحدود
تركيا
28
اللجنة
الشهر
الإيطالي
العراقي
الجوية
اليمن
الألمانية
بحسب
الشمالية
نهاية
الألماني
الوطنية
تسجيل
التعاون
آخر
مستوى
يمكن
شخص
##ما
برشلونة
شرطة
الفريق
المالية
القاهرة
حكومة
اللقاء
وفاة
عدم
لاعب
سيرغي
الإنجليزي
وقع
الشرق
29
عقد
أخرى
الحالي
جراء
2020
لمدة
الجنوبية
أحمد
أيام
حزب
به
كرة
البرلمان
نشرت
عسكرية
حاليا
الاول
قرب
المسلحة
المعارضة
جامعة
كوريا
مضيفه
مدير
منها
الممتاز
وقت
المركز
أجل
الفلسطيني
واحد
أبطال
هناك
سيارة
عند
ليبيا
وفق
كبيرة
عدة
الأوروبية
قررت
الماضية
الفضاء
الغربية
دور
البريطاني
زايد
بدأت
إحدى
المدينة
الطاقة
المجتمع
قضية
إذ
إعلام
الإسلامية
أسعار
برنامج
معرض
عقب
درهم
مطار
قناة
وفقا
باريس
خاصة
الخاص
الأزمة
دمشق
أعمال
اتفاق
المحكمة
آلاف
خلفية
##وف
الأقل
##نا
منتخب
مناطق
مؤخرا
##ار
نتيجة
بعدما
بطل
عمر
بيان
إنه
الحكومية
شهدت
الصينية
كبير
العسكري
دراسة
النار
القدس
##يات
وهي
الملك
حقق
الرسمي
السلام
وأصيب
تعرض
مجال
فرنسا
راشد
عمليات
الإيرانية
أشهر
أطلقت
حسبما
##ج
زيارة
##ش
آخرين
بمدينة
الأردن
الثالثة
الأوسط
الخليج
الفترة
العلاقات
بينهم
##ور
بجروح
بحث
أوكرانيا
حسب
هجوم
بما
جمهورية
الكبرى
بغداد
100
تحقيق
هو
طهران
الموسم
البحر
البلدين
الوقت
جوائزها
##0
لندن
الحرب
اعلن
فعاليات
عمل
2018
الشركة
2019
لقاء
مؤتمر
النووي
##ير
المتحدث
دائرة
مختلف
الأميركية
الإعلام
##هما
الأعمال
وجود
قائمة
آسيا
الهيئة
السودان
الفضائية
بريطانيا
العلماء
بمناسبة
دورة
##تي
استخدام
وقد
المجموعة
لقب
نظام
31
التحالف
أهداف
ملايين
فوزه
مسؤول
50
الإنسان
ساعة
ارتفاع
قام
طريق
العليا
الصحية
فتح
##رة
نصف
لقي
مما
اللبناني
لبنان
الأميركي
نهائي
المحلية
تابعة
والذي
مؤسسة
آخرون
البحرية
وقعت
الغاز
محمود
سان
نجم
عناصر
تقديم
صاحب
الاقتصادية
رأس
مرة
قائد
##ال
مانشستر
اجتماع
وصل
المواطنين
وزراء
دعت
بناء
بذلك
قطر
الأرض
سجلت
رفع
الثالث
باراك
يورو
الوضع
حملة
بفوزه
هي
رجل
المقبلة
جديدا
إعادة
قرر
الأراضي
للمرة
اليمنية
النجم
فترة
عندما
الليبي
الليبية
عمان
فقط
عبدالله
السياسية
جاء
الأبيض
أمريكية
حال
المناطق
طراز
أفضل
للأمم
الإرهاب
محاولة
تنفيذ
انفجار
قدم
##يل
إجراء
سلسلة
حساب
فريقه
لن
بي
قانون
بالتعاون
للرئيس
القادم
مسابقة
دميتري
الأمين
صرح
يظهر
حادث
لبطولة
بمشاركة
##ء
##بة
تقرير
2016
وقف
مكافحة
بتهمة
بنسبة
جمعتهما
##يين
بدء
نقل
نتائج
أفغانستان
المركزي
السيارات
بداية
سيتي
بينما
أدى
واحدة
النواب
دعم
الأعلى
الروس
زيادة
ربع
الاقتصاد
طيب
فاز
الامريكية
القطاع
الفلسطينيين
لافروف
ألمانيا
انتشار
ذكر
رسميا
بقيمة
الرسمية
القيادة
البرازيلي
الإنترنت
مهرجان
رجب
##غ
مكتوم
أعرب
الحياة
أوباما
أبو
إقليم
تقدم
قمة
##يه
إجراءات
لكن
اكتوبر
الرئاسة
جائزة
الأرجنتيني
تطبيق
ظل
اليمني
وفي
العديد
فرض
##ض
دي
ضرورة
2014
الساعة
العقوبات
عرض
بنيامين
الدين
الألعاب
بالقرب
زعيم
تمكن
الأخير
الأمنية
رغم
سنة
##يف
يكون
اعتبارا
شبكة
##ري
الرابعة
بلدة
اللبنانية
نقلت
البرتغالي
##اد
الرئاسية
الأهلي
عيد
مختلفة
أمنية
##ود
حين
بدأ
##1
قاعدة
الشعب
وضع
أقيمت
السمو
جانب
انه
الطيران
طالب
البالغ
جزيرة
الشركات
خليفة
روسية
فوزا
##ام
بأنه
نيويورك
أصدرت
تطوير
مدرب
العمر
الطائرة
القبض
الإصابة
عشرات
ومن
سقوط
تعزيز
مواجهة
القاعدة
التابع
حذر
##3
التوالي
صورة
عشر
أظهرت
البيت
أردوغان
المفاوضات
تقارير
شركات
ليفربول
اتحاد
مباريات
إلا
خطة
##5
##ول
تويتر
رجال
الأوكرانية
##لي
أربعة
نهيان
الهجوم
حماس
طلب
إنها
المدير
أصدر
40
النهائية
الاربعاء
2021
مقاطعة
بلغ
لشركة
ابريل
##دي
اسم
بحق
اتفاقية
بيانات
قامت
الأنباء
ولي
جون
المقرر
جماعة
يتم
بهدفين
الشرقية
الأطفال
المشتركة
تكون
حل
رفض
مثل
النووية
الأولمبية
الإماراتي
الجوي
مصرعهم
افتتاح
الأسلحة
إذا
مكتب
ثاني
حسن
التجارية
أعضاء
الشمالي
محطة
المشاركة
الإرهابي
رد
##خ
حفل
للدوري
سكان
للقوات
##تهم
السياسي
وجه
##8
##وم
فجر
أطلق
الدورة
وقال
الرياضي
2017
الاقتصادي
عباس
كافة
مشيرا
أزمة
حوالي
الإنسانية
ثلاث
الناتو
نقطة
وزيرة
توفي
العين
باكستان
الأمير
خمسة
الآن
##4
تمكنت
##وس
الخامسة
رسمية
الدكتور
الأردني
الفني
جلسة
خارج
##بي
الإدارة
هدف
الاتحادية
عضو
بلغت
روس
سوق
الصيني
رئيسة
سلمان
لعام
حاكم
الهند
##2
إفريقيا
تشكيل
جهاز
النادي
##ط
الشباب
بان
بلقب
الأوكراني
##دة
أقيم
الأردنية
أصيب
الأحمر
##7
يونايتد
نفسه
##وي
طالبان
مقر
أنحاء
طائرات
لما
مقطع
##عة
الإثنين
البنك
##6
##9
اشتباكات
الذكية
الطوارئ
عشرة
السفير
جمعهما
القضاء
السفارة
رمضان
جائحة
شرقي
بمجموعتين
حلب
مدفيديف
ألفا
إعلان
تلك
قيادة
فوق
الإسبانية
اللاجئين
الاحد
الرياضية
مؤكدا
ضحايا
الواقعة
أفراد
لدوري
خارجية
تعمل
عاصمة
التونسي
الضفة
قيمة
السيسي
بطرسبورغ
السلطة
خبراء
المياه
باستخدام
يبلغ
##مة
جمعت
حالات
استمرار
الإجراءات
الأمر
ذات
مقارنة
المكتب
المنظمة
الأسد
تونس
بولاية
مجموع
دخول
بشار
جو
أعلى
خلالها
بنتيجة
##قة
للمشاركة
ارتفعت
صندوق
رسالة
سي
##اس
مستشفى
خطوة
لمكافحة
إضافة
عسكري
إنتاج
أحرز
##يس
أجهزة
2015
جوية
عقوبات
حظر
اليابانية
مبنى
استاد
تاريخ
نفى
امرأة
وإصابة
##كو
الأسواق
قضت
التحقيق
منه
انطلقت
عالميا
قرارا
مسلحين
نتنياهو
لأول
التنفيذي
حقوق
إمارة
مبادرة
صلاح
برئاسة
الجزيرة
الصحفي
الحزب
تراجع
رقم
حكم
المفتوحة
ساعات
العملية
نقلا
ألكسندر
اكتشف
استهدف
أم
مدى
المبعوث
تأهل
الشهير
الطبية
رويترز
لمواجهة
النظام
عددا
الوكالة
الإيطالية
المقامة
العرب
##تان
ليلة
انتخابات
الاتفاق
خالد
المعلومات
استئناف
الفتاح
الكويت
صالح
##ث
أمريكا
عهد
##تا
مطلع
أمن
اللاعب
المجموعات
البالغة
الامن
معلومات
وقوع
البطولة
بأنها
حذرت
الامريكي
لتنظيم
بكرة
كبيرا
اعلنت
سباق
رونالدو
مالية
ختام
سعر
الطائرات
خط
##يد
احتجاجا
الناطق
واسعة
السادسة
جمع
فيلم
200
قتلوا
##كي
العنف
خدمة
للجيش
مئات
##اب
الإلكترونية
صنعاء
أنقرة
لدعم
##اني
لهم
الرياض
لدورة
الطرق
إمكانية
60
أثار
هجمات
تعتزم
شارك
العزيز
يعد
الاسرائيلي
طيار
البرازيل
بيع
شاب
النيابة
سيارات
##ني
المسلمين
الإماراتية
المركزية
2012
النائب
التوصل
الجمهورية
وفد
المدني
سمو
أمريكي
العمليات
##لة
السنة
##ص
اليابان
حصيلة
##سي
السابقة
الإصابات
سلطات
السوق
منح
صفوف
تشهد
قرية
الحوثي
بالسجن
ظهر
لبحث
بايدن
بلدية
حماية
سفينة
الأشخاص
بيروت
تصريحات
مديرية
الذهبية
بمنطقة
بينها
35
مؤكدة
انتهاء
مبارك
وصلت
مسؤولون
الباكستانية
الجنوبي
غربي
مهاجم
البلد
##كا
الرابع
حجم
فوز
النسخة
الفنان
المؤهلة
الرغم
بقيادة
جرى
كريستيانو
ستة
RT
##نة
ميلان
السوداني
تبلغ
افتتح
بمحافظة
صحة
مسيرة
جنوبي
الجمعية
القانون
الكورية
المؤتمر
دفع
اغسطس
الموصل
الجزائري
ميخائيل
للطاقة
القذافي
الاسرائيلية
قدمت
لوكالة
يوفنتوس
مشاركة
إعلامية
اثنين
حسين
وعلى
بالعاصمة
يوما
الهندية
مجلة
الخدمات
الراحل
مفاوضات
الطريق
خدمات
صواريخ
صحفي
كي
##را
غدا
كانوا
ايار
شمالي
القرار
وحتى
الحكم
مشيرة
نشطاء
التجاري
النقل
يد
شبه
الدولار
الزعيم
الثقافة
سجل
الخيمة
جهة
حرب
بحضور
محادثات
الحصول
جنيف
ميسي
أعربت
شهد
مواطن
محلية
تعد
مهمة
الذكرى
الحوار
تحمل
يبدو
تظهر
أجرى
الشعبية
الإنكليزي
القومي
المسؤولين
##فة
##يت
أخيرا
حي
صور
الاستخبارات
رحلة
قريبا
خطر
تسبب
نفت
القوى
##دا
سلطان
المساعدات
لشؤون
برس
أيضا
إقامة
التونسية
الإسلامي
المدارس
فيسبوك
مياه
رفضت
اعتقلت
الشؤون
500
أسبوع
مرور
ارتفع
اسرائيل
عنها
أنباء
الحركة
إسبانيا
الأربع
سابقا
ناسا
أولى
إنشاء
منصور
المعارض
ماريا
##يك
ولكن
غوغل
منظومة
الأسبق
الدرجة
المحلي
القمة
احتمال
الخامس
حياة
تقوم
متن
أنصار
حمد
تفشي
الإرهابية
السيطرة
فى
إجمالي
المتوسط
المدرب
الأفغانية
وحدة
الإلكتروني
تعرضت
عنه
البشرية
الديمقراطية
النصر
السفر
بعيد
لإطلاق
الصحي
سابق
ريف
إيطاليا
الفجيرة
ايران
صفقة
قادة
عربية
إصابات
الاستراتيجية
التعليم
الأكثر
والعشرين
##s
الفوز
حريق
لكل
ورئيس
الأجهزة
خرج
المدن
طرابلس
مسلحي
70
الأيام
البحث
البحرين
##e
كيم
معهد
##في
إسرائيلية
اقتصادية
الإمارة
تمديد
إغلاق
النساء
ايلول
كييف
أظهر
جنود
##حة
اللواء
نسبة
سعيد
مجددا
صاروخ
السوريين
استهدفت
الجزائر
بحلول
سيتم
ليونيل
كامل
الإعلامي
الحوثيين
درجة
أهمية
السلة
باتجاه
لقاح
عودة
الفيديو
عثر
300
الوزارة
مليارات
التنس
القادمة
طيران
شريط
التجارة
الكبير
400
حلف
تصل
الاجتماعية
القرن
جبهة
ردا
لمسابقة
منهم
2011
الجنسية
تحرير
أحدث
إس
الجهود
2013
تقام
يجب
سيكون
يقوم
بحر
قيام
أمر
الحالية
رئاسة
عالم
وحدات
تل
موعد
الخبراء
تعتبر
جمعية
أسفر
العاهل
الياباني
تواصل
##اتها
بكين
القائد
عنوان
القطري
يوسف
افادت
الواقع
سائق
##جة
الكثير
دولية
نهائيات
الدوحة
المحطة
مراكز
السابعة
يعمل
بموسكو
تفجير
إليها
الموقع
مذكرة
##يم
قصف
المسلحين
المصابين
للطيران
إرهابية
لفيروس
مرض
معه
المستقبل
وجرح
صناعة
فرق
متحف
اتخاذ
لمجلس
أستراليا
النزاع
المغربي
طالبت
مشتركة
ولا
أمني
الجنايات
تهدف
مركبة
المتوقع
المخدرات
بثلاثة
فرانس
وأن
تأجيل
حكما
المتعلقة
الكرملين
مكان
رئيسا
اعتقال
مواجهات
الأوضاع
شراء
منع
الغذائية
عجمان
وجهت
المتظاهرين
المدنيين
شباب
##يها
الجانب
الجهات
تشيلسي
الصادر
الكرة
جدا
للحكومة
##وب
المؤسسة
تسوية
توج
السادس
العودة
كبار
لصالح
الكونغرس
تجري
جولة
تنطلق
تي
اعتبر
الحكومي
المالي
العمال
روما
والتعليم
السياحة
الشعبي
بهذا
يعتبر
مساعدات
منصة
يومين
فقد
يحمل
المبارك
الممثل
اتهم
المشترك
الثامنة
الأقصى
العشرات
الفنية
درجات
الأسود
التنظيم
الودية
لكأس
جهود
##لا
التربية
وافق
32
جمال
للعام
المغرب
مراسم
ميونيخ
##سكي
بيت
روسي
كردستان
الغربي
الهواتف
الاتصالات
التنمية
ليس
توصل
فلسطين
منصبه
القمر
السلاح
المحيط
محاكمة
الصواريخ
الكوري
بدون
حامل
إليه
الساعات
المرأة
بايرن
تحديد
دار
عين
غد
الشهيرة
المواد
أصحاب
الف
حافلة
القرم
رسمي
بزيارة
تعليق
التوتر
سحب
موجة
خاص
البطولات
لرئيس
بواقع
زيارته
سيناء
عقده
يؤدي
يقل
حصل
كلينتون
أصبح
النظر
انطلاق
البرنامج
توقيع
يوميا
ميركل
أبرز
الخام
القائمة
ميناء
##وت
الايراني
أربع
##هن
المقررة
الذرية
أقل
للاتحاد
الهلال
فلسطينية
مون
تعود
لهذا
الوحدة
حديثة
مفخخة
##اة
بعثة
وصول
التعادل
التقى
بل
ظهور
تناول
واصل
القطرية
المجال
ذهاب
خفض
الذهب
تضم
تلقى
الفنانة
##اق
سلاح
الديمقراطي
السنوات
المعروف
تستضيفها
قوة
##سك
الشيوخ
المصنف
تجمع
أعوام
السويسري
غرفة
القضية
الهولندي
لوزارة
مدرسة
توقع
للانتخابات
الجامعة
بفوز
الأخرى
طويلة
لحقوق
السودانية
العاملة
المستوى
الملكي
الناس
بدبي
خمس
شوارع
مرحلة
البرلمانية
طبية
2010
حدود
##فا
تنوي
قسم
##نية
أمير
مباشرة
طرح
تدريبات
منتصف
المستشفى
بنك
تستعد
الآلاف
ألقت
بالإضافة
وصف
التصفيات
العدل
فرصة
التلفزيون
يزيد
أهم
ركاب
توفير
الشرقي
تفاصيل
هامش
يانغ
اتصال
يجري
##بر
##دين
أسلحة
أطفال
إلغاء
القديمة
ضرب
##از
والتعاون
دير
استقبل
أثارت
الحاكم
تجربة
مواصلة
نظيفة
حكومية
صغيرة
الحرارة
رابطة
طفل
مصرية
##مان
الفريقين
برلين
قبالة
رواد
معمر
مدن
##ئة
المسجد
ثانية
ولم
الصربي
النقد
أبيب
الجزائرية
تسعى
مالي
يقضي
يومي
حد
سياسية
قتيلا
معظم
80
الشاب
صورا
نفسها
ثم
قصر
##اع
جيرمان
إبراهيم
العثور
اللازمة
مبلغ
##رات
عنيفة
##يون
أسابيع
متر
نفذت
نوع
يعتقد
الساحل
بروكسل
سوتشي
استعدادا
تغيير
تقنية
العاملين
والولايات
##ينا
آبل
القتالية
اندلعت
طوكيو
لحركة
الأطلسي
الجو
العهد
مدار
مسلحة
المتخصصة
بيونغ
ديفيد
طريقة
وكان
يعرف
##تش
افغانستان
الباكستاني
سطح
الجليد
تراجعت
الحادث
الطلبة
##تر
90
القلب
للسيارات
##زا
السنوي
القضايا
المسابقة
تتعلق
قطع
الدعم
المهاجم
مرسي
مسرح
نظمت
تخطط
حمدان
مسؤولين
الربع
المحترفين
كيري
يصل
إدلب
##ئية
اغتيال
بواسطة
للأنباء
استراتيجية
تدريب
رصد
##يو
اكتشاف
##اح
الايرانية
القتلى
حسني
شؤون
##اك
تجاوز
سقط
##بات
فلسطيني
نفط
شعار
كاليفورنيا
الضوء
المغربية
##مي
المفروضة
انتهت
بطريقة
الاجتماع
الرجال
تحطم
منزل
يعاني
باحثون
نقاط
يزال
الخدمة
المحتلة
الاوروبي
المزيد
المعرض
تبدأ
سعد
مساعد
##اه
للحد
منتدى
المشروع
عامين
لتعزيز
ماكرون
الطلب
سبل
موسم
ميليشيات
بنحو
الجمهوري
لإجراء
##وك
وحيد
حق
اللاعبين
نوعها
هاتف
المؤسسات
التصويت
جرائم
لحظة
لويس
تركية
مباحثات
الاتصال
الوصول
سبعة
##ذ
الصيفية
تبادل
تزال
الدبلوماسية
المستشارة
منصب
اجتماعا
الجنائية
انها
مصطفى
##دية
لمنظمة
يعود
الأسهم
خصوصا
دولي
إرسال
تداول
قتلى
الطعام
انتحاري
تجاه
كلمة
إصابته
بمقتل
دعوة
هيلاري
بجنوب
إم
اختتمت
##ارة
التاسعة
أنهم
إيمانويل
صدر
نار
أراضي
الصاروخية
جونغ
السكان
الميدالية
##سون
الجنرال
بدلا
أسفرت
مسألة
##a
الانترنت
تداولات
حارس
توقف
عاد
أسواق
الأطراف
تغلب
حلول
استعداد
عرضت
للحصول
موقف
الشتوية
المريخ
ثمن
أداء
الرحلات
قوية
##با
قاد
للتعاون
إضافية
دعوى
وكذلك
اكثر
السماح
لتقديم
للشؤون
مخيم
التحرير
الهندي
فئة
الاحتجاجات
الهجمات
عالمية
لحماية
بعدم
بعنوان
للسيدات
##فع
مراسلنا
الشرعية
علم
أقر
نسخة
تدخل
2022
أغلقت
قضايا
وقالت
##أ
اسطنبول
الكندية
سنويا
الكويتي
اليورو
بالنسبة
نجح
##اي
##شي
الحربية
الفيروس
وافقت
وباء
يتعلق
تستمر
حديث
إزاء
الدم
إنسانية
تشمل
##بية
##دو
اشخاص
الصور
انخفاض
للدفاع
##كوف
الأعضاء
الأكبر
بطاقة
##ئ
##اته
##يان
الجمهور
المرشح
الاحترازية
خلاله
شكل
الرئيسي
دخل
رفعت
يشتبه
إياب
الآسيوية
الجيل
عقدت
مواد
الطبيعي
تعيين
لديها
مايك
هجوما
أدت
السينمائي
النصرة
مسلحا
اختبار
المتهم
السابع
مشترك
الصيف
اللقب
المخابرات
وعدم
##جي
صحفية
عائلة
مساعدة
التحقيقات
أرسنال
الصغيرة
باب
روبرت
الطفل
المركبات
النفطية
سعود
سلام
هادي
وراء
إنقاذ
النهضة
سراح
غارات
##يب
المعنية
جندي
فتاة
الأمريكيين
المفوضية
بريف
تشكل
مسلحون
الإخوان
الكهربائية
المهرجان
الأجانب
سلامة
لإعادة
نطاق
##وية
الأممي
الاحتلال
جبل
غارة
التصنيف
المواقع
جنيه
لوقف
يواجه
أون
##سة
أصبحت
الخارج
الدراسي
اليونان
انتشر
محيط
يسمى
تعاملات
أقدم
الانتخابية
الثلاثة
الأجنبية
فشل
##اج
خروج
عليهم
الإعلان
بنجاح
كوكب
السواحل
بات
سفير
طن
نتانياهو
هاتفي
المرض
للبلاد
##رد
قضائية
مناورات
لنادي
##رس
البشير
الكشف
المضاد
المهاجرين
المواطن
كاميرا
لشرطة
الصناعية
حققت
مجمع
اتهمت
اطار
مسلح
وأكد
شارع
##اف
الإنتاج
بدعم
لقائه
أوبك
اللقاح
المستثمرين
بورصة
الالتزام
البرازيلية
الوصل
مونديال
##اوي
الاصطناعي
الامم
شن
مراسل
نوفاك
يسمح
45
الدستورية
القوة
وغيرها
##كس
أساس
إصدار
المعارك
للبطولة
150
أرض
أفريقيا
ناسفة
الفضائي
أصل
خطط
المشاركين
دخلت
زوجته
مستويات
##وة
تشير
ذكرى
جدد
صرف
الاشتباكات
نظرا
البحري
الحرة
الحفاظ
لنقل
البلدان
ثمانية
ستكون
##تون
السياحية
##o
##يتها
الحديثة
الحريري
السرعة
استعادة
جونسون
وكانت
الأموال
الرئاسي
الرياضة
متنها
الأشهر
الممثلة
سبب
البيئة
الثورة
تسليم
نظم
الثقافي
الثنائية
الشخصية
بصورة
هدفا
##سية
السينما
قبيل
قيمتها
الجهاز
الوقود
عالية
لعدم
الركاب
فرضت
لسنة
مرمى
حديقة
السيارة
خطيرة
عادل
أتلتيكو
الاستثمار
التاريخ
الحرس
العرض
المحافظة
تقريبا
ضواحي
اكد
الليلة
غازبروم
بتقديم
جي
لمساعدة
مادة
يلتقي
الرقابة
تحدث
ثالث
حمص
ظهرت
الآسيوي
الأساسية
الأمني
الرئيسية
تواجه
دقيقة
شخصية
لمنع
##دت
رام
صادر
مصنع
##ئه
الدائرة
الزور
النصف
الهاتف
لتحقيق
آثار
البعض
يبدأ
القتال
المصنفة
الموارد
33
بريطانية
بلدان
سوري
صحية
نهر
واصلت
الخليجية
الملكية
ظروف
والصين
العشرين
لعملية
لكنه
أجرت
القيام
المختلفة
برصاص
تصريح
حصلت
غياب
قنبلة
مسجد
آي
أنغيلا
ونصف
الأحداث
العقيد
الكهرباء
المالكي
بإطلاق
يشارك
الثقيل
سامسونغ
غضون
##S
الإعلامية
التعامل
بجائزة
تجارة
سيطرة
العلمية
لمناقشة
أمين
تسيسكا
لبناء
لحل
استمرت
سياسة
مايكل
تعادل
جورج
مروحية
الزمالك
الفساد
بشمال
شخصين
للفنون
الأمراض
السنوية
الوطن
انتقد
صدارة
عبدالعزيز
ميدان
34
التلفزيونية
طلبت
ممارسة
وبين
##رين
##زي
الآثار
الكردية
بلا
تصميم
##t
##رية
الخرطوم
المساعدة
بشدة
##ستان
المكسيك
سير
ضبط
المخصصة
انهيار
مواطنين
يوتيوب
الأندية
الكيميائية
الموت
يواصل
48
البنتاغون
معها
ملف
نجوم
##مر
لضمان
الانسان
##ئي
الهمم
حسابه
لقوات
لهذه
ممثل
الأسترالية
للموسم
يسعى
بني
تايمز
علاج
سيدة
مدنيين
##تو
الحد
مراقبة
تستهدف
توجه
ساحة
صوت
لتطوير
وتم
يتوقع
السجن
العسكريين
فلسطينيين
مجموعات
معدل
نوعه
أمم
استطلاع
العاشرة
المستشار
مستشار
استقبال
الاولى
السويدي
لحكومة
مؤسس
نيجيريا
ووقاية
درهما
الجنوب
الطرفين
متحدث
اتصالات
البيانات
##قات
##يز
سواحل
لقوا
يأتي
أسرة
مقاتلات
نمو
##مين
36
الأركان
النتائج
امام
باشرت
حدوث
##بين
##من
الجانبين
الكبيرة
الحالات
الوفيات
سجن
مارك
محافظ
يعتزم
##يق
التقنية
تشغيل
لاعبي
##لت
المنشآت
ثمينا
الروبل
تجارية
تصنيف
تغلبه
عدن
فندق
فيفا
الدائم
الدخول
السياسة
المرور
الذكي
الموالية
أنواع
الصباح
تقل
مصري
##شة
##فين
2009
الإفريقي
توزيع
زينيت
نظيفين
اثناء
الفن
الكويتية
زار
فيكتور
استهداف
بتنظيم
ريو
##رت
اب
اتهامات
القانونية
##لو
البشر
النارية
بيانا
قضى
مؤشرات
إيقاف
السفن
الصناعة
اليومية
تحدثت
شهدتها
السرطان
العلاج
تسببت
غاز
وما
يمثل
حربية
صلاة
أوغلو
الجسم
الظروف
بالكامل
##وان
أسبوعين
الاستقرار
قياسيا
يضم
وجاء
##يته
استقالته
المدنية
تأثير
الحديث
السويسرية
بخصوص
سيف
عقود
والمواصلات
العميد
اليونانية
لتنفيذ
75
احد
الإقليمية
الرامية
مؤسسات
منهما
##غا
التدخل
الحديدة
القاسمي
اوباما
سد
شباك
ناصر
أدنى
الصادرة
الماء
##لين
##نت
أشارت
الليغا
تفاهم
جيش
حيدر
سليمان
طارق
عشاق
وعدد
الثقافية
بفضل
بوريس
رصدت
الأطباء
تأهلت
رحلات
##فر
الاستئناف
الصراع
بقوة
جيمس
دونيتسك
مبيعات
إنهاء
دينار
##y
##كين
الميلاد
الوفاق
تطور
حتفهم
حجز
خلفا
عبوة
علاقة
أسماء
الحدودية
عقر
مدة
آلية
الانتقالي
تتواصل
توصلت
نووية
لخوض
إنستغرام
المصالحة
جبهات
دولارا
لروسيا
ربما
ضربة
مخاوف
معارك
ياس
250
أراضيها
المدى
داره
مشكلة
والعراق
ونظيره
ابتداء
برعاية
الاسلامية
الجنود
الوسطى
الحرية
تمويل
قازان
أعقاب
التحتية
المضادة
للعمل
يشكل
يقام
يهدف
##i
الاتحادي
الخطوط
الفنزويلي
بطلب
سرية
معبر
##عين
الدوما
العدد
فنية
##كية
##وز
##وى
إسرائيلي
الأخضر
التنفيذية
الهواء
انتقال
تداعيات
حادثة
أعداد
الرقمية
اليوناني
شروط
عراقية
ملك
أرضه
أوقفت
جنسية
سياسي
مقاتلة
الثوري
العملة
المختصة
تعاني
لقطات
برميل
جنايات
سالم
ضابط
فريدة
وخاصة
##رب
جريمة
للشباب
متهم
التكنولوجيا
تظاهر
وروسيا
##ائه
##رو
المعروفة
##مات
أندريه
شعبية
الإفريقية
البحرينية
التاسع
تصدر
خسائر
فلوريدا
ليصل
هواتف
الحر
الحيوانات
كوبا
##مل
الايطالي
الرجل
بحياة
تزامنا
##دات
##ظ
##ورة
##وش
البرية
المراكز
الداخلي
السياح
المال
مصرف
مفاجأة
##كة
##وفا
معاهدة
إلكترونية
اللجوء
الهادئ
تنمية
حفظ
كبرى
##صر
##كر
37
الدستور
بهذه
زعماء
صادق
قياسية
##وني
القارة
المنافسة
تتضمن
تسمح
توسيع
نشرته
بوقف
تصفيات
##الي
البنوك
الساحة
خطوات
رسوم
السويدية
تركي
جان
فعالية
احتجاجات
الانفجار
زوجها
كندا
نادال
المصريين
تدرس
يستعد
لأن
لإدارة
لكنها
وان
##ائها
أجريت
الحملة
الشارع
المحادثات
مقابلة
ميشال
الائتلاف
حزمة
سبيل
مخالفة
يعقد
##ضة
تهمة
هزيمة
الأفغاني
التصعيد
عمره
فضلا
اطلاق
##اري
الخيرية
دانت
ظاهرة
قلب
للصحفيين
مستقبل
يشهد
أجراها
الإجمالي
الطبي
قتلت
والغاز
##در
الحظر
بمرض
حاول
عرضا
أجواء
المباشرة
تؤدي
تشارك
ربه
روحاني
سرقة
سن
شهرين
للنفط
للولايات
مخاطر
مي
إكسبو
انسحاب
ذي
عسكريا
السريع
المبادرة
اليد
داعيا
شارابوفا
مشاريع
##مية
##نغ
الاحتفال
التطورات
العبادي
توتنهام
مسؤولية
واصيب
##اها
السوفيتي
شدد
##لات
التنفيذ
اندلاع
جواد
حقل
ضم
ليغ
##سا
الوزن
حوار
نشاط
نوفوستي
##ئها
الحصار
بموجب
مشاركته
الثقة
الظفرة
قواتها
لصناعة
مستعدة
ووزير
يقدم
التجارب
الرئيسة
تقدمت
كتاب
##ائية
اختيار
الأولية
المستقلة
الهجرة
متهمين
وشؤون
الملف
فنزويلا
مشواره
##زة
اليمين
حمل
رعاية
فان
مايكروسوفت
او
بتشكيل
رفيع
لفترة
لمجموعة
مارتن
هاتفيا
وهم
##لد
الاستفتاء
العالي
المواجهات
تعهد
تمهيدا
عقوبة
##ايا
الرقة
بوك
ستقام
سواء
##يني
الأمطار
موافقة
##ادي
الاعلام
الثامن
الكردستاني
والتنمية
توجيه
شبكات
مغادرة
##ست
##وه
أحداث
الإسلام
الجلسة
الكندي
بسرعة
ست
فرص
ممن
وليد
##يتين
أشار
القائم
بنادي
رقما
نيكولاس
##وع
##وق
اقتحام
المتحدثة
زين
لحزب
وإيران
بولندا
عشية
الصنع
المائية
بمبلغ
سفارة
ميل
وادي
أمريكيون
بنت
بومبيو
تستخدم
شاركت
فرقة
كيلومترا
مرات
##A
##اية
إنتر
الاقتراع
خرجت
مستخدمي
اذار
اعتبرت
الأجواء
الشمس
ضخمة
##ائي
أولمبياد
الرسوم
برامج
جسر
ذوي
رحبت
هدفين
##راء
أبناء
الأضحى
باتت
بتنفيذ
محطات
نارية
وفرنسا
الإفراج
الفدرالية
جوائز
نجاح
##يتي
التسوية
المرشحين
برج
تدمير
طاقم
للأطفال
يرى
ينوي
أسباب
افتتحت
بنغازي
خلف
معتبرا
تابع
تعديل
هدد
الاوسط
الشمسية
مجالات
أطباء
الانتقالات
العلمي
الفيلم
الوسط
قادرة
موظفي
واسع
##رز
الرعاية
الطبيعية
المحتجين
المستخدمين
علاقات
لفريق
للأندية
منافسه
##ارات
اتفقت
الفلك
بتغلبه
تسلم
تمثل
جرعة
حدث
##تس
##ضي
ألعاب
البلجيكي
ضربت
قيد
ممثلي
نجحت
هاتفية
اعتماد
الشمال
كازاخستان
ليرتفع
مدافع
##وها
الأبطال
شديدة
عثرت
الاقل
شأنها
تعرضه
حددت
سو
نيوز
بالتزامن
بفوزها
بمقدار
جثة
حضور
##C
التزام
الشأن
المجالات
اي
بدءا
جزء
عربي
كميات
لوس
مؤشر
وضعت
##ولة
الخارجي
المواجهة
الهولندية
الوزير
انتقادات
سبارتاك
مرسوما
مصرعه
وتعزيز
##صة
##عي
أقصى
المركبة
بقرار
قطار
لأكثر
للأمن
نساء
والعمل
يساعد
##عد
أطلقتها
الإرهابيين
المئات
الموظفين
بأربعة
غريبة
للشرطة
##هر
أموال
إسماعيل
إيرانية
التيار
ديلي
##هات
المخرج
المنتجات
رجلا
عديدة
الحربي
بث
زوجة
لليوم
مثيرة
أطراف
الاعتداء
تحالف
توريد
ليصبح
أحيانا
ارتفاعا
الحسين
الصومالية
النوم
سعودي
لشراء
##حي
التاريخية
بالفوز
جدة
حاملة
سعودية
فازت
فصل
مدارس
وثيقة
التسجيل
بوينغ
تسعة
داغستان
قرابة
قضاء
اندلع
للجنة
متعددة
##جين
افاد
الستار
بلادها
جلالة
فيينا
نواب
يوري
إسقاط
اثر
المباشر
عبارة
قوله
للاجئين
الحمراء
خلية
شهرا
طرد
السباق
تاريخه
تاس
ضمان
كونغ
لتصبح
38
أندية
إكس
بقتل
نجل
الجارية
تعاون
دفعة
للكتاب
البيضاء
العقارية
الفطر
القناة
دفاع
فريقا
والأمن
وضيفه
يناهز
##خر
أمرا
الدفع
اللذين
تشهدها
تلقت
جزر
لهجوم
ناقش
نبيل
والرئيس
وقوات
##وبة
الفعاليات
المستشفيات
المنازل
تمت
رؤساء
لدول
للثقافة
ملاعب
##طة
2008
الكاتب
المسؤولية
الوفد
قواعد
أحرزت
أنطونيو
الخليجي
الصحافة
النوع
تزيد
حاجز
دورتموند
##شر
##قل
الاستثمارات
الدينية
المنزل
دورته
صادرات
عطلة
عمرها
لهيئة
ومصر
استهل
الثنائي
جدلا
نوري
1000
الصناعي
النمو
بلادهم
صدور
هونغ
التعاقد
بالقاهرة
بحرية
تحول
قاسم
لألعاب
لمدينة
القيادي
بنظام
جاءت
جانبه
وجد
استعاد
الصحفيين
حوادث
ضخم
لجامعة
مبعوث
مرسيدس
هنأ
##قت
##نو
افريقيا
السلامة
بالفيروس
للفريق
اتفق
استفتاء
الأسترالي
السجون
القضائية
المحمولة
دييغو
سفن
صينية
أهالي
الثمانية
الفيفا
ساحل
سبع
لجميع
لسباقات
##اتهم
##جر
اقترح
التاريخي
الماليزية
تأمين
جوي
للمجلس
معركة
600
أليكسي
الأسرى
الدراسة
الفنون
الميزانية
كيفية
موقعه
يكن
120
الإقليم
الفصائل
المسرح
الناجمة
تجديد
رياض
شاحنة
فعل
للاشتباه
للفوز
ناهز
هبوط
وغير
##ذا
أكاديمية
أوردت
الحدث
الذهبي
تأسيس
تساعد
لحلف
مندوب
يستضيف
الانقلاب
فتحت
كم
ملكة
موضوع
##ادة
أحياء
الخروج
العلوم
الموجودة
النطاق
النقاب
تحطمت
محاولات
منزله
يبحث
##جية
القاضي
جانيرو
والاتحاد
##يفة
الإنقاذ
الاخيرة
بوغدانوف
شنه
صفر
ليل
##افة
##صف
##ند
##هد
الجائحة
المبكر
بإعادة
بول
تقريرا
##ارا
الأولمبي
الامارات
السير
العلم
الكريم
تخفيف
خان
##وري
أسهم
إلقاء
الحجر
سويوز
طلبة
ظريف
عيان
متفرقة
##جم
##لية
الأزياء
الافغانية
الصندوق
تكنولوجيا
مقاتلي
نظيفتين
أمله
الجميع
المؤشرات
الملاعب
##رض
العملاقة
الوحدات
تطورات
ذاته
طلبا
فضائية
مؤقتا
##صل
أسرع
الضحايا
باللغة
معسكر
هولاند
أبل
أوروبية
استدعت
الجزء
الحج
السويد
المنتدى
سداد
قطعة
كثيرا
كنيسة
##دون
##ريا
أيمن
الاعتراف
الحوثية
السوبر
اللغة
تماما
شحن
علمية
عيسى
قافلة
وتركيا
وثائق
##بان
##زم
البناء
المرتقبة
المرضى
تصوير
حكومته
زفاف
قلقها
التدريب
الوباء
تدهور
تقليص
سيبيريا
عسكريين
مادورو
مزيد
##er
استقالة
اقتراب
البحريني
التشيكية
الزراعة
المقاومة
تحويل
تقدر
شنت
فرنسية
مظاهرات
مواطني
أية
الحماية
الخطوة
المرورية
المناسبة
برنامجها
شهود
عملاق
فكرة
للرجال
نجاد
وجدت
الحيوية
طعن
طفلة
للتحقيق
##رام
##فية
اثنان
استمر
المرتبة
صعد
فرانسوا
فيليب
قاعة
للسلام
مشددة
##الة
##يع
استخدمت
التشريعية
الحدودي
الرقم
بإجراء
تحسين
حدد
نقص
واحدا
##صور
##له
إعداد
الإنجليزية
البولندي
طلبات
علما
موسى
أسطورة
الدماغ
الشديد
طرحت
قلعة
موقعها
##عات
النفس
بتوقيت
دوليا
ضربات
لوحة
معدلات
وزيرا
البعثة
بأعمال
سكنية
فلسطينيا
للمطالبة
الخزانة
جزءا
فإن
لو
مضيفا
موظف
نيمار
الاسبوع
المكسيكية
بهم
بوروسيا
طفلا
للدولة
وفيات
احتفل
الجولان
النشاط
تقع
تكساس
دام
فخ
كارثة
للغاية
ليست
يعانون
الثلاث
الذكاء
الماضيين
المهندس
دقائق
رياضة
للمواطنين
ماي
##كان
##نات
الكسندر
انطلق
تستضيف
ظبي
قرعة
لمسافة
محل
مكالمة
آيفون
القيود
حرس
خوان
سقطت
إحياء
الأنشطة
المطار
الميليشيات
قياسي
لإنهاء
وشركة
##يح
ابتكر
الإطلاق
تتيح
تقنيات
تلقي
عراقي
فحص
كلية
لأي
نقلته
أمريكيين
البلدية
التقدم
الملعب
بعث
تحقيقا
رؤية
صالة
مترو
مفاجئة
##ديا
800
التحديات
التنسيق
الصدر
الغرب
بمقاطعة
سانا
طلاب
مسافة
مشاهدة
700
الأسرة
الحوثيون
الفورمولا
المشاريع
رائد
مترا
مظاهرة
وإسرائيل
آسيوي
أرسلت
أمراض
المزمع
الملياردير
تجاوزت
صعدت
مواطنا
اقتصاد
الأدوية
الجدل
الخير
الدوليين
المرة
انضمام
شنغهاي
فوزها
##ائل
42
المخاوف
تزويد
تصنيع
خسارته
عمله
للاستثمار
مخصصة
نفس
##حت
الشوارع
علقت
فيس
متهما
وشمال
وطنية
##ثة
##لم
إرهابي
البابا
الحلف
المتعاملين
المدرسة
جين
ستيفان
شملت
لإمارة
ألحق
الأفلام
البلجيكية
الشامل
عامة
لمؤسسة
والسلامة
بأكثر
بزيادة
تصفية
تعديلات
حدة
رصيد
قرارات
هاجم
إيغور
الأنبار
الاسباني
التأهل
التسامح
السلبي
بفعل
تبين
تميم
تهريب
جوزيه
حماة
خسر
عادت
لذلك
مرضى
مصرع
نفذتها
##انا
##ظمة
##قى
التعليمية
الفائدة
بطلة
تؤكد
جلسات
خطاب
ستبدأ
فرع
مصير
هبطت
واسعا
واصابة
أصول
الفيدرالية
الهدنة
بكل
تزايد
صعبا
لعلاج
متصدر
نابولي
اجراء
الخط
السفينة
الضغط
القطاعات
حرام
ذكية
ستاد
لحضور
وسوريا
وصفه
يتيح
##سين
البيان
انخفضت
رحب
سفر
غربية
لإسرائيل
لانتخابات
ليكون
نور
يلينا
القياسي
المسافرين
انتشرت
حصة
مطلعة
55
الأماكن
الجريمة
السكنية
مباراته
مجهولين
هم
وزوجته
ولايته
يعادل
##بار
اخرى
السوداء
المرتبطة
رفح
كثيرة
منشأة
ودية
##جل
##ونة
2000
65
أجنبية
أقرت
احتفالات
التراث
الوقائية
حكومي
عبرت
أرينا
الأرجنتين
تحتوي
دبلوماسية
عما
محاربة
ودعت
##غان
إنجاز
استعدادها
التقارير
الجائزة
الدولتين
ضباط
منظومات
المراقبة
المسؤول
النجوم
دبلوماسي
لعبة
لعدد
والثلاثين
##بط
##زل
اعترف
الارهاب
الكامل
اهتمام
سابقة
شخصان
غريمه
فالنسيا
فضيحة
لاعبا
للأزمة
##خة
##شد
##نيا
أركان
انتزع
تيريزا
حفتر
دعما
قوى
لاتفاق
محافظات
##غو
التصدي
الكوكب
الهدف
بصدد
سبوتنيك
كلباء
مسلسل
يتضمن
اختتم
اذ
الصومال
المجاورة
تصدير
لإنتاج
لاستقبال
مسار
مشاركتها
##عم
##غة
49
أنظمة
الشيشان
بارك
بوجود
نموذج
والسعودية
##كل
##لك
##يرة
أنهى
الأكراد
الاتهامات
الاستراتيجي
القاتل
الكيميائي
جمعة
حميد
زيدان
ودعا
##عيد
أسطول
التقرير
القصف
المدعومة
بوكو
تفيد
معرضا
والتجارة
وصفت
ولد
ابنة
المصرف
بتفجير
تشكيلة
تصاعد
جنديا
دينامو
سرطان
عمال
ميانمار
وزيادة
الحشد
المقدمة
بفرض
تتجه
كمية
للدموع
##قر
52
أواخر
التقني
السويس
الموسيقى
خليجي
دان
ستجري
يعرض
##تهما
##فت
##هة
##وار
الإسرائيليين
البولندية
الصحراء
جورجيا
حث
رافائيل
فيدرر
نشرتها
##قي
أجزاء
الأصوات
الإعدام
سرعة
سويسرا
طرق
فساد
مأرب
مدني
هوية
التشغيل
العدالة
بانفجار
##داء
التقليدية
الرحمن
المؤقتة
انتخاب
بابا
تغريدة
جراحية
شيء
عمرو
غادر
مرشح
معتدلة
يؤكد
أشرف
إف
الانتهاء
الدنماركية
السلمية
تعز
دارفور
##عب
الأسعار
حياته
حيال
حيز
غذائية
واتس
والإمارات
أشاد
الشخص
الكرواتي
ذهبية
طويل
للجدل
مشاكل
نوبل
##بل
##جه
39
اجل
احدى
الآونة
القطب
الناخبين
توقعات
خطف
شاملة
فيصل
كلا
كلفة
نجا
##يار
أمل
اعتداء
البقاء
السكري
الشخصي
الفنانين
الفيضانات
القريبة
خطورة
فيتالي
قادما
قدرها
مباشر
منشآت
موعدا
ناشطون
نية
##عا
##هي
43
استنادا
الأحياء
التطعيم
الشراكة
الفدرالي
المستهلك
توفيت
صنع
علق
للامم
ورشة
يدعى
##مت
الحفل
القليلة
قائلا
كلم
مقعدا
منازلهم
والعلوم
##D
##ئر
أستانا
اسمه
الرياح
الصاروخ
القياسية
المهمة
الهوائية
جيدة
قدرة
قدما
مسبوقة
هز
التقليدي
الشحن
الموجهة
رسائل
مدنيا
مينسك
نفذ
وأكدت
يمنية
الدراجات
المكلف
شرطي
شكري
##زن
أميركية
إيجابية
الأسر
الحالة
الطلاب
تحقق
قمر
كركوك
لدور
##وين
التخطيط
المنتهية
تهديد
دبا
سبق
وليس
##لب
##يتش
##يج
##يش
الزواج
السيدات
الشبكة
العفو
جدول
حلبة
لقناة
لوكوموتيف
مزاد
هاري
أدانت
النجمة
بالشارقة
تبنى
تداولت
توقيف
ردود
روستوف
عددها
لي
##ماء
العقد
الوحيد
بضرورة
سيارته
##دان
##روس
##طور
الانباء
البنية
الهزيمة
سباقات
عروض
عنصرا
عنف
غرق
منفذ
وحماية
أقوى
إيجاد
الراغبين
الزوار
الفاتيكان
تايلاند
ترك
سيما
عقدا
للاتصالات
معا
مناقشة
وتطوير
يعيش
يوجد
##بول
##يبة
##ينة
الأمل
الازمة
الزراعية
المباريات
تقدمها
قلقه
لائحة
للدور
للعبة
مجهولون
مسبار
منتجات
يحاول
##تل
السيدة
الكنيست
رفضها
لدراسة
للرئاسة
مشاورات
نادرة
نشره
هولندا
##رك
اجتماعات
تفتيش
دورية
صاروخا
قلق
كابل
يستمر
72
85
أنشطة
اقليم
الآخر
العيد
الملكة
بالرصاص
ثلاثية
رغبة
ساركوزي
كاميرون
متابعة
مهما
نيكولا
يحتفل
##هل
##يكا
الجبهة
الشريف
الفرق
النازية
رياضية
صغير
لتكون
لسباق
مطالبين
ودول
##او
استقرار
التفجير
المستمرة
بفارق
كيلومتر
لأحد
##بو
أفلام
الموحدة
بالضفة
طور
قيود
محددة
##ريس
##نان
##ندا
الامين
التى
تجميد
عزل
قيادات
للمنتخب
مروحيات
وتستمر
اتفاقا
اصطدام
الأحمد
السبب
العراقيين
الناتج
بيل
تتجاوز
مئة
نشرها
هؤلاء
أماكن
القادمين
القصر
المتطرفة
بيسكوف
ضبطت
كهرباء
مدربه
منحت
##اوية
##خل
##ظم
آباد
اتخذت
استيراد
التخلي
الخليل
السريعة
الفصل
المكسيكي
النعيمي
بوست
تدعو
خورفكان
عصر
لدولة
لعقد
للحفاظ
ومنها
##شن
##فصل
##نه
إشارة
تخفيض
تلبية
حسم
فورا
للمحترفين
مولود
41
أقام
استضافة
الحاجة
القدرة
المغتربين
بلد
سامح
طوال
يقع
البيلاروسية
الخلافات
المباحثات
بمساعدة
زمن
شريف
فئات
كارلوس
##كن
أدلى
اختبارات
الأبعاد
الاحتياطي
الليل
المختلطة
المغنية
لإنشاء
للانباء
محتملة
##حات
الجماعات
الربيع
الزرقاء
بالذكرى
بسجن
خاصا
مستشفيات
نظرت
وهذا
##حد
220
آسيوية
أس
إربد
إسطنبول
إنجلترا
الإنساني
المتهمين
المستقبلية
النيران
تظاهرات
صيف
طبي
للأرصاد
للبيع
مورينيو
نيتها
واصفا
##دى
أرضية
أسامة
التجسس
الطب
المخضرم
النيابية
اوروبا
بريطاني
تحاول
توجت
جزئيا
صراع
قليلة
لواء
ليبرمان
مميزة
ودعم
##بيا
اتهام
تجارب
توفر
لنهائيات
مليونين
يخوض
##لام
إسرائيليين
الإدارية
البرامج
المنشطات
تعقد
جهات
كرزاي
لتسوية
لرفع
##l
##سن
الانضمام
الديون
المنظمات
اول
برفع
بنشر
روبل
عاصفة
عامل
للدراجات
مبادرات
مطالبة
مواطنه
ألمانية
اذا
الانكليزي
السلع
المحتمل
الموسيقية
تطالب
ثالثة
سانتياغو
للغاز
متنوعة
واقعة
وبريطانيا
##يهما
47
أبدى
أنابيب
التدريبات
الدراسات
الركن
الكنيسة
المبلغ
المشتبه
المشير
المضرب
بأبوظبي
تعيش
حامد
خطأ
طنا
عملها
للخدمات
يهدد
##00
##حل
##كم
##ولا
التحكيم
السرية
العلاقة
القريب
الموافق
اليورانيوم
سيطرتها
شاطئ
فون
قصة
لبيع
والقوات
وذكرت
##قدم
تجاري
2023
إشبيلية
احتجاج
التحكم
الرائدة
المباني
المرشد
المعتقلين
بغية
شامل
لأسباب
مراحل
##ده
44
المتنازع
المناخ
المنتظر
ترتيب
حادة
روبين
فيكتوريا
أب
أطلقها
استكمال
البدء
التشيكي
التقطت
الرقمي
الزيارة
الطقس
القادة
القوقاز
اللقاحات
بالعمل
تخصيص
فصائل
للقاء
يعني
##لاف
##وح
ارتداء
الاحتفالات
تدفق
رحلاتها
سلطة
فقدان
قصيرة
كاميرات
لقطاع
والسياحة
وكيل
##r
الناطقة
تمر
توماس
خطوط
عزمها
##انية
أبلغ
الأهداف
التأمين
الدراسية
النيل
تقدما
ثورة
حصول
سيلفا
شأنه
صدرت
عفرين
قانونية
لأصحاب
لاعبة
لبدء
لمنتخب
مشددا
نيكولاي
##مد
##يوم
المفروض
تحديث
تظاهرة
سريع
كراسنودار
لصحيفة
مطعم
##سيا
أيدت
الأزمات
الفيدرالي
النفطي
جسم
جوزيف
خفيفة
مراسلتنا
معايير
ويكيليكس
##جد
##فل
##كار
##وج
الاسلحة
الباحثون
التقط
التقنيات
بوزارة
تأتي
تصبح
تناقلت
ذا
شخصيات
لموسم
ليون
ممثلة
هاتفها
وفدا
##ئات
##ابة
##ران
آر
العاشر
المتحف
المقدم
الهبوط
الولاية
بدفع
تنفيذا
جهودها
خليج
سوى
سيئول
قوي
للصواريخ
لولاية
محرك
مرتبطة
##به
##وث
أبرزها
الأربعة
الباحثين
خبر
سوف
ضوء
لزيادة
لمنصب
ممكن
وبعد
ووزارة
##بت
##مون
آنا
الجناح
الحديدية
الصحفية
العقبة
بوسط
تحتفل
حضر
سيارتها
شكوى
فرنسيس
قره
لتصل
للتواصل
للشركة
ميامي
وجنوب
##ئم
##سر
العيار
انتقدت
سنغافورة
عجز
فني
كولومبيا
مشاهد
معارضة
وتيرة
##n
##دد
إعمار
ارتكاب
الاهتمام
الدفعة
سلمت
لاستئناف
لحساب
مانويل
ويمبلدون
##جان
##كون
The
اعمال
الأمور
الذهاب
الساحلية
العملات
المدعي
المرتقب
تبقى
تتخذ
صفحة
مالك
مليونا
##جا
##جن
أقرب
أندرويد
أنهت
إسلام
الالكتروني
الانسحاب
العزل
تهدد
جيل
كاملة
كريمة
متظاهرين
مليوني
نيوزيلندا
وألمانيا
ويلز
ينتظر
##ارد
##سو
إل
استعرضت
اللاذقية
بحيرة
ستريت
سلطنة
شهادة
موناكو
##k
##رع
##سل
##لاند
العائلة
المشروعات
باولو
بحثا
بوروشينكو
تصعيد
تفعيل
قتيل
كامب
معتبرة
##نى
الجامعات
الرأي
المسيل
المقبلين
انقطاع
بسهولة
خطرا
ضغط
للتحالف
مركزا
أجرتها
اعتقل
سيطرت
عبدالرحمن
مدنية
مسعود
يحل
##قع
احتجاز
الائتماني
الفحص
المتمردين
ايام
بالرغم
متأثرا
مشروعا
نجمة
يزور
اجتماعها
التشكيلة
السيل
للكشف
مساحة
يصادف
أصوات
إقالة
اجتماعه
الأرضية
الا
الغذاء
بسيارة
بوضع
تعاقده
زلزال
عبور
غريب
لاعبين
لمهرجان
مدربا
##صول
اتصالا
استخدامها
استعداده
اعتراض
التوجه
العقاري
المبنى
بالمنطقة
صفحته
عادة
قواته
لتوفير
للدول
معاناة
نصب
والمؤسسات
وكالات
##ئع
##لى
أثينا
الانتقال
الشيخة
الملايين
بالقدس
بضواحي
ستقوم
قبول
لزيارة
منافسة
ناقلة
وواشنطن
يتجاوز
##دير
اجتاحت
اختراق
الجرائم
الجنسي
الخلايا
السباحة
الشتاء
الصربية
باتخاذ
بلجيكا
دورا
سيعقد
لإحياء
لافتا
لديه
مصلحة
الجماهير
القتل
المخاطر
تؤثر
تتعرض
تشديد
تغير
حسابها
دراجة
رضا
سماء
صاروخية
طول
لسان
محلي
منعت
يقارب
##فير
التوقيع
الصحف
الوزاري
بعملية
تبحث
لديهم
للتعليم
مراسلة
وتكون
يستخدم
آفاق
الآخرين
التطبيق
بطولات
سليماني
مشروعات
مواطنيها
ميستورا
نينوى
يطلق
الأغذية
الأممية
الرابطة
بكر
شراكة
مستمرة
نخبة
##ئمة
##حية
##ذار
إخراج
الدخل
الشخصيات
الفئة
انقلاب
داعية
دورات
فهد
كروس
للبرميل
##ئق
##قد
إثيوبيا
إزالة
الأحزاب
الاراضي
المبكرة
المخصص
برفقة
دو
قانونا
للألعاب
للشعب
نصر
وجهة
##وات
أحدهما
إصابتها
إعصار
إيه
الانقلابية
المكان
الملاكم
خاشقجي
شأن
شويغو
مركبات
##فو
##مال
##هام
التصريحات
العالية
تاريخية
فعالياته
قادمة
يخطط
يقول
##ندي
اعتمد
اللعب
تفاقم
عضوية
نائبا
يعملون
##زو
95
أغنية
الإسكندرية
الملاكمة
بثلاث
بجامعة
برلمان
تهديدات
ذاتها
سرت
لقرار
متتاليتين
مسيرات
46
إدخال
إندونيسيا
استبعد
الحبوب
باغ
بعيدا
بموجبه
للكرة
لمونديال
معينة
يتمكن
##on
إجلاء
القيمة
الكولومبي
المرصد
المسجلة
بالتنسيق
خلاف
سوريين
لرئاسة
متخصصة
مزاعم
130
أيدي
الحوادث
الختامية
المستمر
الموقف
بروسيا
تعرف
جثث
حسابات
شحنة
ضريبة
ناديه
نو
استجابة
الإثيوبي
الإقامة
البلطيق
الغذائي
تمثال
صباحا
محتمل
وإلى
والده
والمعارضة
##دته
##ضر
##ظهر
##عاد
أميركا
استقلال
الجماعي
الحادية
العظمى
الغارات
الغوطة
الكاملة
انتهاكات
بيلاروس
تستغرق
حفلا
سلبية
صلة
كريم
للإصابة
للمعارضة
لوزير
##رار
##شا
##غي
اكتشفت
الحريق
الصناعات
بسوريا
سلم
غضب
لاستضافة
هداف
والعالم
يتوجه
##صدر
##غر
احتفالا
الابتدائية
القنصلية
المادة
المكرمة
النمساوي
جابر
قراصنة
قصفت
للمسابقة
مسقط
نفذها
وبعض
يومية
##حب
##صب
##ظة
ادى
الدبلوماسي
خليجية
ذكرته
فرانك
لافتة
للمساعدة
مقاطع
ممثلين
ومع
وول
##رون
##يفا
##يلة
أنجلوس
الإياب
الثانوية
المعلم
تدمر
حديثا
عقدها
غرامة
فارس
فرنسي
وأعلن
##E
##بورغ
##طي
##ولي
أرامكو
أفرجت
البورصة
الواحد
بسعر
جودة
حقيقة
حميميم
فريقي
لتشكيل
معالجة
نوعية
والشرطة
##امة
##وعة
##يلي
اعتمدت
الأكاديمية
الخطة
المتطرف
المجيد
النمساوية
بالدولة
بحيث
تصادم
تنظم
قريب
كيف
لاحقا
للبحث
ميزة
يؤثر
##راف
ائتلاف
بقطاع
بلومبرغ
تسلمت
جددت
دعمها
رفضه
سياحية
طبيب
لإقامة
لتحديد
مبكرة
ميلاد
وتقديم
ورفع
يأمل
##اقة
##حم
##دتها
##ريك
##سم
##شال
##غلق
##كات
57
المفقودين
المقيمين
الملاحة
المهام
ببطولة
بوابة
ترخيص
سبورت
شرعية
للوقاية
مشكلات
منظمات
ينطلق
إسبانية
إيراني
اجتمع
ادارة
الخيري
الرومانية
المعدنية
بعقد
تأكيد
شي
فن
لمشروع
ميشيل
والثقافة
##تعامل
##فيا
أثر
أصيبوا
احتفلت
الإيجابي
البحوث
الترتيب
الفلبين
المسلح
اليومين
بالرئيس
بثلاثية
تواصلت
حصد
عصابة
فضاء
محملة
مرفأ
مصور
وإن
يشير
##رق
أطول
الاستيطان
الشابة
النفايات
بخمسة
بمجلس
جماعات
حاد
لأفضل
لجماعة
مضيق
يمكنها
##سير
##مه
أعادت
احتجاجية
الأفراد
الاحتياجات
الايطالية
البرتغال
التفاوض
المحافظات
المخلوع
الوقاية
جعل
خسارة
داخلية
سوء
صيني
عضوا
كتائب
لاحق
للصحة
لمراقبة
لواحدة
مسلحو
##شغل
##مار
أحكام
أنقذ
الدكتورة
اللعبة
بشرية
بعضها
تدابير
ترشيح
جماعية
رخصة
ستيفن
شابا
صعبة
لأنه
مخالفات
مسرحية
مضادة
مقبرة
ميزانية
وأسفر
يستطيع
##R
##سان
##هان
آمنة
الحرائق
الراهنة
الزلزال
السياحي
المدافع
الموعد
ذاتية
عمدة
قبرص
وجهها
يرفع
##T
##انة
##زال
##ييف
إي
الأحوال
الصورة
الفلسطينيون
المؤقت
النمسا
بمقر
خلافات
سر
سلبا
كوسموس
مقديشو
##باب
##يدة
الأوقاف
العملاق
تتوقع
خامنئي
سانت
قبضة
كرم
##ائم
##تار
##ضيف
##فاء
##لان
أهل
التعديلات
الدفاعية
بارتكاب
صدام
صرحت
طرف
كلف
لأنها
لاشيء
لحم
محامي
محج
والخدمات
والمتوسطة
يمنع
##جرة
##عى
##قين
أسوأ
أمطار
احمد
الاتفاقية
المنصب
بأي
تبني
تتراوح
عرضة
نفذه
ونقلت
##أخذ
##ائق
##زية
أدلة
أعمالها
الستة
المشاركون
المغني
انتهى
تقوده
خلايا
دا
قرى
قضائي
لإنقاذ
لاعبه
للرأي
واليورو
وتشغيل
وعد
وهما
##اط
##سات
76
أبوابها
أعماله
الإطفاء
الإقليمي
الثقيلة
السن
بالولايات
بهجوم
للاحتفال
مارادونا
متوسط
مجهول
مدعومة
مهام
نيو
وأكثر
يستبعد
##قته
##كت
ألقى
إليزابيث
الأخبار
الإسعاف
الاسد
الامنية
التضخم
المحيطة
المطارات
امس
بالميدالية
بشرق
بطلا
لدائرة
مكة
هشام
##عت
اكبر
بإلزام
بضيفه
بمثابة
خضع
سيزور
ضيفا
لجائزة
مختبر
مقرا
وأنه
وسيلة
يجمع
##al
##دن
##فال
أجلت
الأوراق
البلدة
الشورى
انتاج
بينغ
تطلق
خفر
عون
ماليزيا
يحتوي
يصبح
##صنع
##صيل
##طية
##علم
##عود
أوراق
الأصل
الترشح
الشعر
المستخدم
الهادفة
امنية
بأحد
بالإفراج
بالمركز
بمحاولة
تنشط
للإعلام
مسائل
مواقف
نابلس
وأوكرانيا
والتكنولوجيا
والكوارث
ومكافحة
يسيطر
##d
##صار
##طلب
##ياء
آبي
الأساسي
الأم
الانتقالية
الترجيح
الجرحى
الرأس
حبيب
علامة
عملياتها
غاروس
قيمته
كتلة
كهربائية
للتنمية
والدولية
ورد
وفاته
##اند
##يلا
##يمة
البطالة
انفجارات
شديد
كاثرين
لبعض
لمتابعة
محاكم
مدينتي
ناجحة
وصفته
##ثر
##حا
##حق
##شين
##وض
ألغت
إعلامي
الجابر
الجماعة
الضرائب
العقود
المستوطنات
المنافس
تأمل
تدعم
تماشيا
سندات
ليلا
وإعادة
##اش
أبلغت
الأسابيع
الابيض
التدابير
الدقيقة
الدموية
العبور
الغزيرة
اليهود
تفجيرات
تلفزيون
ثماني
طالبا
عزم
فيلا
قدره
قرارها
لإيران
لمصر
مئوية
مفاجئ
نقابة
وأصحاب
##تم
##رف
##شق
أميركي
إجمالية
الرسائل
الكبار
المناورات
سمحت
سنوي
شنتها
ضعف
قلبية
لتوسيع
##ia
##ضم
##طار
##قا
##وفسكي
أعراض
إياها
اقترب
الرمادي
الشقيقة
شب
للانضمام
هزت
والدفاع
##خيل
##قاء
أودى
الديوان
السداسية
المئة
المراقبين
المعزول
النقاط
بمنع
بينت
صعدة
قديمة
قطاعات
لاجئ
مهاجرا
يمني
##ثي
##جو
##حكم
##زون
##عية
##فن
##قية
أنور
اتفاقيات
الافتراضي
التمويل
التوقعات
الدرع
السماء
انطلاقا
تحدي
خميس
عمق
قادر
قاموا
لتحرير
للتعامل
لنظام
منتجع
مواطنة
وسبل
يتعرض
##باع
##صم
الأرجنتينية
الأرصاد
الإذاعة
الاختبارات
الاستقلال
الحي
الصاروخي
الفوري
القلق
الكمبيوتر
المعرفة
الناشئة
بالاضافة
تسيطر
عودته
فايزر
فرضتها
مبالغ
ناطق
نجله
وطني
وقتل
##اسة
##زع
##شية
54
74
أمرت
الأثرية
الأسير
الافتتاحية
الباب
الرد
القوية
الكونغو
بالتعادل
جمهور
حياتهم
عامر
عنان
غرار
قدرات
كذلك
لبلاده
للقيام
والاقتصادية
يلعب
##ئد
##جع
##دل
51
آن
أنظار
اقتحم
التفتيش
الخضراء
الخطر
الماسترز
المرشحة
المشهور
المنامة
الموسيقي
تجنب
تفوق
سكاي
كارولين
مؤتمرا
موضحة
موظفيها
وصناعة
##ئن
##ينكو
أفيغدور
إمدادات
الإغلاق
الإنكليزية
البيع
الزمن
الشغب
المصارف
المنتجة
انخفض
بأمراض
تعتمد
لمن
لوضع
نهائيا
هل
والبيئة
##نين
64
67
ألا
الأضواء
الأمانة
الاطلسي
الاوروبية
الجندي
الدولارات
العروض
القسم
الكهربائي
المتشددة
المنكوبة
الوثائق
بتعيين
تقييم
تناولت
توحيد
جريحا
جناح
غينيس
فريد
##طلق
##ومة
1500
58
إطلاقها
الأجنبي
الأزرق
الاستخدام
البدنية
التهديدات
الخمس
الخمسة
السائقين
الفرصة
الكتاب
المجمع
بسحب
غواصة
لقاءات
للتصفيات
مديرة
مستوطنة
هددت
ورجال
وصفها
وصوله
الصعبة
المجتمعية
المقاتلين
النيجيري
بركلات
بعرض
تضمن
تكن
دجوكوفيتش
زميله
سيرينا
غوتيريش
قنوات
لاسيما
ليستر
متهمة
##سام
##طر
استثنائية
البترول
المرافق
المنظومة
تشيلي
حاشدة
خطرة
ريكس
سيطرته
عبدالفتاح
غروزني
لادن
لاس
لتمويل
للعلوم
منصات
##ذر
##ربع
##رج
##قيد
##وال
إدراج
البصرة
الطفلة
الفيزياء
المنصة
النقض
بالمئة
بوتفليقة
ترى
جلال
سفيتلانا
طريقها
كارلو
كوسوفو
لإصابة
موانئ
نسبيا
هواوي
وأعلنت
ونشر
يتمتع
##جات
##دم
##ظل
##يعة
الاسلامي
البث
التبادل
الداعية
المسؤولة
باكستانية
تيلرسون
ثمين
جبال
جماهير
رأسه
رولان
سواريز
سيقوم
صعيد
كابول
مهاجمه
##يث
##يري
أربيل
إحباط
استغلال
اقتراح
الأنفاق
الجبلية
السبع
القابضة
الكثيرون
المسيرة
المناعة
انعقاد
بإلغاء
بقاء
دفعت
عربة
غداة
كتب
ماكس
مد
ميلاده
ميونخ
وجبة
يدعو
##ائهم
##الات
##رن
##كب
##مته
##يقة
أثبتت
أحمدي
أسود
أغلب
الختامي
الذاتي
الرياضيين
الشام
الطبيب
الفائزين
الفحوص
القرارات
المساجد
المعلنة
تدريبية
تسمية
جثمان
حاولت
شرف
صناديق
لمنطقة
مسيرته
والمقيمين
وتوفير
ومياه
ينظم
##I
##ترك
##تطور
##جاب
##ره
الأقمار
الاضطرابات
البارز
التغذية
الحب
الراهن
السلبية
العدوى
الفائز
المطاعم
انضم
تاريخها
تكشف
رأسها
روجيه
عزز
غالاكسي
لتأمين
متأخر
مسؤولي
مضيفة
مقررة
والأزمات
وكوريا
يحدث
ينتمون
##ارت
##يتا
اصابة
التزامها
المرئي
النزال
قريبة
لتدريب
##اث
##راج
أبحاث
أرمينيا
البضائع
التصوير
الدعوة
المتعددة
الموافقة
برقية
بيريز
بيوم
قانوني
للشركات
للمجموعة
يثير
63
أحالت
أسوشيتد
ابن
الافريقي
الالمانية
الحارس
الواردة
بقصف
تهنئة
دوما
دونباس
رحيل
لاستعادة
مؤقت
معرفة
والخاصة
##بون
##طل
##نز
2007
آليات
أحبطت
أذربيجان
إيطالية
الرئيسان
اللاتينية
بعدد
خوض
دعمه
ساحقة
كسر
لوحات
نيابة
والاستقرار
##اقات
##نس
الجماعية
الحل
الرئيسين
الشاعر
الفاخرة
بشؤون
بلوغ
شاشة
لأداء
لطائرة
للعودة
##زين
##صات
##طف
##غذية
##قف
56
القديم
المدرسية
بصفته
ريختر
غالبية
لسيارة
لهما
معهم
موضحا
ناحية
والفنون
وست
ينظمها
##ئل
##رصد
160
الأفريقية
البريطانيين
الخطأ
السياسيين
الفتاة
القرية
المصابة
بوفاة
تنسيق
تهديدا
حوض
دورتها
رباعية
شواطئ
صربيا
ضده
عالمي
مضمار
نظيف
وكأس
##ضع
##يكي
أوقف
الصادرات
الصداقة
القرى
المحليين
تو
جاره
جاسم
حملت
خصمه
طلال
لموقع
لهوكي
والد
يسبب
##شطة
##يكس
إياه
استعدادات
الأتراك
الأزهر
الأمة
المسرحي
المشاكل
انفجرت
بإنشاء
بفتح
بيئة
خفضت
دائما
لحادث
مطارات
مقربة
موقعا
نماذج
ويأتي
##تقدم
##دور
##فق
##لاء
##مثل
##نكو
##هية
##ورا
احتفظ
استضافت
اقترحت
الصف
الضباب
الفنادق
جلسته
زالت
صوب
فاطمة
هما
هوليوود
ووتش
##اعة
##بور
##تور
##راد
##غل
##لون
إعدام
الاستفادة
التايلاندية
القارات
المهدي
تويوتا
حملات
صعب
طالت
عملاقة
قذائف
قرن
كثير
لشهر
لمحاربة
معربا
واضحة
ينبغي
##ابات
##سور
##كز
73
التجول
الجيزة
الرصاص
الفرات
الكالتشيو
المواقف
الميت
النرويجي
بالإجماع
بنقل
تحقيقات
تحولت
تورط
جملة
خشبة
شركتي
صادرة
عاجلة
للتوصل
للحزب
للمخرج
للوكالة
متجر
ملحوظ
منازل
ميغ
نادر
ودع
ياسر
##M
##دار
##غرب
##فى
##ميل
##ويل
59
71
أضرار
اختار
الألغام
التعرف
الجامعية
الجمارك
المصرفية
انتهاك
باليوم
بتهم
بحجة
تفقد
تقرر
تقول
قوانين
مجهولة
##تدخل
##خلف
##زر
53
أما
إجازة
إصلاح
الأداء
الأفضل
الانتحار
الممارسات
النفسية
ايضا
بدوري
تتمتع
سيجري
سيقام
طاقة
فقدت
قتالية
للسياسة
للطائرات
ماريو
يدرس
##ئهم
##سلم
##ناء
##ودي
##يط
الإداري
الجدد
الرباعية
القيوين
الوعي
بتصميم
بوشكين
صفوفه
فيلق
لمحافظة
مطالب
نووي
وإدارة
والأملاك
##توقف
##فون
##يسي
بالإعدام
تنظر
تنظمها
توجد
زهاء
شاركوا
طبيعية
مسمى
ونقل
##B
##داد
آيار
أنفسهم
اقتصادي
الافغاني
الانتشار
البطل
السامية
السيد
العدوان
الغابات
اللبنانيين
المصلين
بالغة
برنابيو
برنت
تايوان
حرية
حقول
شيخ
غوانتانامو
قاسية
##بيل
##ويات
إفريقية
اشتباك
الاستمرار
الخطوات
الذاتية
الفنزويلية
بدخول
تنظمه
جرش
دشنت
صيد
طارئة
عداد
غزيرة
فاليري
كانا
لكي
وجهات
##ضى
##قام
##كوك
الأصول
المؤبد
المفوضة
المنتخبين
بتطبيق
بجانب
جونز
حرارة
حقيقية
حكمت
دافيد
دشن
فائقة
للسباحة
لمعالجة
لوران
مسؤولة
يحقق
يكشف
##ئيل
##نها
##نوف
أوليغ
اعلان
الأسماك
الاستعداد
الانجليزي
البريد
السينمائية
الصيد
المتحركة
المعايير
امريكية
بركان
بسرقة
جوليان
درعا
ديربي
زوار
غيتس
قدمه
كيريل
وتحقيق
##ائح
##بير
##تسلم
##تيا
##فلونزا
التقاط
الجميلة
الجنس
الشعوب
الطبيعة
القمح
المشارك
بكلفة
تأشيرات
تقدمه
تلفزيونية
حرص
رغبته
عامي
متطورة
ملابسات
ومنع
يعلن
يوروبا
##ing
##افع
##ذات
140
إخلاء
إدانته
إقامتها
الثوار
الدائمة
المسائل
المستهلكين
المصنعة
المواطنة
الوفاة
بجمهورية
بيتر
تثير
توقعت
ذكي
رابتلي
لاختيار
وأخرى
وسام
##طلاق
##فورد
##قلب
##ودة
إمام
استدعاء
الخلاف
الكتب
المحامي
تحديات
زراعة
سيدني
عدوى
لخدمات
للحوار
لليمن
مراجعة
موراي
ناشط
وحركة
يجعل
يفغيني
##O
##فاق
##مو
##هير
62
أصغر
إنتاجها
استقبلت
اعادة
البغدادي
التظاهرات
الحديد
العامين
المظاهرات
بدوره
تعهدت
جنسيات
سنتين
سيطر
لبرنامج
مبكر
نجمه
##ازة
##اص
##جيل
##عمل
##فرة
##لاس
##لس
##ونها
أرقام
أوضاع
التسوق
الخبير
الفئات
الموقعة
النقدية
باستثناء
بعيدة
رئاسية
سيغيب
قدمها
للتصدي
مسبوق
مستوياتها
ملتقى
مهدي
والهند
##بها
أجرته
اكدت
الأبحاث
الأسباب
الحيوان
العمومية
القرآن
تسجيلها
تعادله
تهم
دليل
رئيسي
ريد
شينزو
صاروخي
طاولة
عارضة
قنابل
للوصول
لمصلحة
مصرعهما
مكعب
والبحرين
ووضع
##X
##x
##ائع
##زيد
##علق
##لن
##وص
إلكتروني
احترام
احتفال
الأنظار
الحجم
الخاضعة
الصدارة
المحتملة
المسرحية
المصدر
المنافسات
الناشط
بايكونور
حافظ
حتا
فور
كوادر
متوسطة
والأردن
وسلامة
وقطر
##اعية
##هرة
68
900
ابتكار
الأسنان
الصفدي
المقام
النازحين
امكانية
بحبس
بدولة
تولي
صناعية
لاستخدام
لتفريق
لتولي
للحوثيين
وأشار
يشبه
##بع
##طان
##وفيتش
أصدرته
احتياجات
اخرين
الاجراءات
الرحلة
الكون
المصدرة
المعتمدة
المعهد
تدبير
تستطيع
تسلل
ديوان
صحي
مقتدى
وأعضاء
وارتفاع
##اخر
##افي
##طا
##قود
69
اسرائيلية
الأردنيين
الاستعدادات
البر
الحية
الفلوجة
القانوني
المصادر
بسداد
بسقوط
بمختلف
تسهيل
تعرضها
دائم
ديبورتيفو
سيباستيان
فرز
فورمولا
لقاحات
للخطر
معدات
مفتوحة
نيته
##ائب
##امي
##تشي
##حر
##طين
آخران
اعضاء
الأيمن
الإخبارية
السوفيتية
العظيم
العماني
المقاتلة
الميداني
الهوية
بقية
بكأس
بموجبها
حدودها
سقف
شابة
مفوضية
مقياس
مماثلة
ومجموعة
يشمل
ينص
##تحدث
##زام
##طب
66
اجراءات
استثمار
الإيرانيين
الانسانية
المتقدمة
المحدد
المحمول
برنامجا
رايتس
فشلت
كا
كمال
لتحسين
للسياحة
للشطرنج
لوك
ملابس
موسيقية
والجيش
يدخل
##اعي
##شغال
##فات
آند
اختطاف
استخدم
استطاع
الأمريكيون
الطيار
العناصر
القصيرة
النسائية
انتظار
بارتفاع
بريطانيون
بمصر
تنقل
حينما
رصيده
سليم
سوني
عددهم
فورد
مهاجر
موديل
هدية
والفضاء
وليام
يستهدف
##دها
##شاء
##قول
61
أخذ
إيرادات
الأسطول
الترفيهية
الزيتون
القنوات
الكروي
المستخدمة
المنزلية
بأنهم
بقايا
تتمكن
تحليل
تريد
شرعي
كلوب
للرياضات
للفنان
معقل
مناسبة
نيودلهي
يريد
يقودها
##G
##تد
##حسن
##حضر
##خص
##سوق
##فور
77
التحول
المعترف
المميزة
الوظائف
اليه
تسع
دمرت
سوبر
فيهم
قراره
لاحتواء
لفرض
نشب
والثروة
##خي
##شبه
##شروط
##غار
##غني
أبدت
احتجزت
الأضرار
الإجتماعي
البشري
العقارات
المنتشرة
بالمشاركة
بريس
ثقيلة
حاولوا
سمير
لبنانية
للأرقام
للسلطات
نبأ
##تاج
##ذخيرة
##رم
##شوف
##غال
##لته
اختارت
اختفاء
الإندونيسية
الانتقادات
المسابقات
المساعد
الملابس
المندوب
تأشيرة
تحسن
تصدرت
تصويت
تقف
تنفيذها
حجزت
حشد
خدماتها
رالي
فنادق
مستقلة
مصالح
معظمهم
منظمو
##V
##ئب
##انيا
##جح
##رر
إنهم
استأنفت
الأناضول
التركيز
الخسائر
الخسارة
القومية
بانه
حرائق
خارطة
خبير
ذمة
سبيس
سموه
سوريون
وظيفة
يسهم
يعتمد
يمثلون
##بح
##خير
##ركز
##سب
##فوز
أجانب
أرجاء
أطاح
أنتوني
احتشد
اعلام
افتراضية
التدخين
الثدي
الدوام
القوانين
تمكنوا
ثقافة
جميرا
ساد
للعلاج
مبكرا
محاولته
نزع
والجرحى
وتدمير
وليامز
يوليا
##تك
##مور
##ولين
##ياس
إطلاقه
الأعوام
الأميرال
الإثيوبية
العادية
العناية
المتخصص
المطلوبة
بحاجة
بنظيره
تسجل
تنتظر
خصصت
روغوزين
رياضي
زاد
ضحية
فوري
مشهد
ملفات
ممثلو
نيقولاي
ووقف
##خدمة
أمانة
أمستردام
السلمي
الصوت
الصيفي
المستوطنين
المعروض
النرويج
بإمارة
باكو
بعضهم
بنهاية
تحتاج
توليه
حجر
صعود
لعب
للهيئة
مرتين
ميدانية
والثاني
والحكومة
وذكر
يمكنه
يونس
##احة
##اغ
##بحث
##تنا
##ريد
##زان
##نك
350
أدان
إماراتية
إيفان
الاستثمارية
الاستجابة
الالكترونية
الجوف
الصالات
المتطرفين
المعدية
النرويجية
بإغلاق
بإقامة
بالحبس
تأخره
تسير
جانبها
رجح
عليهما
لعدة
للأعمال
محذرا
يقود
##طرق
##قها
##نضم
##ونية
##ويا
إلكترونيا
اتخذ
احتفالية
الروماني
السكر
المفترض
الممكن
الوليد
بأول
بتطوير
بقضية
بكورونا
تقديرا
خليل
زال
سفارتها
عتبة
كيميائية
لخفض
نظمتها
هامبورغ
والدول
وخارجها
يخص
يمر
##N
##باء
##تة
##خب
##دوا
##ليه
##مير
أرسل
البريميرليغ
التخلص
التمهيدي
التمييز
الحق
الصعب
القهوة
باقي
بتاريخ
بدر
بمركز
تسرب
تكثيف
رابط
ستواصل
شبان
شغب
شمالية
غينيا
للقضاء
للنظام
متتالية
والبحث
##تال
##حيل
##شير
##قبل
##قط
##قه
##كوفا
##لق
اضطر
الابتكار
الجهة
السابقين
الصفراء
الضرورية
العاج
الليبيين
المدمرة
المروحيات
المشاورات
المقدسة
الموازنة
الميدان
برفض
تدور
تشييع
تضمنت
زلاتان
سيبدأ
شقيق
شهرة
متكاملة
مثير
مقررا
مني
والشركات
وشركات
##اهل
##تواصل
##ثال
##رها
##منح
##هار
##ونات
أعاد
إسترليني
الأرقام
الخطيب
الدنماركي
الرؤية
السائق
المثيرة
المناخي
الهجومية
ام
بالبلاد
بلدا
تبدو
رسم
سيدات
شددت
شنته
علني
عواقب
لادا
للجمهور
للقانون
لمركز
مستقبلا
مسجلة
معاقل
واقع
والمناطق
واليابان
##بك
##حسم
##ريف
##وط
أجمل
أعمارهم
أغلق
أقدمت
أولا
أولية
إماراتي
ابنه
اس
الأصلي
الاعتماد
التحضير
التعاملات
الحقيقي
المخالفات
المسبار
الوحيدة
تغطية
حدا
خطير
رابع
راح
سري
ضجة
فوتوغرافية
قابلة
قرض
لاتسيو
لتجنب
لشن
للسلطة
مبتكرة
مشجعي
موجهة
نجيب
هامة
وقطاع
يحيى
##اطة
##خارج
إدوارد
الانتخابي
الحرم
الشاطئية
العجز
القبائل
المؤكدة
بأغلبية
تسريع
تنتهي
سريعة
لغاية
للاعبي
للنادي
هآرتس
وأدى
والسودان
يتعين
يرغب
##ثير
##دب
##شكل
##هب
##وفر
أعلنه
أمريكيا
إتمام
إقرار
إيرباص
اصيب
التنظيمات
السكرتير
السيناتور
الطيور
المشكلة
المنتخبات
النشطاء
بإعلان
بالفترة
بمن
بيوتر
دهس
عملا
غوارديولا
مادية
مخطط
##انين
##رمان
##فار
##قتل
##يرا
أقمار
الأسطورة
الصفقة
الظهر
الملقب
المناهضة
الموضة
بشن
تذاكر
تريليون
خطتها
سريعا
شنها
علامات
عمران
عنصر
قارب
للجمعية
متطلبات
مقدمة
مملكة
نموا
وهذه
ويمكن
يحتاج
يذكر
##ch
##باني
##تحمل
##لها
##ملف
##ونا
2006
أمتار
أنجزت
إشعار
اسفر
الادعاء
الاعمال
الحضور
الضربات
الفلبيني
المجني
بالاتحاد
بسرطان
تكاليف
حثت
شكلت
صفة
غمار
قتلا
مضاد
مطالبا
مهلة
نظمها
هام
وجرحى
وضمان
ومدير
##g
##ارية
##بس
##رته
##سكو
##لل
##ونغ
أدنوك
إيفرتون
الإمدادات
التوترات
الجنسيات
الداخل
العصر
المزودة
الناشطة
اليمنيين
بطاقات
تأييد
تحسبا
جراح
حقيبة
خريطة
سعي
صحفيا
عثمان
غادرت
قيادي
كيلوغراما
لسيطرة
محتجين
مسودة
هائلة
والأمريكي
ولادة
ويندوز
يتسبب
##تيك
##صالح
##طول
##قص
##يحة
أخبار
أصيبت
أعلنته
إفريقي
الاصطناعية
الاميركي
البيشمركة
الديني
القراءة
المعاصر
انخفاضا
بشر
جورنال
داريا
ريتشارد
سارة
سكني
عرضه
كمين
لغة
لقيادة
للطلبة
لنيل
لهدف
متنه
محاور
مروري
مستهل
موسوعة
نايف
ينس
يويفا
##p
##خت
##طات
أحزاب
أردني
أنهما
الأشغال
التام
التغيير
الدستوري
العضو
الفتيات
المتكاملة
المنصرم
المنعقدة
انتصاراته
تقضي
ستقدم
سوخوي
عبيد
عزمه
علاء
فوربس
لمنافسات
لمواصلة
محسن
مصاب
هائل
وآخر
وأنها
وصولا
##or
##قار
180
2030
أوائل
إضافي
البوسنة
الرباط
الشيشاني
الضغوط
النور
اوكرانيا
بارز
باستمرار
بالمدينة
بدقة
بعمليات
بوجه
تفكيك
حرة
رينو
سامي
صعوبة
طبيعة
غصن
كتبت
لحظات
لفريقه
مريم
مصورا
ندد
نوعا
وعناصر
يحصل
يقف
##BC
##P
##دام
##ذة
##شعار
##شينكو
110
إبرام
إثارة
الحصن
الشيوعي
الطاقم
المصرفي
بوش
تعليمات
تكرار
جدار
جولات
ديل
رؤوس
سهم
عاجل
عدسة
عربيا
علاقاتها
فك
قدمتها
كافية
للصليب
مارين
وأوروبا
وطالب
يطالب
##50
##الا
##حول
##سيارات
##يبي
##ينغ
أشكال
التجربة
التصريح
الجورجية
الحافلات
السلم
المبادرات
بالمملكة
بكوفيد
تأهيل
تواجد
ثقة
زاخاروفا
زادت
فياريال
لثلاثة
للقارات
للمرأة
لمرض
مخزونات
مرصد
والصناعة
ومركز
يخضع
يربط
يوثق
##ic
##ؤمن
##احات
##خين
##طت
UFC
أثبت
إذاعة
استخدامه
التفجيرات
الغلاف
الفرنسيين
الفوضى
المتصدر
المحترفات
المريض
الواحدة
بإقليم
بدور
بسيطة
بمرور
بمواصفات
بورتو
تنفذ
توقفت
جماعي
داود
صفحتها
عنهم
للقاح
للمملكة
محافظتي
مهمته
موقفها
نص
وسورية
وعشرين
##اتي
##بيت
##خوف
##كسي
##ليك
أبيض
أتراك
أمازون
أوامر
أوضح
إحراز
ارهابية
اقيمت
الافتراضية
البنزين
الحجاج
المتطورة
المنصوري
بيترو
رائعة
رفيق
سيلتقي
طال
كوزنيتسوفا
للإصابات
لنشر
مجانا
ملعبه
وتنظيم
وقود
##ce
##h
##تأهل
##رقة
##قراض
##كبة
أصدره
أقامت
اتباع
اتفاقات
اعرب
السد
الصدري
الطارئة
القارية
المديرية
المواصلات
الموضوع
النيجيرية
الهاشمي
الهيئات
بأصواتهم
بالفعل
بالوقوف
بتعادله
بلاد
تتم
تسمى
تمنح
دبليو
دواء
سيادة
صالحي
فؤاد
كجزء
لصاروخ
ليبية
ليوم
محمية
مدخل
مكونة
منافساتها
منزلها
مول
نيس
هزيمته
والنصف
وزن
##an
##تحفيز
##حاق
##سكايا
##شروع
##قرب
##قضاء
82
إيف
الأولمبياد
الحادي
الدبابات
الكحول
المتظاهرون
المسيح
تتمثل
جزاء
ديون
ريابكوف
سنودن
شركتا
ضدها
طارئ
عشرين
لاتخاذ
للنساء
مكثفة
موكب
نفق
##تن
##رتها
##وقع
##ينو
84
92
اختراع
اردوغان
الأجسام
الأميرة
الأنظمة
التهديد
الشاملة
الصحيفة
العنيفة
المدرسي
بتسليم
بتقنية
بمطار
تطبيقات
ستنطلق
سحبت
شرم
شقة
كليا
للملاكمة
لمعرفة
مزيدا
مناهضة
منخفضة
يشعر
##اول
##ثل
##جور
##ستر
##غير
##يض
أدوية
أمامه
التأثير
التحضيرات
الخبر
الخفيفة
السيادة
العقوبة
الفنلندي
بتعزيز
بذل
بشق
بعودة
تطبيقها
تمتلك
جنسيا
جهازا
دافع
دعوات
صوفيا
عملة
قذيفة
لتخفيف
لتلقي
لدخول
لسلاح
مثيرا
محور
نسب
هلمند
وباكستان
ويستمر
يدعم
يو
##بث
##حافظ
##زق
##ظروف
أوساط
إسلامية
إضراب
الروبوتات
العاصفة
اليها
انباء
براءة
بنتائج
ترأس
تطبيع
حتفه
روبوت
سياراتها
كوفي
لاستكمال
لبيانات
لفئة
للجامعة
والشباب
والمنتخب
##ion
##اخ
##امية
##طلع
##كوفيتش
##مئة
أسرته
التجمع
الذراع
الروهينغا
الكاميرا
اللون
المتوسطة
المسبب
المعارضين
انضمت
بالعودة
تاريخيا
تطعيم
خلل
ضحيتها
فرانكفورت
فنيا
قاتل
لبناني
لضم
للحياة
للخروج
مخصص
مسؤولو
نموذجا
هزاع
والدها
##ازات
##اعات
##جري
##رى
##ريب
##صاب
##قاعدة
##ليم
##نب
450
استضافتها
استعرض
اقيم
الأوساط
الانتصارات
الحسابات
العقابية
الفضية
القواعد
الكمامات
اللازم
المحاكم
المسلمة
المفرق
المقاطعة
بدعوة
بدعوى
بشرطة
تجدد
تجعل
تعلن
ستعقد
طرفي
لأسطول
للمنظمة
لمحاولة
ماركا
متوقعة
منبج
منطقتي
نال
هدنة
وأضاف
وأفادت
##أسر
##جز
##حكام
750
78
أوروبي
استقباله
الارهابية
التزلج
التشيلي
الجرعة
الحسكة
الخصاونة
الظاهرة
العابدين
الكاتالوني
الهندسة
الوجه
انتخب
بالتحقيق
بالشراكة
توعية
جنازة
حضرموت
رابعة
رومان
سجون
سياسيا
عرفات
قسطنطين
لأعمال
لاعبو
للزعيم
معروفة
ندوة
هندية
هيومن
والتوطين
وبناء
وعن
ومدينة
يتحدث
##اتا
##بحر
##صيب
##عال
##هود
إبراهيموفيتش
إرهابيا
اتهامه
البري
التطوير
الروسيتان
المسال
ببناء
بدمشق
برباعية
بمنح
تحصل
تراجعا
تسهم
تكفل
حملته
صادقت
عناصرها
كلمات
نداء
نفطية
والبالغ
##K
##ازي
##خصص
##ذاء
##فيل
##نجم
##واني
إرهابيين
الأوروبيين
التعلم
الثلاثين
الدنمارك
السجناء
الصغير
المتشددين
المثير
المسيحيين
تتبع
حاجة
درع
عائلته
عريقات
لدعوة
لعرض
لعمليات
للبرلمان
متعلقة
مقاتلين
مهاجرين
مواصفات
##ارب
##بد
##ترا
##تز
##جاني
##ذب
##زه
##صرف
##فيلد
##قطع
##وحة
##يجي
79
81
أحدهم
أسانج
أوعز
إحالة
استعراض
الأطعمة
الباليه
البيلاروسي
الخفيف
السجائر
الشاحنات
الكوبي
المطلوب
النيجر
الولادة
بانكوك
بحل
برلمانية
بلندن
تسجيلا
حسام
دين
ستوكهولم
شاهد
صقر
غامضة
فما
فيغاس
قندهار
لجان
للسيطرة
مبادلة
محليا
موحدة
نسختها
وزيري
ومواقع
ووسائل
يحدد
يمتد
##جسد
##ريان
##سهل
##شان
##صان
##عقوبات
##فه
5000
99
أبواب
الاوضاع
التغير
الحكام
القسام
الكأس
الكيلة
المبذولة
المكلفة
برصيد
بمبادرة
بوقوع
تعافي
توم
جذب
جنديين
سكريبال
شجرة
فنلندا
قفز
قويا
لقبه
للقدرة
للهواتف
لنحو
محدودة
مسؤوليتها
مشعل
##ادات
##ارف
##رنا
##فان
##لر
##مرة
أساسية
أملها
استيطانية
الجنائي
الطريقة
المستجدات
المنتج
الناتجة
بإرسال
برأس
بصعوبة
تجسس
تدريجيا
تمنع
ثنائية
جولته
حلقة
حيوان
راموس
صائب
فيضانات
قدر
للفضاء
للمباراة
لوسائل
نددت
نشوب
هنية
هوتسبير
والفلسطينيين
والمنطقة
##أساتذة
##تيان
##جمع
##سيادة
##شو
##صوت
##عمر
##كبر
##ورو
83
إصلاحات
إعطاء
اقامة
الأصيلة
الإماراتيين
الانتحاري
التتويج
التحرك
الجدار
السعادة
العميق
المهنية
بتحقيق
بدا
تردد
جرح
عصام
عملهم
فابيو
فنان
لجمع
لخطر
محاولتهم
نظر
والطاقة
##عروض
##ومي
2003
86
أبابا
احتلت
اضطرابات
الأنفس
البيئية
الجهاد
الحسن
المدار
المشهد
بإدارة
باعتقال
باليستي
بتوفير
بريكست
بيلباو
تباينت
تشبه
تملك
جامع
جهته
حراس
دينيس
رواية
سمكة
للمستخدمين
ليبلغ
محركات
مدد
ملامح
منتخبي
هطول
ومنطقة
##ائد
##اكب
##توجه
##خذ
##ذهب
##شيد
##ضا
##كرم
##مها
##مى
2001
آمن
إيلون
ادلى
اعتقاله
الأدنى
الإمام
الاشتراكي
الانتهاكات
الجمركية
الجورجي
الدعوى
الطويلة
القراصنة
الكلاسيكو
المعدات
الناقلة
بإحدى
بحقه
تجددت
تناقل
ثانيا
ثبوت
رقمية
رواتب
صانع
عنيف
فحسب
لسكان
للنقل
مهامه
هاجمت
والبحر
والثانية
وتأتي
ولبنان
##تحقق
##خرة
##ذان
##زير
##سحب
##سوس
##سوف
##عزل
##فجر
##نهي
##ورت
##يتهم
##يوس
اعقاب
التداول
الجوائز
الشريعة
الضخمة
الكوادر
بغرض
بمجموعة
تعزيزات
تعويضا
جمهوره
زوج
سلالة
شتوتغارت
صحافي
صلاحيات
فرسان
لتفادي
للسنة
للفلسطينيين
مؤقتة
محذرة
مطاعم
موظفين
نقدية
وارسو
والتلفزيون
وبالتالي
وبحث
وتحسين
وشارك
وفريق
ونادي
يفيد
##اسية
##تب
##تراجع
##تمر
##ضغط
##طال
##طبق
##ظر
##ظهور
##مج
##نص
أطلقته
أهدى
اشهر
الثلوج
الدمار
باقة
بالضرب
بالطاقة
بري
بمواصلة
تغييرات
تنامي
جاويش
زواج
سعيا
صاحبة
عدنان
لتأسيس
للرد
للمعارض
منتج
نقله
وزيرستان
يتيم
يورغن
##تعاطي
##تقليل
##خط
##رمي
##زواج
##سحاب
##قم
##وء
##يدي
اعترفت
الإيجابية
التراجع
التوقف
السياسات
الشعور
الغد
الفاشلة
الفيسبوك
النجاح
بوسطن
تنصيب
جنائية
شعبي
طريقه
فلاي
لتسهيل
مشاة
مشتركا
ملبورن
منافذ
هرمز
وأوضح
يحظر
##تحرك
##حقق
##حمل
##حين
##خفض
##رست
##رسي
##شار
##شعر
##ضت
##طلاع
##يرات
أتلتيك
أكمل
إقامته
إنترفاكس
استهلاك
اعتداءات
الحافلة
الخريف
السبعة
الكردي
المترتبة
المعركة
الوزارية
بأسعار
بالإجراءات
برد
بطريرك
ترحيل
تشوركين
خلصت
سياسات
صن
فض
فعالة
لذوي
للمفاوضات
مرتفعة
نظرة
والاجتماعية
وقررت
وقعا
يانوكوفيتش
يعزز
يوجني
##ادية
##افر
##جب
##زور
##صرية
##كيا
##ورية
##ونيا
3000
أديس
أسقطت
أشواط
أويل
اجتماعية
اقتحمت
اكتسح
التعبير
الحمل
الشديدة
الطالب
اللجان
المحظورة
المنزلي
بتمديد
تتسبب
ترفض
تعكس
جارتها
جواز
خلق
سكانها
شركته
فيرا
كينيا
لتنمية
لقى
للإرهاب
للخطوط
مسؤولا
معارض
ميداليات
والإجراءات
وطالبة
ولغاية
ومؤسسات
يابانية
##خابرات
##روي
##ستي
##سوء
##شات
##عمال
##غيب
##كف
##كور
##لف
##لقة
##لوب
88
93
أوف
التالي
الجالية
الحرام
العاجل
العملاء
الكثيرين
اللتين
اللواتي
تتحدث
تحذيرات
جاهزة
دراسات
صيانة
عاملا
فرضها
ماجد
مسبقا
مقاومة
ميلانو
وإطلاق
والكويت
يونغ
##u
##ابي
##اصر
##تفوق
##خيم
##دع
##شهر
##صعد
##فيد
أدرجت
ابو
استرليني
الآمنة
الاحتيال
الاكتشاف
التجميل
الخطيرة
السنين
القطار
المالكة
المشروبات
الموجود
اهتماما
بحري
بممارسة
تداوله
تدشين
تلفزيوني
دبابة
شهريا
ضخ
فوكس
قاع
قمرا
كارولينا
للتجارة
للدراسات
مزودة
مستمر
مسعى
واردات
واكد
وتنفيذ
وضعها
ولايات
##أسواق
##ئح
##تعاون
##ذه
##ساح
##سقط
##ليا
##واي
الإعصار
الارتفاع
الايام
التفاصيل
الثلج
الصفر
القدرات
المتعلق
الملا
الهدوء
بيك
تعويض
تيم
ثلاثي
جدية
كلب
لاهاي
لخدمة
لطلب
للبيئة
متجهة
متطرفة
مستقبلية
مكاسب
ولمدة
##اقية
##تشكل
##دق
##عاش
##عقب
##فك
##قضية
##ودية
##وقف
آسيويين
أجنبي
أخطر
أزياء
أولد
اجهزة
احتل
الإمبراطور
التعافي
التغيرات
الحمض
الخصوص
الضخم
العنصرية
الفلبينية
القفز
المارة
المرمى
بنود
تمكين
سباحة
عائدات
قديم
كتالونيا
لتطبيق
لصندوق
مغلقة
موت
وإفريقيا
واضح
##أة
##امل
##حث
##حف
##عاب
##ورد
##وفين
2024
إقليمية
إيل
اخرون
الأغوار
البرونزية
التشريعي
التهم
الجبير
الشائعات
الشرعي
المأهولة
المشكلات
الوسائل
تتميز
تحركات
تطبيقا
حفلة
ردت
زعيمة
غينادي
لسيارات
للأسلحة
للرقابة
للكرملين
مقاعد
هوغو
ومنظمة
##اسي
##تسع
##جت
##عمار
##لتين
##نائية
##هاد
##ونه
أراض
أرباح
أوضحت
استبعاد
استخراج
الأوبرا
الاستقالة
الاشخاص
الاعلى
الالماني
البلغاري
الترجي
التطبيقات
الدون
الفصح
المفوض
انتشارا
ايطاليا
بالاعتداء
بجولة
بقطع
تتارستان
تشجيع
سؤال
سجله
سلمية
عرب
فيتنام
قصير
مستعد
ميغان
وأحد
##us
##بيه
##حدث
##ديل
##ذي
##فد
##فيتش
##فيس
##لوف
##وضة
أطاحت
إعفاء
ابنته
الأذربيجانية
الألمان
الاتهام
الافريقية
الاوكرانية
البرتغالية
التدريبي
التنقيب
الجنح
الرائد
الزراعي
السراج
الضالع
الفنلندية
المستدامة
المغفور
المملوكة
باعتبارها
بحجم
بكثير
بمعدل
تسريب
تعطل
جيه
حادا
حزبه
حياتها
سيؤدي
شينخوا
طفيف
عريضا
عماد
كاسترو
لتنس
مسبقة
مستقرة
مطر
مواطنون
ميدالية
نسمة
والحفاظ
والصحة
وظائف
ومجلس
يا
يدور
##انو
##تهريب
##خالف
##رشح
##شمل
##مام
##نشر
##وفي
##وقة
الحلقة
السعوديين
الشتوي
الطويل
العائلات
الفرقة
الفور
القرغيزية
النزاعات
اليهودية
بالوقود
بنوك
بنيويورك
بيد
جرمان
حظرت
حمزة
حيوانات
رائدة
ربط
سفراء
سيشارك
صحراء
صفقات
فاجأ
لتصنيع
للتأكد
للسعودية
لهجمات
مواطنتها
وجريح
وكبار
ووهان
يقيم
##إصلاح
##الون
##انغ
##حلال
##دس
##سع
##صري
أجراه
أسر
إتش
استهلت
الأفريقي
البوب
التصميم
التقاعد
الحرمين
الذاكرة
الصوتية
الطارئ
الغرفة
الكابيتول
الكلاب
الليرة
المصور
الموظف
انتقل
بإصابة
بإعدام
تحرك
حافلات
رموز
سقطوا
شتى
عقبة
فيلما
قادروف
للاقتصاد
للبحوث
للمرحلة
لنظيره
متبرع
مكاتب
منفصلين
موسيقى
موفد
هاميلتون
هندي
وجامعة
وجهتها
وسيتم
ومناطق
يفتتح
يناقش
##أس
##جنحة
##خلق
##ذكاء
##رث
##فاف
##فيديو
##كاتب
##نمو
737
أورد
اطلق
الارض
الاعتداءات
التطرف
الدائر
الدبلوماسيين
السحب
السرطانية
العيش
القادر
المربع
المعدن
المعلمين
الملفات
الويلزي
انتصار
بالقتل
بحظر
بسكين
بضعة
ترغب
تركيب
تلقيه
جديدين
جنح
رئيسية
رفات
سياق
طبيعي
عززت
قيامها
لدفع
لشبونة
لكوريا
للتسوق
للنظر
مجانية
مجرد
مكتبه
منتخبا
مواعيد
هدم
والتنسيق
وبذلك
ومراكز
يقدر
##انات
##اهم
##تف
##جون
##حدة
##روا
##شاد
##عظم
##قنابل
##نيوم
##هاب
00
أسس
ألماني
استثمارات
اعتراف
الإنفاق
التحدي
التشيك
الرقص
المتميزة
المتنوعة
المراحل
المقاتلات
المقالة
المليون
المناسب
بحادث
بمكافحة
تحدد
ترافورد
تزداد
تعزز
تكريم
جلستها
جنرال
خيار
ذاكرة
راسموسن
سلوك
شريحة
طائرتين
عروضا
فحصا
قليل
كفيتوفا
لاتحاد
لتلبية
لشركات
للدورة
للنسخة
مسؤوليته
مسابقات
مستجدات
مشرف
مشيرين
مكانة
مكتبة
موزعة
نانسي
نظمته
وأفراد
وتحديدا
يضمن
##ؤدي
##تزامن
##طرة
##عل
##على
##قاسم
##قض
##ملة
##ويد
##يرو
##يفي
98
أثرية
احمدي
الانقسام
التباعد
التضامن
الجلد
الحقيقية
الساحق
الشبان
الغضب
الفاصل
الكولومبية
اللحوم
المسلسل
المنافذ
المواهب
بجميع
بزعامة
رأى
ربيع
ساعتين
شفاء
كاف
كثيرون
كشمير
لإحدى
لإرسال
لضحايا
مؤكدين
ماليا
مرشحا
مرورية
مستودع
وخصوصا
يبقى
##ئيا
##حار
##حالة
##ختبر
##ديف
##ذخائر
##رغ
##سيف
##شأ
##غادر
##غرامة
##منة
أورال
الأمد
الدقة
الدماغية
المانيا
المخدرة
بحالة
بصواريخ
بلدات
تحتضن
تحد
تنفذها
توجهت
حالته
خام
خرق
خططها
دانييل
ستشارك
شاشات
شعر
طرحها
غازي
فارق
قدمته
لتركيا
لرياضة
لقانون
للأمراض
نزاع
واعتبر
والدته
والسلع
وجهه
يستقبل
يعكس
##ايات
##ايف
##توى
##جماعات
##عنف
##كته
##لص
##مبي
##مح
91
أصدقاء
أضعاف
استضاف
الإصلاح
التطور
التظاهر
الريدز
الشروط
الطعن
المؤشر
المرسوم
الميدانية
انتحارية
اندريه
ببدء
تاريخي
تحظى
تدعى
تمام
توني
ثقته
جنوبية
حرم
حصوله
خادم
رامي
ستشهد
كاتدرائية
كتيبة
لاعبيه
لفتح
لمثله
ماتيس
متفاوتة
مجزرة
مرسوم
مقدمتها
وثلاثة
وشهدت
وصيف
ولكنه
ومسلحي
##ؤها
##الين
##تجاوز
##تخفيف
170
87
أفغان
استراليا
الأكاديمي
الاسبق
الدوائر
الدورية
الرزاز
العضوية
الفيصل
القصوى
الكتالوني
الكربون
المرزوقي
انهم
بإصابات
بيعت
بينه
تثبت
تعطيل
توفيق
حظرا
خالية
ديالى
شيكاغو
صفحات
عائلات
عرش
فلسطينيون
كاملا
لاجراء
للصناعات
للقطاع
مديرا
معتقل
مغني
مفاعل
منجم
والأجهزة
والجهات
والمعرفة
يحملون
يفترض
##ؤثر
##احي
##بته
##تحليل
##توحيد
##جرم
##حظر
##طيران
##علاج
##غاز
##قلة
##قيم
##كسب
##لقي
##مس
اتجاه
اختبارا
اضطرت
الاردني
الاطفال
الاميركية
الباحث
التفكير
الثلاثية
الحاد
الشقيق
العداء
المشجعين
اليرموك
بارزة
بالغ
خوسيه
دلتا
دينارا
رائعا
سيلفي
شهادات
صحفيين
عز
قمع
مذهلة
والتموين
والري
والعالمية
والمحيط
ومؤسسة
يقرب
##in
##اجات
##تجديد
##ذرية
##ذيب
##سيم
##قترح
إجراؤها
احتفاء
استطاعت
استعادت
استقال
الأهلية
الإصلاحات
الادارة
البادية
التجزئة
التشكيلي
الشاشة
العالقة
الفرار
المخطط
المزدوجة
المنعقد
النفسي
بلاتر
تحل
تعاقد
حررت
خلفان
خيرية
سمح
شمل
غاليري
فترات
قيامه
كلمته
للتعاقد
للتعبير
للرياضة
للمصالحة
لمنظومة
متوقعا
مهارات
نتائجها
نيوكاسل
والاستثمار
وبلغت
يدين
##80
##أت
##أن
##تسبب
##تير
##خطف
##شف
##قب
##مدة
##مود
##نج
آشتون
أمسية
أنجي
إشراف
التاجي
الحقائق
الحقوق
الشامسي
الشركاء
الفيروسات
القصير
المسيحية
الملحق
الموجودين
الناجم
بإشراف
ببيع
بتعديل
بموقع
تخفيضات
تزوير
تصريف
تضامنا
تعازيه
تغلبها
ثمينة
جميل
حريقا
سجينا
سيد
صديقة
طائراتها
طوله
غولن
كريستيان
لوبيز
ميرور
نجاحا
نفذته
واصفة
والخاص
وبولندا
وسائر
وقامت
ونائب
يتميز
##آلاف
##إيقاف
##بوب
##راب
##صاد
##قسم
##قوة
ألقاها
أنا
أوقات
اتخذتها
الإتحاد
التوافق
الحذر
السيادي
العلامة
المرتفعات
المعتقل
النادرة
اليومي
تحليق
تشخيص
تنتشر
رأي
سريان
شيئا
ضمت
عراقيين
غالبا
غسل
فوغ
فيغو
لإيجاد
لرجل
مر
مقترح
مقرها
ملحوظا
موجز
نقيب
والشؤون
والمعدات
ويعتبر
##تدهور
##تفاعل
##جير
##داع
##ديد
##شاهد
##ضاعف
##عان
##عو
##كير
##يران
ألغى
ألفي
اغتصاب
افراد
الإحصاء
الحواجز
الدار
الصرف
الفوتوغرافية
القاضية
القطبية
الكواكب
المتواصلة
المسلمون
الوثيقة
انترفاكس
انفصال
بارزاني
بالأسلحة
بالإمارة
بحوالي
تبنت
تشلسي
تقدير
توتر
دارت
زملائه
عقار
فانكوفر
فرانسيسكو
فيراري
كارتر
لحين
لقائهما
لقصف
لقيت
لوكاشيفيتش
متقدمة
مسجلا
منى
موظفا
هواة
والدواء
وتسبب
وقائد
##ar
##أمان
##تأكيد
##تأييد
##تغير
##ثني
##دز
##ذبة
##رح
##سبب
##سبة
##سهم
##سول
##طن
##قامة
##قبال
##قطاع
##لحق
##متها
##نون
360
أعدت
أنجيلا
إبان
الإعارة
التأكيد
التدريبية
التلفزيوني
الثلاثي
الضربة
العريش
الفعالية
الكارثة
الكتل
اللحظة
باكستاني
بشراء
توافق
جاك
دافيدينكو
دومينيك
فايز
فولكس
قدرتها
قرقاش
لقضاء
للاعب
ليوناردو
مشتبه
منتخبات
مهم
هوائية
والأخيرة
والرياح
والرياضة
ينتهي
##F
##ارقة
##اقه
##تفشي
##تقاليد
##تهدف
##ثافة
##ريق
##شرف
##مع
احتياطيات
اصطناعي
الحلول
الرسام
الضريبي
العون
المشهورة
الوقوف
بالقوة
بانتظار
بروغريس
ترفع
تعامل
تعويضات
توظيف
جهتها
جوبا
داني
طالبة
عادية
علاوي
فيورنتينا
لجهاز
لغم
للتنظيم
للجو
للموسيقى
لودريان
ماراثون
ماري
مسلم
معاملة
معروف
مقترحات
ملياري
هنا
والأطفال
والمخالطين
وبلغ
وتحديد
وحزب
وحسب
وكل
##b
##ئتلاف
##اكس
##بن
##حته
##ميات
##وبي
##ومين
##يخ
أكراد
أناستاسيا
اعترضت
الأرثوذكسية
الاعلان
الحراك
الطرقات
الكوريتين
المناخية
الموانئ
الموحد
بحثت
برية
تتطلب
تستبعد
تشافيز
تعلم
توعد
حطم
حملتها
خصيصا
خوفا
دستور
روجر
روسكوسموس
شقيقه
ضاحية
فوائد
للخيول
للمحكمة
لمرحلة
مجتمع
مراعاة
منخفض
والشرق
وحارة
يمنح
يوفر
##تقنية
##جار
##حرب
##خطط
##عمق
##قابل
##ومات
##يال
97
آية
أساليب
أمنيا
أوزبكستان
اعتذر
الإكوادور
الإنزال
التأكد
الجامعي
الضباط
العالميين
الفيصلي
المؤهل
المنية
الهاشمية
اليميني
بالانتخابات
بحماية
برنامجه
بصحة
بنفسه
تتابع
تخضع
تورينو
صعوبات
قفزة
قيم
كرواتيا
كنت
للعراق
منتجي
مواسم
موالية
وأجهزة
والبالغة
وردت
##le
##ئا
##اليا
##امات
##بيك
##تحول
##توصل
##صالة
##فعاليات
##قيل
##مساحة
##نظام
##وتا
أبرمت
أسئلة
أسدل
أصاب
أوصت
اسمها
اعتزاله
الأمان
التعرض
الحساب
الشريفين
القطارات
القلوب
المتجددة
المطالبة
الهادي
بذكرى
بصفة
بلاغا
توافد
جيد
حرجة
خلافا
ذهب
ستيف
طفيفة
عرسال
لاختبار
مربع
مفتي
مهاجمة
نتائجه
نشاطها
نظاما
والعاملين
وحماس
وفتح
وليبيا
وهيئة
ويتوقع
يتناول
##ادق
##تحف
##تزايد
##تلاف
##تناول
##جبار
##ربة
##صورة
##عجز
##عدام
##عكس
##عون
##نقل
2025
إيبولا
ازدياد
الإغاثة
الاتفاقيات
الاحتجاج
الاخير
التعليمي
الحكومات
الزهور
الصعيد
القوي
المتبعة
المحافظين
المصالح
الوجهات
بالإكراه
تخص
جاهزية
حجب
رومانيا
سفيرا
سيدان
شرط
طورت
عنصرية
فتيات
للجمهورية
للفورمولا
لوغانسك
متوقع
مروان
مظلة
موجودة
ميلانيا
والعودة
وجاءت
وعزلهم
ويعد
يعيشون
##بري
##تأثر
##تعداد
##تقلال
##خطر
##داري
##ديات
##راع
##صين
##ضاف
##ضح
##غرام
##كشف
##لاق
##هيد
##وبا
##وسي
##وما
##يكو
##يي
2005
أناتولي
إنجازا
ابراهيم
ابطال
احتواء
ارتكبت
التسلل
الجبل
الجودة
العجوز
العشرة
القروض
المتأهلين
الوافدين
بطول
تواجهها
ثان
دوريات
روح
سحق
سلة
صناعي
للعاصمة
للوزن
مستخدمو
مصريين
مصمم
موحد
نوكيا
هاني
والوضع
والوقاية
وتنمية
وصفتها
وطهران
وكندا
ونشرت
ياسين
##ed
##بلدان
##تاح
##تبادل
##جريمة
##حيط
##خروج
##زمة
##ستون
##شرطة
##صي
##عادة
##هشة
##واء
##وعات
##يغ
125
96
أدوات
إدارته
ارتفاعات
الأذربيجاني
الأورام
الديمقراطيين
السكك
الشاطئ
الشهداء
الصليب
الفقر
المزعوم
المستقيل
اليونسكو
بإمكان
بالاتفاق
بالسعودية
بالوكالة
بثت
براون
تحذيرا
تربط
تعثر
جنودها
حدثت
ديوكوفيتش
زعبيل
سائح
سقوطه
شرعت
عاش
عرضها
فيسنينا
قائلة
قزوين
للحدود
مستحقا
مسح
هبط
وزعت
وشك
يتطلب
يسفر
##at
##ؤه
##إثارة
##اشي
##اعد
##افل
##حرق
##حرك
##ديان
##ريم
##ضرب
##ضطر
##طيم
أبين
الإشارة
الاسبانية
الاستثنائية
الجعفري
الجوار
الضروري
الغنية
القرصنة
القنابل
الكعبي
المحتجزين
المدرجة
بترا
بغض
بفريق
جماهيره
جولي
حطام
دينية
صديقته
صوتية
عملياته
فجأة
قاض
كأفضل
كوبان
كيلومترات
لمعرض
مسلمة
مشاركتهم
هوندا
وأشارت
وإجراء
والإصلاحية
والتدابير
والفصائل
وحصر
وكازاخستان
ولكنها
##ss
##تطورات
##خرج
##ديز
##سائل
##غارات
##غالي
##غواي
##فرق
##فعل
##قاع
##لاك
##وكي
آتوم
أبوابه
أنقذت
إدانتها
إصابتهم
إنسان
اجتماعهم
اطلقت
الأوزبكي
الإبراهيمي
الانضباط
البوندسليغا
التايوانية
التعليق
الحمادي
السلوفاكية
السندات
الشواطئ
الغريبة
القطاعين
المتطوعين
المحافظ
المحترف
الوجبات
اليهودي
انفجارا
بالتجسس
بمشروع
تسيير
توليد
سهل
عطل
غرف
قاضي
كراتشي
لتزويد
لرصد
لقوى
للعالم
للناشئين
للوقوف
لمحكمة
لمشاهدة
مشوار
مفوض
موتورز
نشاطات
نقلها
هجومين
وأسفرت
والآثار
ومعدات
ومنتخب
يدوية
يضع
##40
##el
##أمير
##إعلان
##افية
##بذل
##بقي
##تى
##تيلاء
##جيني
##راك
##زف
##شط
##صية
##طرد
##هرب
94
أوبرا
إسبانيول
إشارات
استياء
الاختبار
الراحة
الرحيل
الرمضانية
السعيد
القيم
المبيعات
المتاجر
المهني
النبوي
النشر
اليسرى
بالسرطان
بتسجيل
بتصريحات
بدورها
براغ
بسورية
بلينكن
بمغادرة
تثبيت
تشانغ
تشهده
تعليقا
جوانب
زيمبابوي
سجناء
شتاينماير
كوبنهاغن
لحق
للمدينة
متواصلة
مستقل
مشوارها
معطيات
نالت
وإيطاليا
والعدالة
ووصف
##اض
##تات
##جتمع
##حال
##حريات
##خسارة
##ركة
##شدد
##ضين
##علة
##فرد
##فها
##قتها
##متطلبات
##ميز
##نال
##نر
##نع
##واج
##ورات
##يكية
##يلية
##ينات
News
أسترازينيكا
أغلى
أنفاق
إقبال
إنزال
احتضنت
استحداث
الأصفر
الأوكرانيين
الاخوان
الباردة
البداية
البريمير
الحراري
الخمسين
السرطاوي
الشرعيين
الشمسي
الشيشانية
الصلاة
الطابق
العبرية
القائمون
الكاظمي
الكاميرات
باليمن
ببراءة
برحلة
تامر
تساؤلات
تفرض
زيد
سانشيز
شرب
شهور
قدموا
كريستال
كورية
لاستكشاف
للثورة
لوكاشينكو
مانشيستر
محاكمته
مخرج
مخيمات
مصابا
مفادها
والإسرائيليين
والبرامج
وقام
ومسلحين
يرتدي
##L
##أحذية
##ألعاب
##أمراض
##تية
##ثمانية
##خم
##ربو
##ستاني
##شيا
##صغر
##غاني
##غراض
##غلب
##قان
##كلف
##لعب
##ناقش
##وفو
##يوان
أودي
ابتكرت
الاستماع
الانفصال
التهاب
الجريدة
الحبتور
الدوريات
الشوط
العامري
العمالة
الفعل
الكاميرون
المروحية
بتغيير
بمديرية
بنسب
تباطؤ
تبعد
تيار
ثقافية
جاستن
جديدتين
جرحى
جزئي
جمارك
حداد
سيبحث
سيرخيو
شاهين
صارمة
صياغة
طويلا
علمي
عمار
عوض
قاذفات
لاطلاق
لاغتيال
للجميع
للسفر
لمؤتمر
مختصون
مساجد
مصفاة
نعى
وأعرب
والإبعاد
والمالية
وبالتعاون
##ئتي
##ادا
##بني
##تشار
##تشارات
##تنوع
##توجيه
##ثق
##جاج
##جعة
##حشد
##زوار
##سمة
##شفى
##غور
##ماري
##نظم
1967
أبدا
أرواح
أطنان
إخبارية
اشتون
الإيجارية
البرد
التحرش
الترخيص
التزاماتها
الثروة
الديربي
الطلبات
الكوبية
النقطة
الواعدة
الوجهة
اليوتيوب
بالتدخل
بالفساد
تحميل
تيريك
حلم
رافقت
زرع
صد
فوزنياتسكي
للاعبات
للحركة
للمنطقة
موقفه
نائبة
هضبة
واستخدام
وجوده
وطالبت
ولن
يحتضن
يزداد
يسجل
ينظمه
##أهداف
##اربة
##انت
##بتها
##تحق
##تماع
##حياة
##سار
##صابة
##ظام
##فض
##فيف
##قدر
##قوية
##مخاطر
##نته
##نتهي
##نعقد
##نيك
##هو
آلة
آمال
أستون
أسرار
ابنها
اصطناعية
اكتشفوا
الإلكترونيات
البرلماني
التجمعات
التحريض
السريرية
الصومالي
الصينيين
الكبد
المتزايد
المجتمعات
الوزارات
اليمنى
انتقالية
بحوث
بريكس
بنغلاديش
تأخر
تجريها
توريدات
جدل
حقوقية
خبرا
دائمة
دبابات
دبلوماسيين
شالكه
شهري
صالات
فابيوس
كردية
كفاءة
كون
للرعاية
مأهولة
مارغيلوف
مزرعة
مناسك
والسكان
والقبائل
ورود
##أداء
##احترام
##اوات
##جسم
##جوب
##جيب
##رسم
##شيف
##ظومات
##عه
##غرق
##غناء
##قوس
أضرارا
ألكسي
أوسكار
أولي
إثبات
إيصال
استدعى
اكتمال
الأعصاب
الأيسر
الإصدار
الإقبال
الزيادة
السلطان
الغيط
الفرص
الفكرية
القديس
الكلية
الكوارث
المحاكمة
المسار
المسيحي
المشاة
الناصر
باستئناف
بالاس
بلاك
حققه
طبقا
عسكريون
عينات
غابات
كوخ
لعشاق
للحكم
ماساتشوستس
معسكره
مونتي
وأوضحت
والحد
وفرض
يلزم
##إبعاد
##اره
##افين
##الك
##تصاعد
##تيل
##حصول
##سكان
##شك
##غياب
##فهم
##لوم
##ماني
##مراجعة
##هاجم
أردنية
أقال
إدانة
استفاد
اعتبار
الاعضاء
الاولمبية
التكنولوجية
الجزر
القبرصي
الكتلة
الكنائس
المتضررة
المشتري
المغلقة
المفاجئ
النهار
الهنغارية
باتفاق
بتوجيهات
برلماني
بريدج
بلغراد
تدل
جاكسون
حاملا
حلت
دخوله
دفن
رودريغو
ستطلق
سودانية
عكس
فالكون
كوالالمبور
لحفظ
لذا
للأرض
للناتو
لمباراة
مبارياته
متوجهة
مداهمة
مراد
ممارسات
منافستها
نسبته
نيجني
والتطوير
والعربية
والمياه
وشرق
يرجح
##ay
##أسلحة
##إقليم
##بنى
##توفر
##جبل
##جمة
##جنة
##جيد
##دمان
##رسة
##رسوم
##زار
##ساق
##ستحق
##صفة
##قليل
أنطون
ابوظبي
اجتياز
ارتكبها
الأميركيين
الإجمالية
الاردنية
الاعتقال
التطبيقية
الحامل
الروبوت
الضرر
القضائي
اللندني
الماليزي
المبتكرة
المدفعية
المساهمة
المقيم
انقاذ
بإعداد
بالنادي
باهتمام
بدل
بطرق
بغارة
تخطى
ترميم
تعبيره
تمتد
حظي
خشية
خطابا
شهدته
ضمنها
طاجيكستان
فاسو
قليلا
قوائم
قولها
لجمهورية
للتصويت
للمركز
ليبي
مبدأ
متأخرة
مقاتلو
ملكية
هبوطها
هواتفها
وال
وموسكو
ويمبلي
يحاولون
يحظى
يهودية
##أكثر
##ائدة
##تجنيد
##تطهير
##تمام
##تهديد
##توافق
##دلة
##ذن
##سلسلة
##شجع
##صنة
##عش
##فذ
##موس
##ندية
آندي
أطلقوا
ارسال
الأرباح
التمهيدية
التنظيمية
الدخان
السيادية
الشيخوخة
الصيادين
الطرف
الطيب
العمانية
الفراعنة
المسح
المعدة
امتلاك
برلسكوني
بقانون
بملعب
بيرو
تذكر
ترودو
تعول
تكريت
تلقوا
توجيهات
دك
سابقين
شخصيا
شغل
عربات
فضائي
كمبيوتر
لأغراض
لتقييم
لجهود
لكوكب
للتكنولوجيا
متأثرة
مدرعة
مشارف
مقهى
منزلا
موافقتها
والإعلام
والابتكار
وبشكل
##60
##أضرار
##أمين
##بلدية
##بوط
##تخاب
##رتباط
##رني
##صديق
##ضية
##عمدة
##فجار
##فلات
##قال
##مرت
##مرحلة
##هبوط
2004
89
أممية
استبدال
الأعراض
الأوروغوياني
الإعمار
الاجنبية
الاحداث
الافراج
البحار
البطاقة
التبرع
التوعية
السبسي
العادة
المتفجرات
المحال
المستويات
بأسرع
بإجراءات
بالسماح
باللقب
بتعادل
بتغلبها
بتوجيه
بصفتها
بقضايا
بهزيمة
بهما
بيشاور
تختتم
تلقيها
حفلات
رحيله
روبرتو
ساعد
شمس
فحوص
فلاديفوستوك
قراءة
لاستهداف
لسحب
للاعبين
متاجر
مساعي
ملاحقة
وأفاد
والإنسانية
وربما
وفقدان
##m
##اهية
##بلغ
##تصفية
##جئ
##ختتم
##راض
##روب
##زينة
##سيل
##شلل
##ظهرت
##عام
##قاتل
##كيب
##يدو
أغلبية
أغنى
ألزمت
أنصاره
اتحادي
اختتام
استعمال
الآباء
الإحصاءات
الإعاقة
الاعلامي
الامتناع
الاوكراني
الساحرة
الصدد
الصغار
العريض
العظام
القيادات
الكازاخستانية
المئوية
المركزة
المري
المصادقة
انتخابه
انتقاله
انسحب
تجاهل
تكريما
تلعب
جميعا
حاسمة
حاكما
حركتي
دورها
ركن
سيشهد
طعنا
كير
لحقت
لذكرى
للاتفاق
لوجنيكي
مستوياته
مهنة
نيكي
هايتي
هتلر
هيغ
هيكلة
والتخطيط
واليمن
ورفض
وطلب
وفيما
يتخذ
يدفع
##أدوات
##أعلى
##أم
##بال
##بيرغ
##تحرير
##تنافس
##جاز
##جعل
##حوار
##خضع
##روح
##ستية
##سلطات
##شفافية
##عر
##علي
##فوعة
##قطة
##كرة
##مب
##وائد
##وبر
ألفين
أوسع
الإنذار
البطلة
التراثية
التصرفات
التماس
الحجاب
الزبائن
الشريط
الطرفان
العائلية
العامل
العشر
العلامات
الغارة
الفردية
القاري
الكلاسيكية
المتبقية
المسجلين
المعيشية
المهندسين
بحي
بديل
تحفيز
تسلا
تنظيف
تنفيذه
تونسي
دستورية
دياب
رجحت
زائر
سيلفيو
شعارات
ضمانات
طاقمها
عموم
فرناندو
قبيلة
قرش
كالينينغراد
للاستفادة
متشددين
مخدرات
معلنة
مكافأة
منتجاتها
منسوب
نافذة
نظمه
هاما
هيونداي
وأفغانستان
وإنما
والآخر
والدوريات
وتبادل
وتعد
وزعيم
وصلوا
ومدن
يكاترينا
##20
##أوامر
##بوس
##تولى
##حام
##خوض
##دال
##زود
##زيون
##عشرات
##لجأ
##محكمة
##ياه
أوكرانية
إلهام
إنديان
إيجابي
اسرائيلي
الاسم
البرادعي
البلغارية
البندقية
التقشف
التقطها
التهدئة
الجانبان
الحروب
الصيانة
المتاحة
المستديرة
المعاصرة
ايتار
بتعليق
برئيس
بليغة
بولتون
تابعين
تحذير
تخصيب
تسليح
تشارلز
تشاك
تصاريح
تعرضهم
تقودها
جامعات
حديد
خصص
زعم
زيارتها
عيار
قفزت
كريستينا
لاستخدامها
للاحتجاج
للعلاقات
للقتال
معلم
ممثلون
مودي
نفسية
نمط
والتسويق
والثقافية
والسلام
والعلاقات
ورأس
ورقة
ومضيفه
يحيي
يقومون
##تعرف
##ثار
##جذب
##جيا
##حاكم
##حياء
##رقص
##رقية
##ستن
##شعة
##صعب
##ظار
##ظاهر
##غن
##لكة
##لوك
##واه
##ودا
##يريا
أمور
اربعة
استنكر
الآجلة
الآلية
الاستيلاء
الامر
الدماء
الكائنات
المخ
الناخبون
انتصاره
انعدام
بإنتاج
بافلوتشينكوفا
برسالة
بستة
بشعبية
بيب
تأييده
تطلب
توصلوا
جريدة
خيمكي
درب
رعاياها
رغبتها
رودريغيز
زيلينسكي
ستار
طريفة
فالتر
قدرت
لاجئين
لتسجيل
للحرب
لموسكو
ماركو
مرسيليا
مصادرة
مقدم
موغيريني
نظرية
والأوعية
والإنقاذ
وحل
وقفة
ويليامز
##es
##اعب
##اور
##ترو
##تهاء
##جملة
##حاول
##خسر
##دماج
##سد
##سفر
##شود
##عالج
##فسكي
##قيادة
##مارك
##متهم
##وذة
##وسع
##وعا
##ومان
أهمها
أودت
أولياء
إطفاء
اسبوع
استقطاب
الأسبوعية
الاجهزة
الترويج
التنفس
التنموية
الجمهوريين
الحمد
الخيارات
السيئة
الصحافي
المعدل
المعسكر
المقدس
النبي
الودي
انتحاريين
باعتباره
بالإرهاب
بالعام
بروتوكول
تجتاح
تخطي
تعارض
حب
حفاظا
دمر
راكبا
زورق
ساوث
سكوت
سيمونا
شحنات
صوتا
كأول
لاعبات
لتصفيات
لحملة
لرابطة
لوزراء
ماس
مدمرة
مرشحين
مظاهر
ميلادها
وإغلاق
والأعمال
ويشارك
يتولى
يجد
##30
##en
##أراضي
##أطباء
##إضافي
##ابا
##اريا
##تحسن
##تسوية
##تفتاء
##حفظ
##خان
##ختراق
##روز
##شارة
##شى
##طى
##قانون
##كتها
##ليغ
##لينغ
##مستلزمات
##موت
##نجاح
##وذ
أطلقه
أنبوب
إضرابا
إقناع
إيفانكا
اسكتلندا
الأب
الحمر
الرائعة
الرباعي
السمنة
المحددة
المطرب
النهاية
انتهاكا
بالعراق
بالمرض
بديلا
بطائرة
بمواجهة
بنغلادش
بنية
بيرم
تتولى
تطهير
تعليم
تفاعل
حارة
حذف
صمم
طعام
غاريث
غريبا
كسب
كونه
لإزالة
لتشمل
لغايات
للطفولة
لمستخدمي
ليتوانيا
ليرة
ليفانتي
مكونات
ناتاليا
نافالني
نوفغورود
هيثم
والزراعة
وتعتبر
وجمهورية
##ؤجل
##ازن
##بيع
##تحضير
##تخصيب
##تداول
##ترات
##تقي
##تواجد
##توس
##توصيل
##حذر
##خطوات
##رحيل
##شجار
##ضات
##طريق
##غاثة
##فايات
##قارب
##قاضي
##قاف
##كمة
##موع
##هبة
##واع
##وتين
1200
آراء
أسهمت
أمامها
أنجز
إمارات
استثمارية
اشترت
اقتربت
الأوسكار
الإطاحة
الائتمانية
التمارين
الجمال
الطبقة
الفتح
المحتل
المحيطات
المفضلة
النفقات
النموذج
الوساطة
انتصارات
انستغرام
بأهمية
بئر
بالحصول
بترول
بنفس
بيني
تؤيد
تدفع
تركز
تسديد
تصرف
تطويرها
تفتيشية
تلسكوب
تنص
تيك
ثنائي
جاي
جيف
ستامفورد
سفيرها
سينطلق
شهدها
ضخما
ضوئية
فائدة
فتى
فيديوهات
قدرته
لاند
لتبادل
لتقرير
للأردن
للمؤسسات
لمسلحي
مبادئ
مستوطنين
مصراتة
معبد
مغبة
مكون
مليارا
مناقصة
منفذي
وتشكيل
وتونس
ووسط
يقترب
##أكل
##ؤكد
##ائط
##تعويض
##رادة
##رنانديز
##زيل
##سلطة
##صطدم
##ضاع
##مدرسة
أسلوب
أهدر
إسرائيليا
الأدلة
الأرمني
البشرة
البكتيريا
الحاكمة
الحمرية
الدعاية
الست
الطفولة
العريق
الكروية
الكينية
المتضررين
المفقودة
المهارات
انتشال
بأسماء
بقي
تعاملت
جراحة
حكومات
خيارات
داوود
سيتوجه
شرطيا
ضغوط
طرحه
عجلة
غرناطة
فاسيلي
فعالياتها
فهم
لاتزال
لتوجيهات
لعمل
لوبان
ماكين
محلات
مرتضى
ناجمة
نسخته
نهج
هزة
##أشعة
##إغلاق
##تاريخ
##تجمع
##تجواب
##تحالف
##تخلى
##تعريف
##درا
##ذية
##صاص
##ضلة
##ضيوف
##كاد
##كهرباء
##محافظة
##ملك
##نامي
##وام
##وانات
أجندة
أيد
ابنتها
اختطف
الآلي
الإبداعية
الاتجاه
التمثيل
التنافسية
الحداد
الدهون
العنكبوتية
الغواصات
الفندق
اللحظات
الملتقى
انسحبت
باغتيال
بال
ببلدة
بدراسة
بلاغ
بلدتي
بمستشفى
تتحول
تجار
تصريحاته
تنشيط
جنوى
جيدا
حراسة
خيتافي
ديزني
ستعمل
صدق
طرطوس
طيلة
علمت
غابرييل
فاروق
فيديريكا
قسد
لتشجيع
لطلبة
لفحص
للأوراق
للاطلاع
للتدخل
للتعرف
للحالات
للحرس
للسماح
للضمان
للعاملين
للفترة
لهزيمة
ماتيو
ماكاروفا
متظاهرون
محبي
معالم
معان
مكسيم
نسخ
نوفوسيبيرسك
هالة
هاليب
هاواي
والأمنية
وجودها
ورغم
ومحمد
##id
##إعطاء
##ئتين
##اتين
##اشتباكات
##الية
##اوة
##بأ
##بض
##ترز
##تصاب
##تقل
##تقليص
##تناسب
##تيراد
##جيال
##دعاء
##دلت
##ذين
##روف
##ساف
##شل
##غت
##قولة
##كتشف
##كمل
##مانية
##نافس
##نوع
##يانة
2500
إقبالا
استكشاف
اسماعيل
الأحيان
الأوائل
الان
التنقل
الحال
الحقوقية
الخطرة
الخطط
الخطورة
الضريبية
العدو
العلاجية
الغارديان
الغناء
الفائت
المتاحف
المحررة
المحطات
المفتوح
المهن
باتريوت
بالجيش
بالشرق
تساقط
تشييد
جنديان
جيب
حبس
دخولها
سترسل
سكة
سيئة
شبوة
صاروخين
عراقيا
قرضا
كاتالونيا
لأزمة
للبحرية
ليما
مؤيدة
مزيج
مساعدته
مصابين
هاجموا
هاون
هنغاريا
والمعلومات
والوفيات
وبمشاركة
وطبية
وفقد
ويليام
يده
##أبحاث
##أحداث
##أر
##أشهر
##إسهام
##ئف
##ابه
##ارك
##باس
##بيانات
##تسكي
##جبهة
##جرى
##دائه
##رؤية
##ستين
##سكر
##سلام
##شتري
##شهادة
##صلة
##ضخ
##عرض
##عوا
##ليات
##مساعدات
##نيس
##وخ
أدوار
إخماد
اخترع
اصدرت
اصطدمت
الأوبئة
الأولي
الثمن
الخبرات
الدفاعات
السرقة
المبرم
المقر
بالتورط
تشاووش
حرق
صحف
عقدته
فيتش
لتسليم
لتوريد
للطفل
للهجرة
لممارسة
مزود
مصريا
مصورة
موجات
نظيرتها
وأحدث
والاتصالات
والشارقة
والمسلحين
وتمكنت
وجرى
يجتمع
##أربع
##أهل
##اجه
##اريات
##اسل
##تراتيجية
##تصل
##تعرض
##تعطيل
##جلاء
##حرم
##خدم
##خول
##رساء
##زيا
##شعال
##شور
##غريمه
##كوم
##لندي
آرتي
أر
أريزونا
إنجازات
اختطفوا
ارتفاعها
اضافة
اضطراريا
الأغلبية
الاجتماعات
الاسرائيليين
الاف
البولشوي
التبرعات
الذى
السبل
السعي
السوقية
الفلكية
المتواضع
المدمر
المطورة
باستهداف
بالحكم
باي
بتوقيع
بديلة
بطرس
بنما
بورز
تتكون
تخمة
ترشحه
تعبيرا
تقسيم
تقود
حقيقي
حوله
خافيير
سعيها
شفيق
غانم
كلود
لانتخاب
لتلك
لجوء
لسد
للأشخاص
للاستخدام
للمؤسسة
مراقبون
مرشحة
مصممة
مقعد
موسمه
وأنقرة
والترخيص
والدة
ودائرة
يتطلع
يطرأ
##48
##nd
##أسهم
##احتيال
##ارض
##اشتراطات
##تأجيل
##تبني
##جزيرة
##خشى
##درك
##رواد
##زاز
##سس
##صدار
##عادل
##عمة
##قالة
##كيل
##لول
##مجة
أوصى
إبريل
اسبانيا
استنكرت
الإسلاميين
الاتجار
الاستوائية
الاسلام
البلاستيكية
التوازن
الجزاء
الديموقراطية
السترات
السلوك
الشكل
الصديقة
الطيارين
المسؤولون
المطلوبين
المعاملات
المفاوضين
المهرجانات
المونديال
الهداف
بانها
تراوح
تستأنف
تعاطي
تنتج
توصيات
توصيل
ثلاثين
ثلث
جاذبية
جنين
درس
دوتيرتي
رفضا
زي
سوداء
سيقدم
ضابطا
طوارئ
عاملة
عرقلة
عمليا
غيرها
فيتامين
قلة
كوكبنا
لشبكة
للفن
لمواقع
لنتائج
متنزه
مستخدم
مشاجرة
معمل
مفاده
مميز
منسق
مهتمة
نقطتين
والنقل
وضعه
وقطع
ويبلغ
يطلب
ينتمي
##أمر
##ايل
##برلمان
##تحواذ
##ترويج
##تفاء
##ددة
##ذى
##روم
##شاشات
##شكين
##صفح
##طريقة
##ظاهرات
##عبة
##عزز
##غريم
##قاضاة
##قضايا
##ماس
##مركبات
##نتين
##نيين
##واصل
##وزا
##يفية
##يمقراطية
##يمي
أحلام
أخطاء
أشد
أفغاني
ألوان
الأساس
الباجي
الترفيه
التغلب
السنغالي
الفقيرة
القطع
المقاعد
النسائي
الواسعة
الواقي
امريكي
بانتهاك
تعيد
تفادي
تقديمها
ثوان
جمعه
حربا
خارجي
رامز
ساحات
سكرتير
سمي
عارية
غريفيث
فتحي
فريدا
قادرا
قروض
للدبابات
لوكاس
ليفركوزن
ماركل
متخصص
مجالس
مدوية
مشجع
موسك
هيكل
وآسيا
وإجراءات
وبحضور
وبكين
##41
##et
##ge
##أجير
##أهالي
##إلقاء
##بعاثات
##بعثة
##تحكم
##تداعيات
##تعة
##حرس
##حرية
##رش
##ستقبل
##سف
##سكتة
##سى
##شاحنة
##ضغوط
##عمد
##فوق
##قرار
##قلاع
##قوا
##قوى
##ليف
##نجح
##هتم
##وجود
##ويس
أحيت
أستاذ
اجرى
الأرجح
الإعلانات
البلقاء
الروسيين
السلوفيني
الفائزة
الكاميروني
الليلي
المزروعي
المسلحون
النتيجة
بإنهاء
بالكرة
بخفض
بلغاريا
بيعها
تحطيم
تحكيم
تطرح
تغيرات
توافر
توك
حفر
خورخي
دانيال
دليلا
دمج
ذاتي
ركلة
ستاندرد
سيرجيو
فوجئ
قرغيزيا
لجمعية
لكوفيد
للقمة
لمنح
ماركوس
مرافق
مريض
مهمتها
موازنة
موديز
ناقشت
نتج
وإثيوبيا
وإقامة
واعلن
والحصول
وبدأت
وتشمل
وسرقة
وشدد
وفاز
وقضت
وكأنه
ولاعبة
يصدر
##95
##إدانة
##ئلة
##افد
##بدأ
##تأهيل
##تفعيل
##جولة
##حاكمة
##حرص
##خا
##خمس
##درس
##شآت
##شورة
##ضرر
##طرف
##طعن
##طفل
##عباء
##عبوات
##عرق
##عرقلة
##عطل
##عن
##غون
##فاهيم
##فعة
##فوا
##كفاءة
##ليس
##لينا
##محاولات
##ولات
أسفه
أمان
إدارات
احتمالات
اسفرت
الإساءة
الارهابي
الاسكندرية
البارالمبية
التعذيب
الحملات
الحواسب
الخنازير
الخيل
الروسيان
الشاي
الشراء
الطلاق
الغيوم
القضاة
الكازاخستاني
المتبادل
بأداء
بالتنس
بالضربة
بالغاز
بجراح
بريطانيين
بعمل
بلقاء
بمعاقبة
بنيران
بولسونارو
تأخير
تجمعات
تصرفات
تطورا
تعليمية
توقعاته
تولى
جوازات
خطابه
ستولتنبرغ
سرا
سيرو
سيصل
سيعود
سيلتا
علوم
غرقت
غيرت
قطعت
كارل
كريستين
كهربائي
لأجهزة
لتوليد
للبترول
للسكان
للمسافرين
للموارد
لموقف
لميلاد
معادية
معلنا
ممر
نزلاء
واستقرار
والإسكان
والعقبة
وتمكن
وقبل
ولو
يملك
##10
##70
##99
##c
##ألق
##ؤ
##احث
##ازل
##باحث
##بلاغ
##تجهيز
##تعراض
##تلقى
##جرائم
##ساء
##ساس
##شبية
##ظلم
##عها
##غرفة
##قاتلي
##قرة
##قصر
##قق
##قلق
##قلية
##لال
##مسجد
##موف
##وتر
##ييز
115
إحصائية
الاسترالية
الاستيطانية
البعثات
التبانة
الثماني
الحادثة
الرهائن
الظهور
العاملون
العسكريون
الكمامة
المائي
المحتوى
المطلة
المعادن
بإلقاء
باستاد
باك
بتمويل
تتناول
تحوي
تناقلته
جازان
حر
حصار
زكي
ستعرض
سوزان
سيارتين
سيناريو
شائعات
شريك
غني
غيابيا
فلويد
قوته
كادت
كونتي
كيا
لRT
لطرح
للتربية
للضغط
مقبول
ممثلا
ناشد
ودفع
يوافق
##is
##أساليب
##افسة
##افسه
##تسليح
##تغلب
##تفاضة
##تورط
##جلطة
##جهاز
##حض
##حمد
##خرية
##خفي
##دف
##رينا
##سرة
##سفينة
##شدة
##شيونال
##صرح
##ضاحية
##ضان
##فتي
##قنعة
##نح
##هج
أهلية
أونروا
إليهم
استغرقت
اسلام
الأشياء
الأقصر
الإجراء
الإعداد
الاردن
الاستطلاع
الاصابة
الاقليمية
الانقاذ
البروفيسور
التأهب
التسعة
الحكيم
الحيوي
الريف
الشراعية
الشرف
الشهري
العيون
الفحوصات
الكهرذرية
المؤلف
المرجح
المصاب
الوثبة
امتداد
امريكا
بعام
بندقية
بيتيس
تجميع
تخرج
تستضيفه
تشاد
تضع
تقترب
تقيم
جنوده
حدثا
حمى
سببا
ستوك
علييف
غذائي
غزو
فضل
كربلاء
لطائرات
للسفن
محتجزين
مذكرات
مرت
مزارع
معاقبة
مفوضة
موديلات
موريتانيا
ميت
نمر
والتجارية
والخارجية
والسياسية
والمراكز
وهمية
وولي
ويناشد
يفرض
يلي
##12
##آثار
##أزمة
##أشد
##اسبة
##ثرة
##جنود
##حرز
##حصد
##حور
##ذري
##زراعة
##سكا
##شكيك
##شهادات
##شيك
##طابقة
##قبة
##قصف
##كلفة
##نتقل
##نعكس
##وجة
##وفات
##ىء
أضاف
أليكس
ابيب
ارتكب
الأهالي
الاخرى
الاعتبار
الزوجية
السداد
السمك
الشكوك
العائد
العمرية
الفئران
الكلمات
اللياقة
المؤجلة
المتواصل
المضافة
المضي
انتباه
انشاء
انفجارين
بالخطأ
بحقهم
بصدارة
بطاريات
بمجرد
تختلف
تسجيله
تقلص
جبلية
جهودا
حازم
دجلة
دماغية
ذو
ستستمر
سلطت
صدمة
فوزي
قاعات
لأجل
لافتتاح
لتحويل
لتغطية
لتقليص
للخارجية
للطائرة
للعب
للمساهمة
مؤامرة
مؤثرة
مدتها
مركب
نزال
هوبكنز
وبيلاروس
وتطبيق
وثقت
ودبي
يتابع
##98
##W
##إرشادات
##ئط
##اطق
##بداع
##تصفح
##جأ
##جيت
##دج
##درز
##ديس
##زياء
##ستثمر
##ستند
##سته
##سعة
##سه
##سيدة
##صوص
##محيط
##مصير
##ولوجية
أداة
أدين
أسبوعيا
أسقط
أندريا
أوسيتيا
إقلاعها
اتفقا
استهدفا
افتراضيا
الأحدث
الاركان
البصر
التحقق
الجمعيات
الحصيلة
الحقيقة
الركبة
الزعماء
الكراهية
المؤدية
المخالفة
الممتدة
المواطنون
بافل
بالدوري
بذريعة
بصاروخ
بطارية
بقذائف
بوركينا
تأثر
تحضيرا
ترد
تكلفة
تلوث
تومسك
حقبة
دم
ركوب
زفوناريوفا
سعادته
شارلي
عادي
عدسات
عموما
قابل
قيودا
كتابة
كروز
كن
كوري
لأعضاء
لإلغاء
لانطلاق
لتصدير
لتغيير
لعودة
لفت
للإجراءات
للفيروس
للهجوم
لميليشيات
لوكا
مجرة
مخلفات
مقال
ناد
واجه
والجزائر
وتأهيل
وتبلغ
وجبات
وجميع
وزنها
وكشفت
يصور
يلدريم
يمتلك
##أقل
##ؤول
##ازية
##اصل
##اكي
##برية
##بنك
##تحريض
##تعافي
##تعليم
##حى
##خام
##رحلات
##رنس
##زت
##شاعر
##شبكات
##ضار
##طالب
##عميم
##مستقبل
##نشط
##واف
##وريا
إيتار
إيرينا
اتضح
ادعى
الأولوية
الإطار
الإفطار
الإيرلندي
الانتصار
التجريبية
الجزائية
الجنيه
الخيال
الرحيم
الرحيمة
السفيرة
الشبكات
الصحراوي
اللوحي
المتبادلة
المتشدد
المتهمة
المستحقة
المواسم
امني
بإصدار
باد
باير
بفرنسا
بورسعيد
بوساطة
بوشهر
تام
تبعات
ترتبط
تعرضوا
تعزية
جريح
جيفري
حية
خرجوا
خيبة
روبن
ساهم
ساو
عوامل
قاذفة
قيس
كوزنيتسوف
لتمثيل
لتمديد
لزعيم
لقمة
للإقامة
للتخلص
للتسوية
للجمباز
للكاتب
لنا
مازن
مجمل
معدلاتها
مغادرته
ملقا
موكله
نشطة
نعت
وافته
والالتزام
والنساء
وتراجع
ومقتل
##ائر
##اطير
##بديل
##تتح
##جال
##جيكية
##حقة
##خبارية
##داي
##ذيعة
##زح
##زعة
##سبورغ
##سجل
##سداسية
##سمو
##سيان
##صحيح
##طبة
##طلعات
##عكة
##غلقت
##قتصر
##قوانين
##كى
##مارة
##هند
##وتي
##ودت
112
Google
أخلت
أشادت
أودينيزي
أياكس
إنغوشيا
اثنتين
الأعيان
الإبداع
الاحتفاظ
الاحمر
الانهيار
التحليق
الري
الزائد
الصحراوية
الصعود
الضابط
الوعرة
انسانية
انسحابه
باتريك
بازل
بذهبية
بطرد
بعدها
بقدرة
بوينس
تبذل
تجرى
تجنيد
تحريرها
تحضيرات
تمثلت
تورونتو
حادثا
حلقات
خاصية
دافوس
زفيزدا
سانتوس
سراي
صحافية
عريضة
فيودور
قاطع
قدراتها
قديروف
قرغيزستان
كاد
كرمت
كليفلاند
كونها
للتزلج
للملاحة
لليغا
لمكتب
متأخرات
محدد
مزورة
مهددة
موافقته
نادرا
نزار
هدفها
وأدت
وأصبح
والمملكة
وكشف
ولايتي
ومقرها
يتجه
يديعوت
يعجز
يفكر
##ir
##أهم
##إشراف
##تركز
##تعايش
##تنسيق
##شرة
##صدق
##عيش
##غلبية
##قميص
##كسر
##كه
##ينية
235
Galaxy
أحكاما
أخر
أسفها
أعماق
أعيد
أمضى
اخر
ازاء
استلام
اضافية
اطلع
الافتتاح
البيضاوي
التفاهم
الدائمين
الشفاء
الطاير
العادي
الفندقية
القاعة
القلبية
الكاريبي
المتواجدين
المحامين
المخيم
المرتفعة
المواصفات
النازي
انصار
انطلاقة
بالرد
بتحويل
برحيل
برمنغهام
بمتابعة
تجهيز
تراث
تغطي
تلعفر
تمسك
حركات
دموية
ستسمح
سلمي
شنقا
صممت
طواقم
فخر
فرط
فرنسيين
قياس
قيل
كاس
لإصدار
لإعداد
لإعلان
للأمين
للبنك
للصين
متفرج
متميزة
متوجها
محتوى
مقره
موسيقي
وائل
واتخاذ
والقدس
والمواد
وانتهت
وعبر
يصعب
يكفي
يمنيين
##26
##أدوية
##أسرة
##إذاعة
##اظ
##افذ
##بطل
##تأكد
##تظر
##تقر
##حوال
##درجة
##رامة
##رمز
##زات
##ساعدات
##سري
##سوة
##شهور
##عصار
##فاذ
##فز
##لسي
##مساندة
##وتو
أمكار
أوهايو
استشهد
استعداداته
الأبرز
الانتباه
البديل
البلديات
البورصات
الثورية
الجبال
الجنسين
الحزم
الراب
الرمثا
الساخنة
الصاعد
العزاء
الفحم
القاتلة
الليكود
المادية
المتداولة
المحاذية
المطربة
المنتجين
امتحان
امتحانات
انتصارا
بؤرة
باجراء
ببعض
بتسجيله
بمضيفه
تبرع
تغريدات
تمارس
توازنه
ثالثا
جانبا
خلفت
دامت
رحلته
رياضيا
زارت
زحل
زعزعة
ستتخذ
شكك
صوتي
ضحيته
ضيف
طائر
طارئا
عمدا
عناصره
فر
فيسنتي
فيهما
كويكب
لسنوات
لسوريا
لعلماء
للسلع
مباحثاته
مسلمي
مفهوم
مقترحا
منير
نوت
هافانا
هندوراس
يفتح
##أثر
##أعداد
##انوف
##برغ
##تزام
##تصعيد
##تصنيف
##تعلم
##تقد
##حاب
##دخل
##دهار
##دوار
##زامن
##سلندا
##شاة
##شم
##صريح
##ضمن
##ضوابط
##طاحة
##عبد
##لح
##لحاق
##لز
##لع
##مبادرات
##وبرا
##ياب
أبي
أصحابها
أضخم
أفغانية
إبقاء
إحصاءات
استثناء
اسيا
اشتهر
افتتاحه
الآليات
الأرواح
الباليستية
التعقيم
التلوث
العقلية
الليزر
المتورطين
المجانية
المشاهير
المصنع
المقابل
الوجود
بالهجوم
بتسوية
بكفالة
بلده
بودابست
تتوقف
تضررا
تعصف
تقليدية
تقليل
جميلة
حساسة
خامس
خروجه
رحلتها
شاكر
عارمة
قيادته
كثيف
لقطة
للضرب
ليلي
مؤشرا
متحديه
محاكاة
محمدوف
مدافعه
منحة
منفصلة
ناديا
ناشئة
هلال
هيئات
هيفاء
والبحرية
والتراث
والمباحث
والى
وهبي
يعيد
يفوق
ينهي
##آداب
##أخرى
##أشكال
##إقرار
##تجات
##تفق
##جدية
##جزر
##جماعة
##حتمال
##دوء
##رامي
##رسون
##ريكا
##زعيم
##شاف
##صد
##صوات
##صير
##ظيم
##فس
##فكر
##قراء
##قياس
##كثر
##لندا
##ليون
##مطار
##مليارات
##مواد
##مواطنين
##نسك
##واب
##ياني
##يشيا
##يطة
##يلاند
##ينين
##ييه
آلام
أسترالي
أكملت
أنشطتها
اسطول
الأصدقاء
الإدلاء
الإسراع
الاستشارات
التايلاندي
الجليل
الضمان
الفيتو
القبة
القرغيزي
اللهجة
المؤسس
المسألة
المشاهدين
المطروحة
المعابر
المنورة
الموسيقار
الوداد
انتحاريا
انسحابها
باليستيا
بتوسيع
بورش
تخزين
تفويض
ثغرة
جرعات
حرصها
خمسين
رفعها
رفيعة
سحاب
سحبها
سلبي
صديقه
فاشلة
فعال
فوكوشيما
فياض
كاسياس
كندية
لجأ
للفروسية
للمهاجرين
مازال
محال
مختصة
مدرج
مزدوج
ميزات
ناريندرا
نزيف
نشاطا
نهائية
هدفه
والأنشطة
والاقتصادي
ورؤساء
وصولها
ويضم
يشهدها
ينظر
##اؤها
##اروف
##براز
##برج
##بقية
##تأخر
##تصدر
##تعد
##تقاد
##تقطاب
##تقنيات
##تقييم
##ثور
##جلب
##جنوب
##حمام
##دارية
##رضا
##رهاب
##ساحل
##سبان
##ستها
##شتراك
##شخص
##صنف
##ضب
##طالة
##عته
##قدرات
##كتب
##كسبورت
##لاحقة
##مؤتمر
##مزايا
##مني
##نذر
##وسط
آرسنال
أبقى
أرضي
أشعة
أوديسا
أوقعت
أيفون
إيرانيين
استخبارات
استراتيجي
اسوشيتد
اقتراحا
الأسماء
الإيقاف
البسيطة
التجريبي
الحبس
الرغبة
الزفاف
الشهرية
القبلية
اللاعبة
اللوحية
المجتمعي
المشي
النخبة
الهندسية
بريد
بلديهما
بنفيكا
تقريرها
تناولها
تواجده
تيري
ثروة
جزائرية
دايلي
دوام
ذكره
رشيد
رفائيل
رقابة
روني
زعمت
سهيل
سياستها
شركائها
فردي
كثب
كلاسيكو
كيريلينكو
لتوزيع
لطيفة
لعناصر
للإسلام
للبدء
للعقوبات
مباراتين
مددت
مراقبين
مروعة
مسيئة
مضاعفة
مضى
مقالا
موظفو
مونتريال
ميتشل
هيوستن
وأصبحت
والفواكه
والمجتمع
والمجوهرات
والمستشارة
والوفد
وباريس
وبنتيجة
ومتابعة
ووفقا
يان
يسود
يقلل
##أحد
##أحياء
##ئاب
##تأثير
##تئصال
##تح
##تفقد
##جلات
##جمالي
##حجز
##خار
##خضر
##خور
##روق
##شراكة
##شوارع
##شيما
##طع
##عملة
##قاتلات
##قدام
##قدرة
##قسام
##قني
##كافآت
##متعة
##معروف
##مكن
##وميو
##ونوف
##ويض
##يانا
أعياد
أنشيلوتي
أولوية
إنكلترا
استطلاعات
اعتبرته
الأجرة
الأجل
الأرمنية
الأسرية
الأمامية
الأوروغواي
الإنفلونزا
الارتقاء
الاستهلاكية
التمديد
الريال
الغني
الفيديوهات
القاسية
الكرك
اللطيف
المتجهة
النزاهة
النصائح
النقابة
بالرياض
بالكشف
بمحرك
تبذلها
تضاربت
تقليد
جاكرتا
جليد
جيرارد
حصدت
خسارتها
ديفيز
رئاسي
رافاييل
سعادة
سنوية
شارل
عثروا
قطارات
لسلسلة
لصفوف
للتزحلق
لمقتل
ليفاندوفسكي
مرتبط
مروع
مناسب
موارد
نحن
هاتفه
وأعمال
واجهة
والمشاركة
والوقائية
وعضو
ياباني
##أجزاء
##أخبار
##إتاحة
##ازمة
##بقاء
##تفاوض
##تمكن
##تنظيف
##جها
##ختصاص
##رتا
##رتي
##زيت
##سعادة
##سفير
##سكة
##سكن
##صا
##صباح
##صن
##ضراب
##عتراض
##عمرة
##مدرب
##مكة
##هران
##ورك
##وند
##يثة
##يهم
أساسيا
أسفل
أضافت
أمناء
إجراءاتها
إغاثة
اصابات
الأعياد
الأنف
الإبقاء
الداغستانية
السباح
السلوفاكي
السومة
الشيعي
الصمت
العبيدي
العميل
القنيطرة
اللائحة
المتعثرة
المتوقعة
المخالفين
المدة
المقاتل
الموجة
بإخلاء
بتحديد
بتصنيع
بروتون
بلبنان
بيير
تبون
تتهمه
تستقبل
تشي
تلتزم
تمثيل
توضح
جاريد
حافة
حكام
خضم
دعوته
راؤول
رهينة
زرداري
سنا
سوسييداد
صديق
قلوب
قوارب
لامرأة
لايزال
لتمكين
للأجهزة
للأدوية
للاستثمارات
للتخفيف
للذكرى
للمهرجان
مؤيدي
مازالت
مرتفعات
مساهمة
مشاعر
معين
نزوح
نهم
نيزك
والأمريكية
والإسلامية
والبرازيل
والسهول
والموارد
والهرسك
وتمويل
ودور
وقدم
ومحاولة
##71
##il
##أنف
##إبادة
##اتية
##الف
##بتون
##بق
##بلدات
##تسم
##تشخيص
##تغلال
##ثنى
##جتماع
##جزة
##ختص
##خلة
##دينو
##راجات
##ردي
##زرق
##زوري
##سوم
##سيو
##شأت
##شحن
##ضل
##عاقة
##عبوة
##غول
##قاعة
##قرارات
##قفز
##قواعد
##معايير
##ناشئين
##نخفض
##وحدات
CNN
أجرة
أزمات
إعلاميا
اتخاذها
اجتاح
اعتصام
الإقلاع
الإنشاء
الاحتجاجية
الاطلاع
التأسيسي
التحديث
التوقيت
الذيد
الرسالة
الشهيد
الطراز
الكاثوليكية
المعالم
النبأ
امن
باردة
باستقالة
باستقبال
بالمحطة
ببغداد
بتجربة
بعدوى
بغير
بلاي
بوصول
تتطلع
تتويج
تجد
تجريبية
تخصص
ترحب
ترمي
تعاف
ثبتت
جوا
جوزيبي
جيمي
حصتها
خالفت
ديني
ذكيا
ستستأنف
سفيرة
سكك
غائم
غاتيلوف
فرقاطة
فرنسوا
ففي
لضبط
لكافة
للإعلان
للتفاوض
للجهود
للدخول
للغولف
لوجود
لوكسمبورغ
مبلغا
مثبتة
مساحات
مسنودة
ناديجدا
نقضت
هاشم
والفعاليات
وجمع
وممثلي
يطرح
##إساءة
##إسقاط
##ارو
##افات
##الس
##امين
##باقي
##تتبع
##تجارب
##تجول
##تطوع
##تكامل
##تكثيف
##تنحي
##جدول
##جوة
##جوهرات
##ستفيد
##سجين
##سراع
##شيط
##صرة
##قائمة
##كال
##لحة
##مئات
##مطالبة
##وست
##وظ
##يسا
آدم
أجبر
أخفق
أعطى
أفرادها
ألمان
أند
أوبر
أولغا
إنذار
اعتدى
الأشعة
الابن
الاستعانة
الامتحانات
التجوال
السودانيين
الغواصة
الفم
المدعو
المذكورة
المستثمرون
الهامة
بأقصى
بأمن
بإمكانية
بالتوقيت
بدائرة
برويز
بشركة
بكافة
بنسلفانيا
تاتيانا
تتخذها
ترجمة
تساهم
تشعر
تقبل
حفرة
حولها
رشوة
سائقي
ستطرح
سندرلاند
صيغة
فجرت
قارة
قضاة
كاماز
كيلو
لآخر
لإصلاح
لتحديث
للإدارة
للإنسان
للتصوير
للفنانة
للمدرب
مأساة
متطرفين
مجاورة
محليون
مشابهة
مغربية
مكثف
مميزا
ميداني
نولاند
نيل
هنري
واجهت
والداخلية
وتوزيع
يثبت
##est
##ook
##أيدي
##إسناد
##اختيار
##امه
##اين
##باكستان
##بريطانيا
##تاب
##تجهيزات
##تسك
##تطبيع
##تقرار
##تكرر
##ثبت
##حالته
##حظ
##خلية
##راحة
##روج
##ستمر
##سعر
##سيين
##صال
##طابق
##عقود
##فارات
##قناع
##كتاب
##متع
##متفجرات
##نقاط
##نوس
##هز
##هف
##واكبة
##وعد
##وغ
##وفة
آلي
أبنائهم
أحيا
إسرائيليون
إيكر
ادت
ازداد
استأنف
اقتصاديا
الأسطوري
الأصلية
الإنجاز
الاسكتلندي
الانترنيت
البطريرك
التصدير
التكتل
التلقيح
الداعمة
الدامية
الرعب
الساحلي
العطية
الكوميدي
المدعية
المستفيدين
المطالب
المعمول
المنعم
انحاء
بإقالة
باشر
بالتدابير
بالمجلس
بجزيرة
تحيي
تيغراي
دبلوماسيون
دراسية
راكب
سبيربنك
شريطا
شقيقة
شكر
صحيح
صحيحة
عائشة
عمت
عملاء
فرانسيس
كابيتال
كودرين
لأمن
لاتفيا
لتهريب
لحالات
للشرق
للفصل
للمتعاملين
للمستثمرين
للمسلحين
مجموعتين
محليين
محمول
معظمها
موسعة
نصائح
نفقات
هارفارد
وإلغاء
والاعتداء
والمنشآت
وبما
وتجنب
وتهدف
يتمثل
يستخدمها
يسير
يمهد
##ck
##ne
##أديب
##أساوية
##أطول
##إناث
##ارس
##ارين
##اندو
##برة
##بعث
##بوك
##تراف
##ترقب
##ترميم
##تفاؤل
##توج
##تيه
##ثية
##جاح
##حيم
##خضوع
##خوان
##دونيسية
##زرع
##زنة
##زيين
##سياسات
##صدمة
##صعدة
##ضامن
##طيف
##فرج
##قاتلين
##كول
##موسيقى
##هلية
##وائي
##وسيلة
##يكوف
أراد
أسماك
أملا
اختفت
اسعار
اسلحة
اصدر
افتراضي
الأشجار
الاتفاقات
الاكتئاب
البيض
التلاعب
الجسدي
الحائز
الذكور
السامة
السنية
السوريون
الصحيح
الصعوبات
الضيافة
الطباعة
الفريدة
اللقاءات
المشاهد
المظهر
الهاتفية
الورقية
انتزاع
باختبار
باطلاق
بباريس
برنار
بروميتش
بيدرو
تسريبات
تنافس
جمركية
حرصا
حيوية
خبيرة
دوائر
رجلين
رفضهم
زيوريخ
ستستخدم
سينما
شعب
شل
صافي
عينت
غاية
غلاف
غواتيمالا
فروا
قبائل
كفر
كيلوغرام
لتصميم
لجائحة
للآداب
للانتقال
لمحطة
لمقاطعة
ليرفع
محاضرة
مهددا
موقفا
نشبت
هلسنكي
واضحا
والحوثيين
وتكنولوجيا
##it
##ادر
##اده
##ارون
##اكل
##تجابة
##تحذير
##تشينكو
##تطرق
##تعبئة
##تقى
##تلك
##تمرار
##جازات
##حالات
##حزاب
##حفز
##رانس
##راية
##ربط
##رزاق
##رص
##رير
##ساب
##سيط
##شقة
##شورات
##صارع
##صدى
##صى
##طبخ
##غاء
##غامر
##غنى
##غولي
##فعالية
##قراءة
##كرز
##لبة
##محتجين
##نفق
##هيل
##واة
##يلندي
أعدم
ألاسكا
أوفر
إنذارا
إهانة
اعتقاده
الإدارات
الاحترافية
الانتاج
الحصانة
الخبيثة
العالقين
الكرواتية
اللوجستية
المزاد
الموساد
باليه
بتوزيع
تراخيص
تشيخوف
تعنى
تلغراف
تونسية
جزائري
جوسيب
حاسب
حجة
زياد
زيت
ستارت
سريلانكا
سلفا
شاحنات
شعبان
شك
شكاوى
صغيرا
عنيفا
فولغوغراد
قاتلة
كراسنويارسك
كوكبة
كيليان
لأكبر
لدرجة
للتصنيف
للمستقبل
للهدنة
لهاتف
مبابي
متعدد
مدعي
مسافر
مسرحا
مصرفية
ممكنة
مهامها
مولر
مومباي
ناري
نيكو
وأضافت
والسياسة
والفرنسي
وتبين
وثق
وحذر
وخبراء
وفصائل
يخدم
يدل
يسلط
يعلم
يلقي
##أجواء
##إلكترونيات
##ابيع
##برر
##تخرج
##تزوير
##تقام
##ثنين
##دخال
##دوي
##ربت
##ربي
##رتو
##رعة
##ركبة
##روسية
##زلاق
##زول
##شرع
##صالات
##طارات
##عاء
##عارض
##غب
##غزة
##فورة
##فيك
##قاش
##قوف
##كتمل
##مدفعية
##مشاريع
##مقاومة
##مقترح
##وعية
##يام
##يزا
##يص
105
CIA
آلان
أجري
إنريكي
إيرلندا
ارتفاعه
استنتاج
الاشتباك
البروتوكول
الحفر
الراحلة
الزوجة
السري
السيول
الشطرنج
الغولف
الفارس
اللوحات
المجلة
المحتجون
المنخفضة
الهواة
الوبائي
انهاء
اية
ايهود
بإسقاط
بالإمارات
بحركة
بسام
بنس
تشغل
تشنها
تعيينه
تفتح
توقيعها
جلعاد
حلا
حواجز
خضعت
رانيا
سامة
سبورتينغ
سراحه
سعوديين
سناب
سياحي
علاجه
غارسيا
فائق
فنون
فورية
لأوكرانيا
لسورية
لشاب
للأفلام
للعمليات
للنجم
ماني
مراكش
مصارف
معدلة
مفيدة
مكانا
منحه
مواقعها
موسوي
نسبتها
واعتقال
والأجانب
والاقتصاد
والعين
والمغرب
وتقام
وجيزة
ورجل
وريال
وصندوق
وعشرات
ومقاطع
يرفض
##Q
##أجر
##ألوان
##إحباط
##إيواء
##ئين
##ابع
##اربين
##افعة
##اقشة
##انس
##اوين
##بطارية
##ثلة
##جني
##حارب
##حرف
##خصة
##خليج
##دقيق
##رلندا
##سوري
##سيس
##شاب
##شتبه
##صارعة
##صت
##صيانة
##ضباط
##عثر
##عرقل
##غوا
##قصة
##لدين
##مسك
##مينا
##نفس
##وفية
##وهة
##يدا
أتلانتا
أساسي
أكسيد
أممي
أنس
أهدافا
إتاحة
إير
استخباراتية
اعتذار
الأفكار
الإضراب
الالعاب
التشكيلية
الجاذبية
الجفاف
الحاصل
الحديقة
الحرير
الديموقراطي
الروسيتين
الزمني
السعر
الكوليرا
الليلية
المترو
المتقاعد
المتنازعة
المسموح
المشروعة
المشفرة
المعاهدة
المفاجئة
المهلة
المهيري
الميداليات
بأسلحة
بإيقاف
بالصين
بمسابقة
بمستوى
بيترا
تحديا
تقاطع
توتال
جيتكس
حجاج
حدودية
رمزا
شرقية
صياد
طريف
غابة
قصص
كليتشكو
لتجاوز
لتوقيع
لرعاية
لريال
للركاب
للنصر
لمثل
لوح
لولا
ماركة
متلازمة
مساندة
مشاهير
مفتوحا
مواطنيه
نسائية
وأيضا
والأمم
وحضور
وزارتي
وسجل
وغرامة
وفا
وفلسطين
ونحو
يتواصل
يرتبط
يصب
يوضح
##42
##آفاق
##أخوة
##إعجاب
##إهمال
##اما
##امتناع
##تباع
##تجارة
##توف
##ثقل
##حافلة
##حتكار
##خرطوم
##دريس
##رفة
##ركات
##ساحات
##ستغرق
##سط
##شروبات
##شكلة
##صعود
##صمة
##صمم
##طق
##عارة
##عاصمة
##فرار
##فقة
##قابية
##قلاب
##كذا
##مبياد
##مدرعات
##مكتب
##نام
##ييفا
آنجي
أرسين
أقامه
إضافيا
احتلال
اختلاف
استكملت
اشترى
اعتبره
اعتزال
اعلامية
الأهمية
الاستثماري
الاستشاري
البطائح
التشغيلية
التوسع
التونسيين
الجبرية
الجسر
الجيولوجي
الحاسم
الحيطة
الخارقة
الروك
الشروع
الضريبة
القيامة
الكترونية
الكروس
المؤكد
المتحورة
المتكررة
المجالس
المساواة
الممثلين
الموريتاني
الموريتانية
الهاكرز
اهداف
بإزالة
باعتبار
بالإنابة
بالتحالف
بتزويد
بحكم
بدأوا
برتبة
برهم
بلاتيني
بيضاء
تتهم
تدريباته
تسميم
توعوية
حصولها
حوثية
سقوطها
سيسمح
سيعلن
شرطيين
غانتس
غلطة
فاعلية
فريقها
فقدوا
فلسطينيان
قالوا
قتال
قلقة
كاذبة
كالديرون
كلاشينكوف
كولورادو
كويتي
لإغاثة
لفيلم
لكورونا
للتراث
للتقنية
للسينما
للنازحين
ليو
مبان
مبدئي
مرضية
مقرب
ملموس
نواز
هابل
هايكو
هروب
وإسبانيا
والجنسية
والحذر
والسيطرة
وانغ
ورش
ومسؤولين
ويست
يمارس
##آلية
##إنجاب
##اعدة
##تتويج
##تدامة
##تدفق
##ترداد
##تصرف
##تعليق
##تلال
##توي
##ثيوبية
##جلس
##جيكي
##حتضن
##درب
##دنى
##روية
##زك
##زميله
##سلاح
##سيوية
##شفاء
##صبح
##صح
##ضاربة
##ضحك
##عادتها
##عرب
##غلو
##غواصات
##قرر
##قون
##كتسب
##كثف
##لندية
##مرونة
##نساء
##هاج
##واطن
##وديو
##ويت
##ويج
iOS
أسبوعا
أعمالهم
أوبورون
إيهود
اجتماعي
ازدادت
استثنائي
استقالتها
اصطناعيا
افضل
الإفتاء
الاسود
الاشتباه
الاغتصاب
الانفجارات
البارزة
البوليفي
التأشيرات
التصنيع
التوحد
الخوف
الخيول
الظهير
العقبات
العموم
الفرع
الكرامة
الكلى
الكوكايين
المحلل
المرخصة
المعتمد
المعني
الميناء
الهائل
انتحر
انهار
بتناول
بحقوق
بعدة
بغرب
بولونيا
تابعون
ترسيخ
تصادف
تصدت
تعميما
تواليا
جدران
حدائق
خارجيتها
خططا
درون
دماغ
ساحق
شبيهة
شمعون
صدارته
عشاء
عملات
غرامات
فاخرة
فهي
فيرونا
قائدا
لاعتداء
لجذب
لجعل
لشغل
للمسلمين
لمبادرة
مرسى
مكسيكو
ملهى
ممثلية
ميسترال
نزولا
نصيب
وأطلق
وإنهاء
والتركي
والذين
والعسكرية
وبدأ
وبرشلونة
وتعيين
وخدمات
وطائرات
وعددا
وعمليات
وغيرهم
ولاعب
ووصل
يقدمها
يونهاب
##17
##88
##أيتام
##ابيب
##اتح
##باك
##تئناف
##تثبيت
##ترشيح
##تشييد
##تغطية
##تيطان
##ثان
##جمهور
##حكمت
##خلو
##رقابة
##روني
##سمع
##سوبة
##شافي
##ضوح
##طابع
##طوع
##ظاهرة
##عائلة
##علام
##قرية
##كرر
##مبنى
##نغهام
##نود
##وتات
##وحدة
##ورش
##ياتها
##يسة
102
أدخلت
أطفالهم
إسلامي
إياد
الجرف
الحارة
الحاسب
السباقات
السلفي
المعادية
الملحة
الوفاء
انتحار
بالأعمال
بالدور
بالقيادة
باور
بتأجيل
بشاشة
بشكوى
بضرب
بطائرات
بطرح
تاون
تخدم
تطرق
تعديلا
تقلهم
تيسير
جسده
حلقت
خطى
دوي
روبلا
صناعيا
عجلون
عزيز
غامض
غسيل
غوث
فاي
فوتبول
قضوا
كريليا
كله
كويتية
كيفن
لتنسيق
لص
لصنع
لكبار
للتطوير
للزراعة
للسياح
للشحن
للهوية
لواشنطن
مباني
محتجون
محرج
مدته
مستوطنات
مفاجآت
مفعول
نصح
نواف
واعدة
والعربي
والمطاعم
واي
وبدء
وتعهد
ودون
وسطه
وقائية
وكأنها
ولاسيما
ووجهت
ويبدو
يتوقف
يكاترينبورغ
##89
##ation
##آلام
##ألقاب
##ئدة
##اجا
##اغون
##الله
##انتقال
##بوع
##تاحف
##تج
##تشديد
##تنقل
##جحا
##جرين
##جيه
##ذاب
##سوفا
##شباك
##شيات
##غالية
##غرس
##غى
##فتح
##فكرة
##قطن
##لاعب
##لكين
##ماية
##ميني
##وسية
103
104
106
4000
أجبرت
أف
أندرو
أولويات
إعلانها
اتفقتا
الأخيرين
الاعتيادية
البطاقات
التقطتها
الحجز
الخصوصية
الخيار
الظواهري
العماد
الغاء
الغبار
الغموض
القمامة
الكونغولي
المتابعين
المتميز
المحكوم
المديرة
المزود
باللون
ببرنامج
بتعويض
بحكومة
بسط
بشرط
بشروط
تجريبي
تخوض
تستخدمها
تعبر
خاباروفسك
خادمة
خامسة
خلوصي
زلزالا
ستصبح
سرب
سلوفاكيا
سهلة
سور
طب
ظهرا
عودتها
غرام
فاغن
فينغر
قادمين
كثفت
كلها
لأسعار
لتعديل
لخسارته
لكسر
لكشف
للبولو
للبيت
للحيلولة
للوضع
لمواطني
لون
ليقود
مؤيد
متزايدة
متظاهر
مخدرة
مزاولة
معارضين
مكرس
ملغومة
منحها
موظفة
نافيا
واجب
وافادت
والتغيير
وبحسب
وتضم
وقوف
يكمن
يهودي
##16
##إحالة
##إنجاز
##بداية
##تألف
##تافات
##تخفيض
##تسبي
##تسديد
##تعب
##تقال
##جارة
##جدة
##حتل
##حن
##ختلف
##دري
##دهم
##راعي
##راند
##رسال
##ريقية
##سلة
##سياسة
##شب
##شياء
##طراف
##طفي
##غرف
##فجيرة
##فشل
##قاد
##قذائف
##كنة
##كوت
##كيم
##لياف
##مبعوث
##مرأة
##مراقبة
##مقترحات
##ملابس
##موافقة
##ميدان
##نازل
##واد
##واسب
##ودان
##يلات
2002
آصف
أشتون
أعد
أعلنتها
إذن
احترازية
اراضي
اعربت
الأثقال
الأخطاء
الإليزيه
الاذاعة
الامريكيين
التميز
الدعوات
الرئة
السمراء
الصلب
العريقة
العشاء
العطلة
الفتنة
القافلة
المزارعين
المصغر
المنازعات
المهم
الواسع
امتدت
باليرمو
بانخفاض
بضع
تاجر
تبليسي
تتصدر
تجاريا
تقديمه
تهدئة
ثبت
جنودا
حكمها
حيا
حيفا
خطا
دفعات
رئيسه
راتب
ساعدت
سميت
صدامات
صناع
ضعيفة
ظلت
عانى
غانا
غطاء
فإنه
فهو
فولفسبورغ
قبلية
قنصلية
لاغارد
لانتقادات
للاتصال
للمركبات
للنبي
للوزراء
متشددة
مطاردة
معارضون
معسكرات
مفخختين
مقتله
مهندس
هزم
وأطفال
واين
وحقق
وخلال
وصاحب
وضرورة
وغيره
ويظهر
يسبق
يشغل
ينتج
ينصح
##ra
##أغلى
##ؤر
##إمكان
##الها
##انضمام
##اهر
##بهجة
##بورن
##بيو
##تآمر
##تبدال
##تفع
##تكنولوجيا
##تهنئة
##تورطه
##توسع
##جودة
##حزب
##حسان
##خدمية
##خطوط
##خمور
##رتين
##سلالة
##شيو
##ضمون
##طلت
##عبئة
##عيم
##غطاء
##فظ
##قبض
##قيام
##كتائب
##كينغ
##لياقة
##مهمة
##مواقع
##نتهك
##نطق
##نوات
##هدف
##وادي
##ودين
##وقوع
of
أمطر
أوسلو
إرجاء
إعجاب
احياء
اصبح
اعتقالات
اغتيل
الآمن
الأديان
الأسبوعين
الأمواج
الإشراف
الإنتاجية
الباكر
الثمين
الحسناء
الحشرات
الحفلات
الحميد
الدهس
الذعر
الرسم
السناتور
الشكاوى
الصفوف
الضعف
الطائر
الطلق
العصبي
القادرة
المؤيدة
المجاهدين
المختص
المشتقات
المقال
الميركاتو
امين
انطلاقها
بالسفر
بالموافقة
بتصوير
بسيارته
بقبول
بلال
بندر
بواشنطن
تابعا
تحاكي
ترشح
تعاونها
تعتقد
تعداد
تنديدا
حافظت
حظيت
حمدوك
رئيسها
رائع
رباعي
رسوما
روبوتات
سرقت
سياح
شجار
شريطة
صادراتها
طفلان
ظهوره
علنا
غراند
غرقا
فعلا
فيرير
لاين
لتبلغ
لجأت
للتدريب
لنمو
ماك
مصانع
معاذ
مماثل
مير
نهارا
نيكول
واليونان
وتوسيع
وحكومة
وضواحيها
وعربية
يترقب
##ألوف
##ابق
##اليس
##انها
##بطاء
##بيروت
##تثمر
##تدرب
##تسيير
##تقارير
##تمرين
##توم
##جرامية
##حجر
##حدد
##خيص
##دفن
##دونيسيا
##رالي
##رالية
##ريبات
##زج
##ساط
##سيد
##شت
##صيلة
##ضللة
##طعم
##عادته
##عجلة
##غبا
##غوف
##فيضانات
##قاهي
##قير
##كثير
##كياس
##مفاوضات
##نبورغ
##نقاذ
##واق
##ويب
Pro
آيرس
أدائه
أسترالية
أنثى
إحراق
إغلاقها
ادعاءات
الآراء
الإشارات
الإنجازات
الاقتراب
البنى
التالية
الحظ
الحوسني
الدواء
الزهرة
الشرطي
الفورية
القنصل
المختبر
المدرعة
المشرف
المعدلة
المعطيات
المولد
النمر
انتشاره
ايرانية
بأمر
بجوار
بريمن
بليبيا
تحلق
ترتفع
تسهيلات
تعذيب
توصية
تيموشينكو
ثانوية
ثراه
حوالى
خطته
ديترويت
رويال
زوكربيرغ
ستعلن
سدد
سرايا
سوداني
شكره
صبري
ضجت
طوابق
عائلاتهم
عال
غروب
فرحان
فرد
قابوس
كريس
كواكب
لأولمبياد
لالتقاط
لتفجير
للمنتخبات
للوزارة
لمختلف
لنجم
ليونيد
ماء
محرز
مدبولي
مدفوعة
مراقب
مساعدتها
معقدة
موتكو
نورمحمدوف
وأمريكا
واعتبرت
وتأمين
وتسجيل
وتشجيع
وتشير
وزاري
وسوف
وقدمت
وكلاء
ومواد
يتراوح
ينقل
##BA
##um
##أثناء
##إخراج
##ئحة
##ئقة
##ئيات
##اجع
##اخرة
##اشات
##اقصة
##بطولة
##تردد
##تزود
##تصاميم
##تطعيم
##تمتع
##ثالث
##حضير
##خالفتها
##ختار
##خراط
##ديو
##روقات
##رياء
##زعماء
##شاركين
##شعب
##صحة
##عيق
##غنياء
##فقد
##قتراح
##لغام
##مانيا
##مجموعات
##نائه
##هول
##واصلات
##واكه
##وخة
##وشي
1945
أسوان
أندرس
أنقاض
إسعاف
اتصل
احتجز
اعتقلوا
الأدب
الأفغان
الأقاليم
الإنتربول
الاحتباس
الاستهلاك
التنحي
الجمركي
الخصم
الخضار
الزيارات
السكني
السلط
الشكر
الصلة
العداءة
العصبية
الغنائية
الغنوشي
الغير
الفتى
الفوتوغرافي
القطط
المتراكمة
المتمثلة
المثليين
المغاربة
المكاسب
المكون
باتحاد
بالدخول
بالسلاح
بدت
بعجمان
بعقوبة
بنفسها
بيتش
بيلوسي
بيليه
تحتل
ترفيهية
تسونامي
تطبق
تكليف
تكوين
تولوز
جرود
جسيمة
داون
رئيسيا
رحل
روفر
ريكاردو
سات
ستراسبورغ
ستصل
سوفيتوف
شديدا
شرائح
صينيين
طفلها
طنطاوي
فيرغسون
قبر
كاراكاس
لانتشار
للأبحاث
للإغاثة
للتشاور
للذهب
لمديرية
متفجرات
مجهولا
محدود
مرماه
مستوطنون
مصابة
معتقلين
مقدونيا
مقرات
مكانه
ملء
منصبها
ميديا
نائبه
هربا
وأجنبية
وأربعة
والإحصاء
والامن
والبنية
والقضاء
وحذرت
وزنه
وساطة
وعرض
وفود
ومساعدة
يتهم
##أول
##إثبات
##إجابة
##إجمالي
##إعداد
##بارد
##بدء
##تأسيس
##تشارك
##تكليف
##تيهما
##جاد
##جبت
##خريج
##خيبة
##دولة
##دونا
##ذرة
##ذهاب
##رافة
##رخص
##ريت
##ريقي
##سخرية
##سفارة
##سلطنة
##شاعات
##شون
##صرا
##طاد
##طاطي
##طعام
##طلقة
##طمح
##عترف
##غرات
##فري
##فنون
##كاب
##لواح
##مرافق
##مسيرات
##ميت
##نهج
##هى
##واعد
##وصل
##يلم
135
154
أخذت
أفعال
أليانز
أهدافها
إخفاء
إيجابيا
اجراها
احتيال
الأسري
الأميري
الأورال
الإبلاغ
الإسكان
الإضافية
التسلح
الجلسات
الحرارية
السيولة
الشرب
الصوتي
القبول
القذائف
القرش
القيادية
اللغات
المتخذة
المصارعة
المصريون
انتعاش
ايه
بالاشتراك
بالتخطيط
بجهود
بدرجة
بسلام
بقرية
بقصر
بوب
تأسيسها
تأكد
تدين
تزود
تشريعية
تعادلا
تعليقات
تنشر
جدوى
جيم
خطيرا
ديونها
رمزي
سلفه
شات
شيع
صالحة
صبحي
ضرورية
طردت
عالي
عبوات
عريض
عصابات
غارديان
غيابه
فاجأت
فرجينيا
فروع
قطرية
كريستوفر
لأكاديمية
لحج
لرجال
لسياسة
لعدوى
لقطر
للزوار
للماسترز
للمنافسة
مات
ماسك
مانيلا
مداخل
مدفعي
مسارها
مسجدا
معتقلا
مغربي
مقالة
ملموسة
نيستيرينكو
هايلي
والروسية
والسماح
وايران
وتحمل
وضبط
وفاتها
وقائع
وقرر
وكيفية
ياندكس
يحضر
يواجهون
##ine
##أزياء
##أفلام
##إرشاد
##إمداد
##ئك
##اءات
##ابها
##احية
##ادته
##ارع
##اطؤ
##اطئ
##اونة
##اوى
##بى
##تاد
##تجميع
##تصار
##تصميم
##تضح
##تكاليف
##تهديدات
##تهي
##ثقافات
##خاطر
##خبيل
##دارة
##ذير
##رافق
##رحلة
##شئ
##شادة
##شركة
##عبان
##عبدالله
##عقاب
##عياد
##غنية
##فتاة
##فلسطين
##قائه
##كراد
##لازمة
##مخالفة
##مخاوف
##مخدرات
##مسؤولية
##مشروعات
##ندو
##نفي
##نكا
##هزة
##وئي
230
777
آماله
أجمع
أقلية
ألبرت
أندي
إدريس
اباد
استبعدت
استماع
اضطراب
الأحكام
الأنواع
الأهم
البعيد
البلوشي
التغييرات
الحادة
السبعين
السيناريو
الشريك
الطاولة
العبارات
العوامل
الفارين
القامشلي
المتمركزة
المحظور
المراقبون
المعلا
المغادرة
الموقوفين
النصب
بألمانيا
باتروشيف
بالحجارة
بالعين
بتونس
بحصوله
بخروج
بضحايا
بلوتو
بلير
بهيئة
بيري
تحكم
تصيب
تضرب
تفريق
تقارب
تمكنها
توسع
داخلها
دب
دبلوماسيا
رائحة
زمنية
ستانفورد
ستبقى
ستحصل
سيحصل
شاملا
شريكا
صنفت
طائرته
طائلة
طالبات
غضبا
كارين
كثيرين
لحوم
لخطة
لساعات
للإسكان
للتظاهر
للطلاب
للمزادات
مارينا
متاحة
متحدثة
متداول
مسارات
مضاعفات
مضي
معدودة
معربة
مقبلة
نشاطه
وابنته
والأجنبية
والترفيه
والتطرف
والطائرات
وعدت
ومتظاهرين
ونشطاء
ووقع
ووكالة
ويذكر
يتحول
يخرج
يصيب
##ES
##ad
##ity
##ive
##ter
##آليات
##أثاث
##أكاديمية
##أمل
##ؤشر
##إجازة
##ارهة
##الو
##انه
##تخلص
##تدمير
##ترجمة
##تشين
##تفتيش
##تكوين
##توقيع
##جيج
##حترفي
##حقوق
##حها
##حياز
##خطار
##داث
##دمة
##راءات
##رتكبها
##سيارة
##شتهر
##شع
##شعاع
##شكلات
##عائلات
##عقيم
##عني
##فاد
##فريد
##فوعات
##فيين
##قترب
##كلي
##كماش
##لغي
##لوت
##مبية
##ناية
##نوم
##هائي
##وانية
##وجه
##وزة
##وطة
##وكيل
##وهم
##يئة
##يسري
أسبوعي
أعدته
أعطت
إدانتهم
إطلالة
اتلتيكو
استغل
البطن
البوابة
البيرو
التذاكر
الجزئي
الخطير
الرقابية
الرياضات
السر
السوفييتي
السياج
الطالبة
العد
العسل
الكحولية
اللاتفية
اللاسلكية
المتابعة
المختصين
المنسق
الناشطين
الوسطاء
اليابانيين
بأفضل
بالدم
بجرائم
بخدمات
بزعم
بشاحنة
تألق
تاكسي
تجول
تخلت
تراكم
ترسيم
تصور
تقتصر
تكفلت
تلقاها
جياني
حجازي
خصوصية
دخلوا
دقيق
رواجا
زيغمار
سام
سعوديا
سيخوض
شابين
شاليط
صورته
غاضبة
فردا
فسخ
كرمان
كوشنر
كيربر
كيلي
لإجلاء
لافتين
لتشغيل
لسقوط
للإنتاج
للقصف
لمطار
مثيل
مدرجات
مسيرتها
مصدرها
مكانتها
ملتزمة
مهندسون
ميللر
نجاحها
والأفراد
والتقنيات
والقوى
والمرور
وتسهيل
وشهود
وعملية
ومحاربة
ومصادر
ووحدة
ويعتقد
يتلقى
يستأنف
##79
##lus
##أبرز
##ألف
##إبقاء
##إخلاء
##ائز
##اثيل
##اجي
##اختطاف
##انتا
##ايت
##بداء
##تبع
##تدقيق
##تسريع
##تشعار
##تمتاع
##توعية
##ثورة
##جنين
##جوية
##حراز
##خالد
##زته
##ستطع
##ستقر
##سكين
##شقاء
##طرح
##عانة
##عيادات
##غرافي
##غراق
##قراطية
##قوض
##كبته
##كبي
##لوس
##لومات
##مباراة
##مساهمة
##مياه
##ميلان
##ناطق
##هاما
##هجة
##وكالات
##يما
##يوية
107
190
New
أورلاندو
إيبار
ازمة
اطفال
اكتفى
الأسئلة
الأمعاء
الاستيطاني
البريطانيون
البلدات
البيانو
التحريات
التميمي
الجراحية
الدراما
الطائفية
العدائية
العرش
العمرة
الفارق
القادسية
القدامى
المادي
المانحة
المتفق
المحاسبة
المرابطة
المصممة
المغناطيسي
المهاجمين
المهددة
النباتات
الهاون
انتقلت
بأجهزة
بإصابته
بالتحرش
بالعلاقات
بالقيام
بتدبير
بحفل
برامجها
بسيط
بضائع
بضربات
بناية
بوريسوف
بيتكوين
تأثيرا
تأثيرات
تجمعا
تحريك
تدريبي
تسلق
تنافسية
جماهيري
حقيقيا
حمراء
خاض
خلفه
رشح
رهائن
روبوتا
رونالد
ساخنة
سترد
سربت
سميث
سنجار
سيبقى
شاه
صقلية
طبق
عاشت
عبارات
عزبة
غاغارين
غباغبو
فاتورة
فافرينكا
قضاها
قميص
قنديل
كامبريدج
لافت
لاهور
لثلاث
لطالما
للأسبوع
للابتكار
للطب
للعديد
للعلماء
للغبار
للغذاء
لموظفي
لنزع
مالطا
متباينة
مستخدميها
مستهدفة
مسلمين
مسن
معاملات
مقيم
موبيل
نائية
وأصاب
والتفتيش
والضفة
والفنية
والمحلية
وتظهر
وثائقي
وحضر
ودولة
وسيكون
وفرت
ومحيطها
ويعود
ويهدف
يستعرض
يغير
ينتشر
يهود
##97
##ence
##أتربة
##أسس
##ؤسس
##إضرار
##ابت
##اهي
##بز
##تاني
##تثمار
##تراخان
##تسنى
##تشاف
##تمع
##ثنائي
##حتياط
##حجار
##حفل
##حوادث
##خبارات
##ختصين
##خضروات
##خلاص
##دانته
##درو
##دمج
##راتب
##راي
##ريكي
##ستير
##شاحنات
##شرب
##صته
##صدي
##صيف
##طبقة
##طرية
##طقم
##عتاد
##علماء
##غاثية
##غريب
##فتاح
##فترة
##فحص
##فرص
##قاعات
##قمر
##كانو
##كتف
##لاح
##لهم
##مشاهدة
##مكان
##مليار
##ممارسات
##ناها
##ندر
##نيه
##هداف
##هدد
##وسيا
أصابت
أفتوفاز
إفطار
استمرارية
اضطراري
اعتذاره
اقتراع
الأرثوذكس
الأغنية
الأونروا
الإرادة
الاستعراض
الاماراتي
التزامه
الحاسوب
الزاوية
الشرطية
الصحافيين
العادات
العروبة
العصابات
العصور
الغازية
الغاني
الغردقة
الفروسية
القائمين
القابلة
القرض
المختطفين
المروري
المساس
المشاركات
المكثفة
المنشأة
الميادين
الهيكل
الوقف
ايجاد
بابلو
باحات
بالأمن
بالبقاء
بالسعي
بالعالم
بتشديد
بتغريم
بتقنيات
بتكلفة
بحزم
بخسارته
بقصد
بلدانهم
بلقاح
بيلد
بيوتهم
تراقب
تسليمها
تفتتح
تفجيرين
جمعها
حمام
خاطئة
خضوعه
دوليين
رصدها
رود
ساوثهامبتون
سلامتهم
شمسية
صنعت
عدوان
علياء
عوضا
فراس
فوزنياكي
قضائيا
قيامهم
كاظم
كوستا
لأفراد
لاجئا
للإدلاء
للإفراج
للارتقاء
للعيش
للمكتب
للمواصفات
لمرضى
متمردين
مدفعية
مرزوق
مزمنة
مشروعها
مفتوح
مكالمات
موسيقيا
نجران
نغمة
وأفضل
واسرائيل
والإدارية
والإرهاب
والجامعة
وامرأة
وانه
وبات
ودولية
وزارته
وزوجها
وضمن
ومانشستر
وهناك
يجريها
يستخدمون
يعطي
##73
##96
##أجانب
##أغنية
##ؤيته
##إيجار
##ئعة
##انز
##بيوتر
##تشغيل
##تصويت
##تعليمات
##تقالة
##تقدير
##تني
##توظيف
##جتها
##حجام
##رء
##ردت
##رشيد
##رهان
##روع
##زالت
##صادقة
##ضبة
##طيد
##عوة
##فاوض
##قاه
##قمة
##قوط
##كافح
##كوس
##كوفسكي
##كولات
##لط
##مستدام
##مهام
##نائي
##ناع
##نسون
##نفط
##نوية
##هدي
##هوة
##وائية
##وفاة
##وقات
##ومه
##وهاب
##يغور
108
175
240
650
أصدرتها
أعدتها
أفكار
أقارب
أقسام
ألمح
أنتجت
اغلاق
اف
اقتصادها
الأصغر
الاعتصام
الاقتصادات
التهرب
الثابت
الحاج
الخبز
الدموي
الديزل
الراعي
السنغال
السياق
الصفحة
العاجلة
الغابون
الكاتبة
المتزايدة
المحرك
المدربين
المذكور
المزاعم
المنخفض
المنصف
النقب
الهدايا
انضمامها
بالنفط
بتوريد
بصفقة
بعضا
بقيت
بلس
بيئية
تسجيلات
تسود
تعريف
تنتمي
تور
تورطه
توطين
ثابتة
جبران
حاز
حرمان
حظا
خسرت
ذروة
رادفانسكا
روسيين
ري
ساحقا
سجين
شائعة
صنف
طالما
عادات
عم
غلق
غيب
فرقت
فصيلة
فضية
قتله
لاول
لداعش
لطرد
للإشراف
للفرق
للقرآن
للقيادة
للمعلومات
محظورة
مخدر
مستحقات
مشيط
مطورة
منافسيه
موراليس
ميثاق
ميشيغان
نخيل
هاغل
هجومية
هدايا
وآليات
واشار
والعرب
والمقدسات
ودمشق
يفضل
يمكنهم
##TV
##os
##أقباط
##إصابات
##إظهار
##ائف
##احثين
##ارها
##اضطرابات
##بتكر
##بيري
##تابع
##تبدأ
##تجار
##تعذيب
##تقارب
##توري
##توفاز
##توني
##جلسة
##جهاض
##دبية
##درجات
##ذج
##ذكرة
##ذهل
##رافقه
##رموز
##رواية
##ريل
##سفن
##شاط
##شرق
##شيء
##صدفة
##ضبط
##ضعف
##ضليل
##ضوع
##طم
##عزف
##عقار
##عموم
##غولا
##غين
##فئات
##فصال
##قصاء
##قوارب
##قوم
##كليات
##محافظات
##مضي
##منع
##ناص
##نظافة
##نكر
##ونين
##يدية
320
Times
آخرها
أسرى
ألبيون
إستونيا
إسعاد
إقدام
إنجليزية
إنفاق
إيبدو
استقرت
اشتعال
اشتهرت
الأثنين
الأدوات
الابراهيمي
التجار
التربة
الجلوس
الجليدية
الجوانب
الجيدة
الجيوسياسية
الربط
الزلازل
الزي
السؤال
العبارة
العقل
الفاشل
القاها
الكتابة
المالديف
المحاصرة
المحروقات
المدارية
المسنين
المشرفة
اليدوية
اليكسي
ايغور
بالبرازيل
بالقطاع
باليستية
بتحسين
بشان
بطهران
بمنصب
بنز
بيجي
تأليف
تبرعات
تذكارية
تردي
تسارع
تصنيفا
تصويره
تضرر
تضررت
جهوده
حققته
حققتها
دفاعه
دوره
رقصة
سوانزي
شعوب
شهيرة
صمت
ضوابط
عراقجي
عرف
عكاظ
غلوناس
غول
قاب
قط
قوسين
كتابا
كردي
كوهين
لاريجاني
لاكتشاف
لصالحه
لقد
للتخلي
مان
مختار
مشيدا
ملونة
ناقلات
نفوذ
وأذربيجان
واستمرار
والآن
والبناء
والتدريب
والدتها
والشام
وعائلاتهم
وللمرة
ولوغانسك
ويرى
يتقدم
يصوت
##74
##86
##أبوظبي
##إجهاد
##إدلب
##ابل
##اجم
##احه
##اقت
##اقي
##الت
##بب
##تاش
##تجدد
##تجميد
##تحدثت
##تحضر
##تحليق
##تخابات
##تخدم
##تشاور
##تفيد
##تمان
##تنازل
##توريد
##توضيح
##تيريا
##ثا
##ثالا
##ثول
##جمال
##حذاء
##حذف
##خطوة
##دحمة
##دعي
##دوفا
##ديوهات
##راح
##رصنة
##رفيه
##رود
##ريات
##ريح
##زمات
##سبق
##ستور
##سرع
##سطو
##سويسرا
##سيمات
##سيمة
##شاشة
##شكو
##صاء
##صاميم
##صداع
##صدة
##صفه
##صناف
##ضواء
##ضيق
##طائرة
##عادت
##عشاق
##غوث
##فاجأ
##فوضية
##قاعد
##قضي
##كاس
##كانيات
##كذب
##لتها
##لمة
##مطعم
##ملحن
##مهارات
##مول
##ميناء
##هاي
##وتسك
##ومو
##يتيكو
1300
270
COVID
أدولف
أغلبهم
أنجلس
أوردته
أوفا
إثرها
إيفانوفيتش
الأرضي
الإدمان
الإسماعيلي
الابتعاد
الاخضر
البوكمال
البيئي
التزحلق
التقيد
الحراسة
الحقول
الخروقات
الخناق
الرملية
الرياضيات
الشيعة
الضارة
الضحية
العطاء
الغالبية
المرموقة
المرموم
المساعي
المعاناة
المعتدلة
النامية
النيوزيلندية
الواجهة
بأعجوبة
بالصواريخ
بالوصول
بداعي
برونو
بضمان
بك
تألقه
جهد
خير
رائدا
رياح
ساهمت
ستفرض
سرق
سماع
شيخون
صحوا
صلاحية
عازف
عقارات
عقيلة
فوستوتشني
كائنات
لاستمرار
لتجديد
لتسجل
لتوجيه
لجهة
لفرق
للإبداع
للعنف
ليلى
مستودعات
مصدرا
مواليد
موعدها
نصية
نظافة
واس
واعتقلت
والأوقاف
والاستيلاء
والبنك
وشباب
ومشاركة
يحول
يدرسون
يعتقدون
يواجهها
##35
##أتي
##ؤون
##ؤيد
##إنجليزية
##احل
##اعادة
##اقتصاد
##انج
##بادرة
##باو
##بايس
##برشلونة
##برع
##تأخير
##تجزئة
##تراك
##تعود
##ثماني
##جرد
##حصائيات
##حمص
##خاء
##خبر
##خترق
##خفف
##رسل
##ركا
##رمال
##ريغ
##ستقطب
##سجة
##سعى
##سويد
##شريحة
##صقة
##طلة
##طياف
##عادلة
##عايير
##عمود
##فيدة
##فيه
##قاولات
##كتل
##لبان
##لكية
##لوا
##مأكولات
##ماد
##مضمار
##مينية
##نجر
##نفت
##نفذ
##نيكوف
##هيب
##وثة
##يهة
أكار
ألقاب
إسلاميين
اثار
اجراؤها
اختبرت
ادعت
اساس
الأسوأ
الأقوى
الاصوات
الاقصى
الانفاق
التداعيات
التطبيع
التعديل
التقويم
الجبوري
الحريات
الدجاج
الدورات
السادات
الصخري
العائدة
العلني
العمالية
القدسي
الكلب
المتأخرات
المجرمين
المجمدة
المذنب
المكونة
الموسمية
الهروب
اليويفا
اما
انتخابية
انعقد
بالانسحاب
بالخروج
بالصحة
بتوقيف
بداخلها
برأت
بوردو
بوسعها
بوصة
تتقدم
تخطت
تداولاتها
تركت
تسفر
تصنيفها
تضامن
تنظيمها
توقعاتها
جيريمي
حضره
حققها
حكوميا
درويش
رميا
ستجمع
شخصي
شركاء
ضيوف
طلعت
علاوة
فحوصات
فرحة
فولكسفاغن
فيل
فيليبي
قادت
قندوز
كرئيس
كوباني
كيميروفو
لإصابات
لاذعة
للأولمبياد
للشهر
لمطالب
لمنتدى
مارسيلو
مراهق
مصرعها
مصنوعة
مضت
معصوم
معنية
منتشر
مواجهته
نظارات
هتك
والرياض
والمسؤولين
وبرامج
وجوه
وسقوط
وعمان
وقضايا
ومأرب
ومواصلة
وهولندا
ويب
يتصدر
يجعلها
يريفان
##92
##me
##آمال
##أعمار
##ألم
##أوروبية
##أوقات
##إسطبلات
##ائزة
##اتلون
##ارتين
##استاسيا
##اصرة
##ايته
##بائن
##باريات
##تذكر
##تسمية
##تضافة
##تعمد
##تقوم
##تكرير
##تميز
##تهدئة
##توافر
##ثيل
##جندة
##جهاد
##جيز
##خيانة
##دقائق
##ديمة
##ذنب
##رأ
##رادار
##رازيلي
##زيغ
##سرعة
##شارع
##شستر
##صاح
##صافحة
##صافي
##صيدة
##ضاء
##ضيع
##ظور
##عطاء
##عواقب
##عيان
##غات
##فئة
##فقت
##قلعة
##كايا
##كرا
##كمال
##مالا
##محتاجين
##مروحيات
##مستشفيات
##مشاعر
##مقطع
##ميزة
##نحي
##وسا
##وفق
111
أبخازيا
أجسام
ألزهايمر
أوكراني
إحداث
إما
احتدام
احتفظت
اراضيها
اسرائيليين
الأفعال
الإندونيسي
الائتمان
الاستيعابية
الانتماء
الانخفاض
الاولية
البارزين
البالغين
البرهان
البصرية
التسويق
التصرف
التكتيكية
الثلث
الجوع
الدراجة
الديناصورات
السارية
الشحي
الشهرين
الظاهري
العائدين
العنصري
الغزو
الفخذ
القبرصية
الكيني
المبالغ
المتوج
المثالية
المحدود
المراهقين
المزارع
المستقل
المصانع
المصمم
النشطة
الهنود
الواضح
بإجلاء
بالجزائر
بالوباء
بانيتا
بحدوث
بضم
بلوشستان
بمزيد
بوليفيا
بيونتيك
تأييدها
تجمعوا
تحرش
ترسل
تركيز
تسليمه
تشايكوفسكي
تقييد
توضيحات
جادة
جاهزا
جايير
جونيور
حزام
حصص
دقة
ستانيسلاف
سعره
سينمائي
شيرين
طالباني
طشقند
عراقيون
عميد
غواصات
فرضته
لأشخاص
لاب
لعلوم
لغز
لقائد
للأسطول
للحلف
للعملية
لمغادرة
لوزن
لينينغراد
مؤجلة
ماثيو
متزايد
محادثاته
محللون
مركبته
مريضا
مقاتل
ممتلكات
منافس
موشيه
نزاربايف
وأحمد
وأستراليا
وأطلقت
والبحوث
وتتضمن
وتحت
وخفض
وخيمة
وسعت
وغرب
وفاق
وقتا
يبين
يتمكنوا
يدلي
يرغبون
يزعم
يغادر
##11
##15
##U
##ure
##أجلت
##أعوام
##أفكار
##أمهات
##ؤيتها
##إصلاحات
##اؤه
##ابين
##استوبول
##اسيل
##بئ
##بدوريا
##تجربة
##تراليا
##تسلق
##تسمم
##تعارض
##تعز
##تفاق
##تنع
##تولوا
##جامع
##حافة
##حان
##حراف
##حسار
##خته
##خرف
##رؤوس
##رائط
##رابطة
##راس
##ربين
##زالة
##زونات
##ساعد
##سافات
##سافر
##ساوي
##ستعرض
##سحر
##شاريع
##شترط
##شكا
##ضعاف
##طوي
##فراج
##فسهم
##فضل
##قبيل
##كك
##كمية
##لاجئين
##لجنة
##لفت
##ليل
##متمردين
##مدون
##مقعد
##مواصفات
##موالين
##نائيا
##نتي
##نويات
##هجرة
##هيئة
##وقي
##ولينا
##يدات
##يشيات
1600
أرملة
أساسا
أشعل
إجرائها
إحداهما
إخباري
إنترنت
إيطالي
استضافته
اشتعلت
اعترض
اعتمادا
الأجيال
الأطباق
الإعادة
الاجانب
الارهابيين
الاستغناء
الاستقبال
الاماراتية
الايرانيين
البنكية
البيوت
التهاني
الجزيري
الجمباز
الدراج
الدنيا
الرجاء
الصلبة
الصينيون
العضلات
الفالح
الكوريل
المؤدي
المبرمة
المتواجدة
المدعى
المراجعين
المطلق
المميز
الموضوعات
النقاش
النقدي
اهمية
باعت
باندلاع
بتجميد
بتروليوم
براديش
برمجيات
بلاستيكية
بمحطة
بند
بنشاط
بوادر
بيوت
تأدية
تدني
تدوير
تذكرة
ترويجية
تشكيلها
تعاونية
تعترف
تفسير
توب
توقيعه
جبريل
حاتم
حاسوب
حدادا
حسان
خريف
دل
ذراع
رحمة
رمزية
رمي
سانتا
ستجرى
طفلين
عطاء
عودتهم
غادروا
غريغوري
غوطة
فرار
فلك
كامتشاتكا
كبسولة
كلغ
لتجارة
لرواد
لطفل
لقاحها
للأفراد
للمرضى
للمصابين
لمجلة
ليتم
لينين
مؤلفة
متحركة
محاولتها
مستخدما
مشارك
مقابر
مقبولة
مقطعا
مليحة
مليونية
موجعة
نصبه
والأمين
والاجتماعي
والعنف
والهيئات
وحامل
وشخصيات
وضعتها
وطأة
يتنافس
يرجع
يعقوب
يقدمه
##62
##ight
##أسطورة
##أطفال
##أقمار
##أماكن
##إسعاف
##إضافة
##افينا
##ايتها
##تعدين
##تفاقم
##تكريم
##تماد
##جيش
##حادثة
##حساسية
##حط
##حواسيب
##خطة
##دلاء
##راق
##راه
##رخصة
##روضة
##رول
##سجن
##سكري
##سمم
##سيء
##شاكوف
##صحية
##صص
##صنوع
##ضائع
##ضرائب
##عالم
##عضاء
##عضو
##فيت
##قاذفة
##قور
##لتزم
##ملا
##مهاجم
##مواعيد
##موقع
##ناسب
##ندسة
##نشاط
##نقيب
##همة
##وبات
##وران
##يبر
##يتان
##ييس
1990
5G
G7
أحرار
أخيه
أديب
أردنيين
أسرتها
أسهمها
أضرم
أقامها
أكدوا
أمجد
إنفانتينو
احتجازه
استثماري
استولى
اعتذارا
الألوان
الاحتفالية
الاطراف
التكنولوجي
الجاز
الجامايكي
الحاسمة
الحديدي
الفرعية
الفضيل
الفيتنامية
الكازاخية
الكوليسترول
المتاخمة
المجرات
المحدودة
المرجع
المعتصمين
المعيشة
الممكنة
الممنوحة
النسبة
النهر
انتر
بإدخال
بالعديد
بالمائة
بتخفيض
بتدمير
بعين
بمجال
بور
تتوجه
ترحيب
تصميمها
تعيشها
تفقدية
تناقلتها
ثلجية
حديثه
حربها
حطمت
حكيم
خيري
دربي
دعمهم
دولارات
راي
ريفلين
ستستضيف
سلبيا
سوقا
سيرج
شينجيانغ
ضريح
طبرق
طورته
غلوبال
فبعد
قائما
كلما
كليات
كندي
لأحدث
لتعويض
لتفعيل
لضرب
لفترات
لقادة
للإحصاء
للتصميم
للتنديد
للسوق
للصيد
للقوة
مار
مارتين
مباشرا
محفظة
محقق
مديري
مفاتيح
منا
منوها
مونشنغلادباخ
نالتشيك
نظير
نفي
هليكوبتر
وأكثرها
والسبت
والصواريخ
والهيئة
وتل
وذوي
وسبعة
وقادة
ويحتاج
يجعله
يرصد
يشنها
يوروفيجن
يي
##87
##H
##ies
##one
##z
##أحزاب
##أسرى
##أمطار
##إفلاس
##إمكانية
##ادتها
##اعتها
##اندي
##بكي
##بلة
##بلدة
##تئاب
##تاغ
##تحل
##ترانزيت
##تزاز
##تسول
##تغرق
##تلام
##تلف
##توحد
##ثات
##جاجة
##جميل
##حادية
##حركات
##حصار
##ختير
##داف
##دالة
##دبندنت
##ذبح
##ذكر
##ذيع
##رأس
##راهم
##رتفاع
##رجح
##زستان
##سؤولين
##ساعات
##سفارات
##سيكي
##صابات
##صلين
##صون
##طح
##طري
##طفاء
##عاصير
##عالى
##عتمد
##عسكريين
##غانستان
##فذة
##قطب
##كلا
##لوائح
##لوحات
##مائة
##مدافع
##ممتلكات
##ناس
##هانة
##هيدروجين
##وته
##وطن
##وكة
##وليه
##يافعين
##يبته
##يرن
##يشة
##ينيات
##يوف
1994
أباد
أجهزتها
أدخل
أصالة
أعلنها
ألافيس
أندريس
أوضاعهم
أولئك
إبادة
إساءة
إعلانه
إيرانيا
اعتمادها
اقتراحات
الأدبية
الأقلية
الإيرادات
الإيفواري
الاستمتاع
البرمجيات
التساؤلات
التمرد
الجواد
الحاويات
الحبيب
الرواتب
الزوجي
السائدة
الصبر
الصراعات
الصيام
العابر
العنيف
الكلمة
الليبرالي
المتوفرة
المزمنة
المناهضين
الناجحة
الوافد
اهتمامها
بأكبر
بالنظر
بانتمائهم
بتخصيص
بتلقي
بيزوس
تدافع
تربية
ترقب
توقيت
جاكوب
جنسي
حان
حضوره
حوارا
حوارية
خطفوا
رؤوفين
رايس
رمز
روسيف
زراعية
سلوان
سيصبح
عملت
عيادة
عينة
فرضه
فزاع
فعليا
قاسمي
كلي
كيميائي
لأحكام
لايف
لتخزين
لتسريع
لتكريم
لعيد
لفتاة
للإرهابيين
للاستخبارات
للمسجد
مأدبة
مبدئيا
متوقفة
مدرسية
مزايا
مشروعة
معاناته
موعده
نبيه
نيران
هازارد
هواتفهم
وإيجاد
والإسرائيلي
والسبعين
والستين
والمبيعات
وحصل
وصولهم
ولأول
ووصلت
يتكون
يتوجب
يطالبون
##أثرياء
##أسعار
##إله
##ئس
##افيل
##اكهة
##اليم
##انيس
##باشر
##براني
##برز
##بيلو
##تاتورك
##تبة
##تحلي
##تحية
##ترأس
##تشو
##تنتج
##تنعت
##تهاب
##جنيف
##جهز
##جوائز
##جوز
##حارس
##حترف
##حجب
##حلة
##حواض
##خات
##خلل
##خلي
##دث
##دنية
##دول
##ذور
##ردان
##رسان
##ساكي
##سرين
##سطية
##شينا
##طاع
##طعمة
##طلاب
##طنين
##ظف
##غندا
##غوس
##غيزستان
##فتين
##قتال
##قصور
##قنبلة
##كاف
##كانية
##كبد
##كبوت
##كتظة
##كستان
##كيماويات
##لحم
##لواء
##محاسبة
##محاكمة
##مراسم
##مشاكل
##مفاصل
##موظفين
##نتو
##نق
##نوي
##هجمات
##هور
##وافق
##وجي
##وشا
##وليس
##يوط
119
أبنائها
أحادية
أدرج
إبعاد
إجرامية
إحصاء
إسبر
إعلانا
اصابته
اصل
اعتاد
اعتذرت
اعداد
اعوام
اقتحموا
اكتشافها
الأجور
الأغاني
الاستحواذ
الالتحاق
التخصصات
التخفيضات
الترجيحية
التشريعات
التهمة
الجليدي
الحدائق
الرمضاني
الشعلة
العاطلين
الغامضة
الفشل
الفكر
اللاسلكي
المتخصصين
المحركات
المديرين
المطر
المظليين
المعتاد
المعروضة
المناسبات
المواضيع
النائبة
الناحية
النحل
الهنغاري
الوظيفية
اليدين
بإعفاء
بارتداء
بالأرض
بالتوصل
بتصدير
بحالات
بخماسية
بفندق
بمعلومات
بوتيرة
بينس
تأخذ
تتحرك
تداولها
تصاعدت
تفاعلية
تلاميذ
تميز
حجمها
حصلوا
خريجي
داخلي
ديانا
ديلما
رفقة
ركزت
رونالدينيو
زوارق
سائحا
سيفاستوبل
سينسيناتي
سينوفارم
شهير
ضفاف
طبيعتها
طرده
عائلتها
عادوا
عميق
فرنسيون
قبة
قولهم
كالياري
لشخص
لقيام
للإمارات
للبنان
للتوجه
للغة
للمدنيين
للمرور
للنزاع
مؤلف
ماهر
متجاوزا
محققة
مديريات
مرارا
مسدس
مناصب
منسقة
ند
نيبال
هجرة
والأصدقاء
والسياسي
واللجنة
والمشروبات
وتعادل
ورم
ولدت
يختلف
يساهم
يكونوا
##io
##آخر
##آلة
##أجمل
##أساة
##أساوي
##أوى
##ؤساء
##ؤهلة
##ؤى
##ائفة
##اجة
##اشا
##اقب
##اقين
##ايد
##برت
##بولي
##تأشيرة
##تت
##تدابير
##تسعين
##تصريحات
##تصنيع
##تقاط
##تمعت
##توقعات
##توقيف
##تولي
##ثيوبيا
##جانب
##جج
##جماع
##حساسة
##خلايا
##خنين
##درة
##ديك
##ذيل
##راجعة
##راقة
##راني
##رما
##روائي
##زعت
##ساسة
##سبح
##شوكولاتة
##صخور
##صداقية
##ضوية
##طون
##ظايا
##عثور
##عريض
##عشرة
##فريق
##فصلة
##فوس
##قومة
##كتور
##لبي
##ليط
##ليني
##مجاعة
##مدد
##مري
##منت
##هالي
##وائر
##واهب
##ييت
آسيان
أحرونوت
أسماه
أوساكا
إريك
إظهار
اتهامها
الآمال
الأبواب
الأغراض
الإمبراطورية
الاختيار
الاستعراضية
الاقليم
الامير
الانتظار
التأسيسية
التفجيرين
الحركات
الحشيش
الحويجة
الدب
الصادق
الصفقات
الطائفة
العراقيون
الغرض
الفعلي
الكثيرة
الكوني
المجر
المرء
المزدوج
المضيفة
المعاملة
الناقل
النقالة
الهائلة
الوثب
اليمينية
اناتولي
انجيلا
انضمامه
بأحدث
بافاريا
باكستانيين
بالانقراض
بالتعاقد
بالعفو
بالعملة
بالمقارنة
بجوائز
بحارة
بخرق
بدول
بصناعة
بمنظومة
بهبوط
بوترو
تتويجه
تذكاري
تعطي
تهما
ثقب
جثته
جهاد
دولا
رواتبهم
روتردام
ستدخل
سيواجه
شكوك
عفو
عمالقة
عميل
عيوب
غاب
غال
غالبيتهم
فالكاو
فلورنتينو
قائمتها
كاساتكينا
كرسي
لتصوير
للبقاء
للتوعية
للحجر
للدعم
للقمر
للمستخدم
مؤسسي
محاصرة
مخزن
مدعوما
معدنية
مكرسة
مهر
موجها
ميلا
نواكشوط
نيروبي
والمدن
والمنظمات
وتحديث
وتسليم
وكيف
ومدى
ووصفت
يتردد
##27
##28
##65
##ot
##ro
##آلات
##أرواح
##ئته
##اتو
##اصب
##اطن
##باد
##تخراج
##تسا
##تسير
##تعيين
##تقاعد
##تلق
##توسط
##ثالثة
##جراؤه
##حديقة
##حكومته
##خسائر
##خلاف
##دادات
##راسة
##رجم
##ريتش
##ريو
##زاحة
##زعم
##سلامة
##سلسل
##سيبي
##شرط
##ظلات
##غامرات
##فعا
##ففة
##قدة
##قوال
##قومات
##مؤسس
##مبر
##مستشفى
##معارض
##معالجة
##مكي
##مم
##مهر
##مواقف
##ميذ
##هولة
##هون
##واقع
##وبيه
##وثي
##وكب
##ونت
##وندي
##ويف
##ياته
##يتس
118
128
1991
أبرم
أرقاما
أركادي
أسد
أعضائها
أغويرو
أنطوان
أنغام
أنواعها
إضافيين
إيفو
اذاعة
استعداداتهما
اصدار
الأدوار
الأمراء
الإيدز
الانطلاق
البعيدة
التتابع
التخفيف
التنازلي
التوطين
الثلجية
الجوجيتسو
الخيانة
الرسول
الركبان
الركود
الزكاة
الزهايمر
الشاهد
الفايز
الفجر
القول
المتجمد
المحاربين
المحترفة
المستوردة
المسيء
المطاف
المكاتب
المهتمين
الميلادية
الهجينة
الوبائية
الوفود
انقرة
باسطنبول
باعتماد
بالإدارة
بالجائزة
بالماس
بالي
بجمع
بحسبما
بحملة
برو
بقوات
بلقبه
بو
تأهب
تابعتين
تسويق
تشين
تعليقها
تفاديا
تمرير
توضيح
ثابت
جعفر
جمهوريا
جنبلاط
حبة
حماد
حيازة
خدماته
خرقا
خصائص
راديو
رخص
روزبرغ
روستيخ
زغرب
سمك
سيعرض
شرائها
شكلها
شهداء
صادرت
ضررا
ضيافة
طبقة
طولها
ظفر
عاليا
عقدين
فتيل
فريضة
قصوى
كروم
لأفغانستان
لدمشق
لقبها
للأراضي
للجولة
للطي
للمحافظة
للمواد
لهن
لهواتف
متشددون
مجهزة
مسبق
مصالحة
مناقشات
مواضيع
ميدوز
ناطحة
نبع
هاتشباك
هاريس
هيل
واتهم
والجنوبية
والقاهرة
والمغتربين
وانخفاض
وتقدم
وجرت
ورعاية
وسرعة
وطنهم
وين
يخططون
يقال
يوكيا
##32
##93
##om
##ow
##أوروبا
##أى
##إحصائيات
##إصرار
##إمدادات
##اردو
##اكان
##اله
##بداعية
##بروكسل
##بطال
##بلوغ
##تالي
##تبرع
##تبنى
##تجمعات
##تدريس
##ترشح
##تسويق
##تعافى
##تعمال
##تفاصيل
##تقديرات
##تقصي
##توأم
##تيش
##ثلون
##جراحة
##جسور
##جينية
##حتفظ
##خبار
##خبة
##خميس
##ددين
##زجاج
##زدحام
##زقة
##زمير
##زوف
##ساحة
##ساد
##ستغل
##سكوي
##سنة
##شأة
##شاركة
##شرح
##شرعين
##شروب
##صرار
##ضارب
##ضال
##طأ
##طاف
##ظارة
##ظلمة
##عائلته
##عبور
##عذر
##عراض
##عرف
##عسكري
##علا
##غطس
##فائه
##قاومة
##قرأ
##قصود
##قفال
##قناة
##كيس
##كيك
##كيمياء
##ليز
##مبادرة
##متجر
##متحان
##مز
##مصابين
##مصالحة
##مهرجان
##نتائج
##نتج
##نتقال
##نتها
##هايم
##هواتف
##هين
##وراثة
##وروف
##ورين
##وقوف
##يحات
##يزي
##يطي
##يلين
##ينكا
03
1400
Global
أسبوعية
أصابع
أصدقائه
أقاليم
أليكسيس
أمنها
أميركيين
أنطاليا
إستاد
إعلانات
احتياطات
اختناق
استعداداتها
الأستاذ
الأنابيب
الارجنتيني
الاساسية
التزاما
التقييم
التلاميذ
الحاضر
الحين
الرفاعي
الزعابي
السكن
السلالة
السمع
الصقور
العادلي
العشائر
الغازات
المؤامرة
المبادئ
المحققين
المريضة
المشتركين
المصنوعة
المصورة
المعمارية
المغمور
المهندسون
النقص
الهادف
الواجب
بإضافة
باسمه
بالبشر
بالتخلي
بالحكومة
بالزانة
بالفشل
بتركيا
بثه
بكامل
بلومبيرغ
بنزيما
تبرز
توسعة
توقيفه
تيسلا
جوليا
جوناثان
دراستهم
دوت
ديمقراطية
ذوو
رأت
رادار
رافايل
ران
ستانيسلاس
سيؤول
صهر
طابع
علوي
عليا
غيبوبة
فرح
فهمي
فولهام
فياتشيسلاف
قايد
كرايست
كورنيش
لأربعة
لأطفال
لسداد
للمجتمع
للوفيات
مخازن
مراقبي
مزيفة
مساعديه
منزلهم
ميقاتي
مين
نا
نهار
نوم
هوت
وإنتاج
وإنشاء
والأربعين
والمتظاهرين
والمقرر
والناتو
والوسطى
وبيع
وحث
وديا
وفنزويلا
وميليشيات
ويتضمن
ويتم
ويعمل
يؤيد
يتغير
يتماشى
يخفض
يعبر
يوتا
##57
##66
##83
##SS
##ld
##nt
##ue
##up
##أب
##أبطال
##أحلام
##أخير
##أرز
##أعلام
##أهلي
##إسرائيل
##اتمة
##ارتي
##اعمال
##امها
##اواة
##اير
##باح
##بايفا
##بدي
##براس
##تابعة
##تبريد
##تحفظ
##تساقط
##تشاري
##تصوير
##تفزاز
##توقع
##جزء
##جسام
##جمد
##جنون
##حكومات
##خباري
##دامة
##دباء
##دليل
##راكز
##ريض
##ريع
##زلة
##سابق
##ستكمل
##سداد
##سلك
##شائية
##صبة
##صدقاء
##ضاحي
##ضارة
##طاقم
##طبيقات
##عار
##عارضة
##عاهل
##عريف
##غسل
##فرز
##فرط
##قاذ
##قاذفات
##قصورة
##كلاند
##لج
##لجان
##لماس
##مؤثرات
##مدارس
##مرشح
##معادن
##معادي
##ميا
##نزلاء
##نزوح
##نظيفة
##نماذج
##نيات
##هري
##همي
##هوكي
##وله
##يء
##ياكوف
##يقات
##ينت
117
MMA
آسيويا
إقليمي
احتياطي
استدامة
استراتيجيتها
استيعاب
الإنتخابات
الاستخدامات
الاستشارية
الباليستي
البت
البعث
التخابر
التراخيص
الترويجية
التنبؤ
الجزائريين
الجودو
الخطاب
الخلفي
الروحي
الضرورة
الغرامات
القصص
القلمون
الكونكاكاف
المحاولة
المسلم
المفاعل
المكالمات
المملوك
المنيا
الموتى
الناسفة
النجف
الواردات
اليساري
بأزمة
باحتمال
بالحفاظ
بتأمين
بتحطم
بتدريب
تتسلم
تجميل
تحوم
تركمانستان
تشرف
تشريع
تفكر
توثيق
توعدت
حبوب
خروجها
دامية
درنة
ديك
رامون
رحلت
رعد
ريفي
ستيشن
سلاحا
سلوفينيا
سونغ
سيطروا
شرسة
شرطيان
صاحبه
صوتت
طبيا
طريقهم
طيارين
عائلية
عابر
فيتل
فيرجينيا
قانونيا
قطبي
كأكبر
كغم
كوك
لاجتماع
لبيان
لسيارتها
لطلاب
لكبح
للتسامح
للجلسة
للحديث
للمدارس
لليونان
لمعهد
ليفني
محام
مخططات
مذبحة
مرغوب
مشار
مقار
موتور
ميغيل
نقلة
هاتفا
هولندية
وأماكن
وأمراض
واستعادة
والإقليمية
والبيضاء
والطوارئ
والمدارس
والنصر
وبخاصة
وحشية
وحلفائها
وحمل
وحيدا
وخمسين
وعقد
ويقدم
يرتفع
يريدون
يستخدمه
يعملان
ينفذ
##BI
##SA
##aily
##am
##ice
##la
##ry
##أثار
##ألبسة
##أوركسترا
##إحداث
##إزالة
##إضاءة
##إنعاش
##اؤهم
##ابيا
##اجين
##احيات
##اسو
##اعلة
##الى
##امى
##باما
##تحدي
##تفزازات
##تقليد
##تمدة
##تنشيط
##تهى
##تويات
##ثينا
##جرات
##جرت
##جرعات
##حصر
##حيا
##خصائية
##خلفه
##خية
##رائب
##رجة
##رشادات
##رفع
##ساخرة
##سرا
##سليغا
##سيوي
##شاي
##شاير
##شمال
##صائل
##صادرة
##صحوبة
##صيغة
##ضخم
##ضوئية
##ضون
##ضييق
##طاني
##طباء
##ظا
##عالة
##عقاد
##غتيال
##فيز
##قاليم
##قبرص
##قتصادية
##قتناء
##قلدة
##قوع
##كينا
##لافيا
##لاينز
##لبانيا
##لما
##مائي
##مسؤول
##مساحات
##نار
##نانية
##ندرج
##نزير
##نشتاين
##هش
##وانة
##ورن
##وشيتيد
##وضى
##وغان
##ولون
##يجابية
##يول
124
260
أبراج
أخفقت
أربعين
أقامته
أكسفورد
إغلاقه
إقالته
إكمال
إلزام
إيليا
اجتاز
احترازي
احتفى
استيائه
الألف
الإباحية
الامني
البقاع
البيولوجية
التبغ
التقت
التمسك
التوظيف
الحقل
الحليب
الريان
الزائدة
الزوجين
الساحر
الساخن
العنابي
الغرق
الفرد
القس
القمع
الكثيف
الكيماوية
المتحالفة
المتمثل
المحللين
المساندة
المسجل
المفضل
المقابلة
المقداد
الممتلكات
المنبثقة
المنتظرة
النازيين
النصية
امر
باقتحام
بالدفاع
بحروق
برازيلية
بمراقبة
بنسختها
تأكيده
تبث
تجمعه
تخلى
تزويدها
تولا
ثوران
جثامين
جرد
جميعها
خلص
ديوا
رامين
ريم
ساديو
سلع
سيدي
شوماخر
عزاء
عصرا
غائما
غسان
غوايدو
فولفو
قداس
قرون
قلقا
كوميرسانت
كوينز
كين
لإدخال
لإيصال
لبنانيين
لجراحة
لرفض
لسوق
لصحة
لقياس
للرقص
للصور
لمحاولات
لوزان
مأدبا
ماكدونالدز
محاسبة
مدغشقر
مقتنيات
منتظمة
ميادين
ناديي
ناشدت
نظيرته
نظيريه
وأم
والتراثية
والجامعات
والدولي
والروسي
والوصول
ودمرت
وراح
وزارات
وستة
وشراء
وشهد
وصفوه
وطن
وظيفته
ولذلك
ومنظمات
يجوز
يدها
##36
##ent
##w
##أرجنتيني
##أزق
##أضخم
##أقوى
##ألة
##أنظمة
##إحاطة
##إخفاء
##إسكندرية
##إنترنت
##ئير
##اتجار
##اتشي
##اختراق
##اطل
##باراتي
##بقى
##تأمل
##تحذيرات
##تخطى
##تزاماتها
##تزل
##تسامح
##تسعة
##تشارة
##تعدي
##تغيرات
##تفكيك
##تلون
##تمد
##ثف
##ثقة
##جاليات
##حساس
##حضاري
##خصائي
##خمسين
##رسنال
##رفي
##رمائية
##ستدعي
##سلوك
##شتراطات
##شخاص
##شركتين
##شعارات
##شفيلي
##صرين
##صعوبة
##صفحة
##ظرة
##ظلة
##عاطي
##عشاب
##فتشي
##فسه
##فورية
##كاديمية
##كفاءات
##كفوفين
##لاع
##لحان
##لمين
##ليت
##مجمع
##مستثمرين
##مستندات
##معجبين
##معهد
##مكرس
##منصات
##موجه
##موهوبين
##ميرا
##نزول
##نقذ
##هبط
##وراء
##وزراء
##ولوجي
##وينية
##يسون
##يقاعي
114
225
550
iPhone
آنذاك
أزارينكو
أعضائه
أعمالا
أفرج
ألفارو
إدارتها
إسباني
إشراك
إينوك
احتراق
احتساب
استطلاعية
اشار
الأرشيف
الأكسجين
الألم
الاسواق
البافاري
التابعين
التسهيلات
التقطته
الجينات
الخلفية
الراقصة
السامي
الشقق
الصارمة
العواصف
القطيف
المالك
المتكامل
المتمردة
المجنحة
المجوهرات
المحلات
المسافة
المساكن
المسجون
المسيئة
المشغلة
المصلحة
المصممين
المضادات
الممر
المناهج
الوثائقي
انتخابي
باسمها
باشينيان
بالدولار
بتزوير
بتورطهم
بسبعة
بشأنها
بصحبة
بضربة
بكسر
بموقف
بوخارست
تأييدا
تامة
تحمي
تخلي
تمارين
تمنحها
تنتجها
تنتقل
تنس
توفى
جمعته
جيبوتي
حساباتها
خزان
ذويهم
زينب
سمع
سياسيين
سينمائية
شوطا
شون
صدم
صورت
صينيون
طقس
طيور
عبدربه
عدلي
عروضه
عسير
عقارية
عنصرين
عيون
فادحة
فولغا
فيردر
فيلمه
كلفتها
كويتا
كينغ
لأنقرة
لعضوية
لغات
للأكراد
للحافلات
للحيوانات
للراغبين
للرحلات
للمحطة
للمرشحين
للمصارعة
لمسرح
ماذا
مانهاتن
مبيعاتها
متسابق
مجدي
مرعبة
مسكن
مصادقة
مفتاح
ملم
مور
موغابي
موندو
ناغورني
نجاحه
نجت
هبوطا
واثنين
والاستفادة
والتصدي
والجهود
والمدير
والمساعدة
والممثل
والمنتجات
وتعرض
وتغريمه
وثلاثين
وجمال
وخمسة
ودوري
وممارسة
ومواجهة
يترأس
يتزعمه
يتعرضون
يحتمل
يخوضها
يصاب
ينافس
##90
##gy
##ina
##pace
##ta
##أتين
##أخ
##أقدام
##أي
##إعفاء
##إقامة
##ئز
##ابر
##ادئ
##ادلة
##اشى
##اكا
##بريطانية
##بطء
##بغداد
##بكت
##بنايات
##تؤكد
##تئجار
##تخزين
##تدعاء
##ترجاع
##تروني
##تشهير
##تعادة
##تكلفة
##تهامه
##ثن
##جدران
##حادي
##حتج
##حتويات
##حدثة
##حفر
##حمى
##خترقت
##خداع
##خريب
##دتي
##دراج
##درالية
##دعم
##ديه
##رتدي
##ركاب
##رماد
##زز
##زعاج
##زمن
##زوجته
##ستحضرات
##شبا
##شتاين
##صاعد
##صيات
##طرابلس
##عتقاد
##عتقد
##عث
##عيرة
##غارا
##غوص
##فائها
##فريقيا
##فقود
##قارة
##قاريا
##قذف
##كمن
##كويكبات
##لقى
##لمسات
##ليتها
##ليكس
##ماسي
##محدثة
##محل
##مدت
##مسماة
##معاهد
##مغامرات
##موجات
##ميم
##نجاة
##نظر
##هارة
##هوفن
##وجوه
##ورام
##وضاع
##وكا
##ولوجيا
##يسار
##يسرية
##يصال
##يقول
##يمز
05
101
380
6000
Apple
أحمر
أرضا
أسعارها
أفغانيا
أوساسونا
إرسالها
اتحادية
اسقاط
اشتراطات
اعتقالهم
اقتصادات
الأرمن
الأوراسي
الاختراع
الاستدامة
الاموال
الاوربي
البحيرة
البلقان
البيولوجي
التحركات
التذكاري
التعاونية
التكامل
الثمينة
الجبهات
الجولات
الحضارة
الدعائية
الرؤساء
الرابط
الرماية
الزائرين
الزمنية
السليمانية
الشيعية
العبادة
العويس
الفلاسي
القاء
القاطع
القت
اللاتي
المؤيدين
المدرجات
المستهدفة
المعبر
المعتادة
المفرطة
المندوبة
النشاطات
النظامية
النفوذ
النورماندي
اليونيسكو
امتياز
انجلترا
بأسلوب
بافتتاح
بالاعتراف
بالاعتماد
بالضلوع
بانتظام
بثها
بجائحة
بخطة
بديع
بشبكة
بلدهم
بهجمات
بيكهام
تاج
تايم
تبريد
تدريبا
تراوحت
تشن
تشيليابينسك
تكفي
جنب
حارقة
حاويات
حصرية
خاركوف
داخليا
داهمت
دخان
دماء
رقعة
ركود
زرعت
سائقا
ستدفع
سطو
سعيه
سم
شرعيين
عائمة
عبداللطيف
عبده
عساف
عضلات
عقوباتها
غولدن
فائض
فرانشيسكو
فلاشينغ
فنانين
كإجراء
كانتا
كبريات
كخطوة
كيب
لإتمام
لاستثمار
لافتات
لتر
لحظر
لصواريخ
لقطع
للتطعيم
للتنقيب
للدولار
للراليات
للطعن
للمسرح
للنمو
لمساعدتها
لمصادر
لوباء
مثلا
مداره
مساكن
مستشاري
مصدران
مغنية
ممرات
منصتها
موقعة
وأرمينيا
واتحاد
واحة
واضاف
واقتصادية
والاتصال
والشعب
والشيخ
والفن
والقرى
والمسلمين
وتسببت
وجها
وفاء
ولندن
وممثلين
ياروسلافل
يحمي
يزالون
يضرب
يعيشها
يغطي
يوجه
##31
##39
##72
##OS
##أداة
##أديبية
##أذن
##أفارقة
##أمانة
##إبلاغ
##ابية
##اطف
##اعترف
##اقد
##انلي
##بطاقة
##بكر
##تائر
##تباطؤ
##تحميل
##تخريب
##تسارع
##تسيف
##تشريعات
##تطوعين
##تعازي
##تعدى
##تعهد
##تكار
##تهلاك
##تهن
##ثالية
##ثرو
##ثلاث
##جلينا
##جمارك
##جهود
##جواء
##جيكا
##حرر
##حنون
##خصصة
##خمة
##داعم
##ديرها
##ديلا
##رائيل
##راخت
##رهابي
##ريتريا
##ريزمان
##زاد
##زيمة
##سياسية
##شابه
##شبهة
##شتريات
##شوك
##شيل
##صحاب
##صحف
##صرت
##طاء
##طدام
##طعون
##طفولة
##طورة
##طورين
##عجمان
##عمى
##فاؤل
##فراط
##فعي
##قاص
##قراطي
##قصى
##قطار
##كانيكية
##كلام
##كوادور
##كيانات
##لحظة
##مبدأ
##مبدعين
##مبياكوس
##متري
##محاور
##مشعة
##معالج
##معرض
##معرفية
##مقتنيات
##موديلات
##نباتية
##نتهجها
##هلي
##وأ
##واصف
##واها
##وراق
##ورغ
##وسين
##ولونيا
##ومال
##ونيج
##ياح
##يجري
##يكل
##يلندية
أرماندو
أموالا
أوزيل
إيجارية
استثنائيا
استعادتها
الأنقاض
الأهرام
الأهل
الإغاثية
الانتحارية
الانكليزية
البدني
البلاغ
البلوغرانا
التأهيل
التكهنات
التنافس
التنصت
التوجيهي
الجاهزية
الجذعية
الجهد
الحزام
الحزن
الحصة
الخرف
الدروس
الديار
الذهنية
الرائع
الرافض
الزوج
السود
الشاقة
الشياطين
الفائقة
الفراغ
القرنة
الكيماوي
المحاصر
المسبق
المسلسلات
المضطربة
المقترحة
الميزات
الميلادي
النقود
الهول
الوراثية
الوسيط
بإدراج
بادرت
بارما
باستغلال
باكورة
بالحد
بالوضع
بترحيل
بخسارة
بضبط
بعثت
بمصرع
تباين
تداولته
تسليط
تقويض
تناقش
تنظيمي
توجهات
جويا
جيت
حساباتهم
حليب
خسائرها
خيم
دفعها
دوقة
ذكاء
ذهابا
رستم
رومني
زيباري
ستواجه
سيتولى
سيمون
سيواصل
شابان
شتاء
شكا
طاهر
طيبة
عهده
غيرهم
فادي
فكتور
فيستا
قدوم
قصد
قصفها
قطارين
قياديين
كارثية
كردفان
كنائس
كوشنير
كيت
لأبناء
لأربع
لاستخراج
لاقتحام
لسرقة
للاعتداء
للالتحاق
للجوجيتسو
للسلاح
للمؤتمر
للمنشآت
محررا
مداهمات
مزروعة
مستخدمة
مستضيفه
مشبوهة
مصنعا
ملاك
مناعة
موضع
نيلسون
هاي
هرم
وأهمية
واتفورد
والأزمة
والأوضاع
والتواصل
والخبراء
والسيدات
والعديد
والفرنسية
والمخرج
والمقاييس
والمكسيك
وانتشار
وايت
وبرنامج
وتحويل
وتعمل
وجودهم
وحلف
ووجه
وورلد
ووصفه
يحاكي
يحذر
يديه
##75
##76
##ard
##he
##ics
##ort
##أجل
##أذهان
##أذى
##أفغانستان
##أمومة
##أنهار
##إبرام
##إقناع
##إنتاج
##ئتمان
##ائص
##ائيا
##ابتعاد
##اجهات
##ارفي
##ارم
##اسات
##اسم
##اشيان
##اشية
##برتادوريس
##بكين
##بناه
##بوسني
##بوليساريو
##بيث
##تانة
##تجه
##تربوي
##ترسيخ
##تروين
##تشدد
##تصف
##تعبير
##تغيير
##تمثال
##توثيق
##توريا
##تيوم
##ثروات
##ثقوب
##ثناء
##ثيرة
##ثيوبي
##جأت
##جائر
##جلوس
##حتجاز
##حه
##خابات
##خن
##دكس
##ديرة
##رجاء
##ردام
##رسولا
##رشوة
##رغي
##رفان
##رويج
##ستحقاق
##سح
##سمان
##سها
##سوبيشي
##شجاعة
##شملت
##طوكيو
##ظواهر
##عاقب
##عالمية
##عسكر
##عقاقير
##علامات
##علامة
##عناية
##عنوان
##عواصم
##غامض
##فائدة
##فانوفيتش
##فتش
##قاصة
##قدوم
##كاشفيلي
##كتا
##كملات
##كوب
##كوبا
##لبت
##لسرطان
##لكي
##لوع
##مجهول
##محتجز
##محور
##مسرح
##مظاهرة
##مغامرة
##ملايين
##موعة
##ناشرين
##نانو
##نف
##نفيس
##نوفا
##وافقة
##وبول
##وكرانيا
##ومية
##ويلات
##يرال
##يمون
##يوي
113
National
أثرت
أحبط
أخيرة
أسيرا
أقلعت
أنفيلد
إسكندر
إكسبورت
إمداد
إمرأة
اختفى
استفزازية
اعترافها
الأمام
الأمثل
الاستراتيجيين
البلدي
التحمت
التخزين
التخصصي
التطوعي
التواجد
الجثث
الجغرافية
الرئوي
الراعية
الزمان
السطح
القنبلة
المرحوم
المسمى
المقاهي
المكشوفة
المهتمة
الورق
امريكيين
ايل
باحتجاز
بالإنترنت
بالقلق
بالمثل
بالمغرب
بركب
برونزية
بسب
بصنعاء
بكاميرا
بمناطق
بمهاجمة
بوكا
بوند
بيجو
بيراميدز
بيرنلي
تبادلت
تسلط
تصر
تصميمه
تعكف
تعميق
تنتجه
جار
جدي
جذرية
جسد
جسدها
جيسون
جيوكوفيتش
خطية
دفاعية
راية
رينجرز
زوجان
سامانثا
ستساعد
سرعتها
سفيان
سلط
سينغ
شطب
طرحتها
طوق
ظهورها
غضبه
قلقهم
كبح
كريستوف
لإخراج
لارتفاع
لعبور
للاهتمام
للترويج
للجسم
للجهات
للجيل
للسفارة
للشمس
للقاهرة
للقضية
للقلق
لمد
لمستشفى
لمسلمي
لوفاة
مارسيليا
متكي
مرخصة
مستوطن
مشتبها
مصريون
مطلوب
مفاجئا
ملزم
منافسا
منشأ
منظمي
موجه
نزل
نضال
نورث
هال
وآخرين
وأعربت
واجتماعية
واستنكارها
وافاد
والتحديات
والجوف
وحدها
وحي
وعين
يبعد
##!
##"
###
##$
##%
##'
##(
##)
##*
##+
##,
##-
##.
##:
##;
##<
##=
##>
##?
##@
##J
##Y
##Z
##[
##\
##]
##_
##`
##f
##j
##q
##v
##{
##|
##~
##«
##»
##،
##؛
##؟
##آ
##إ
##ٓ
##ٔ
##ٕ
##٪
##٬
##ٱ
##–
##—
##‘
##’
##“
##”
##…
