[PAD]
[UNK]
[start]
[end]
!
"
#
$
%
'
(
)
*
+
,
-
.
0
1
2
3
4
5
6
7
8
9
=
A
B
C
D
E
F
G
H
I
J
K
L
M
N
O
P
Q
R
S
T
U
V
W
X
Y
Z
[
\
]
_
a
b
c
d
e
f
g
h
i
j
k
l
m
n
o
p
q
r
s
t
u
v
w
x
y
z
|
«
»
،
؟
ء
آ
أ
ؤ
إ
ئ
ا
ب
ة
ت
ث
ج
ح
خ
د
ذ
ر
ز
س
ش
ص
ض
ط
ظ
ع
غ
ف
ق
ك
ل
م
ن
ه
و
ى
ي
ٔ
ٕ
٪
–
’
“
”
…
في
من
على
إلى
عن
مع
##ا
روسيا
##ة
##ي
##ه
##ها
بعد
مقتل
بين
موسكو
##ات
جديدة
الروسية
كورونا
##ين
##ون
دبي
الروسي
##ية
مصر
الى
الجيش
المتحدة
سوريا
##ان
العالم
ترامب
ضد
واشنطن
حول
##ت
السعودية
داعش
خلال
##ن
رئيس
الإمارات
إيران
إسرائيل
أول
العراق
وفاة
إصابة
دولار
بسبب
الأمريكية
بوتين
مليون
مجلس
يدعو
ألف
الاتحاد
تعلن
سورية
أمام
تركيا
الأمن
السورية
السوري
##م
بشأن
غزة
الحكومة
الصين
وزير
الرئيس
النفط
##ر
كأس
ال
بن
يعلن
المصري
نهائي
جديد
##و
تدعو
الدولي
طائرة
روسية
تطلق
شخصا
تكشف
محمد
أكثر
جنوب
10
الولايات
أبوظبي
عام
بطولة
إطلاق
الدولية
الأوروبي
قبل
الأردن
الأمريكي
مدريد
لا
يؤكد
العام
أوروبا
ليبيا
غير
شركة
هجوم
الشرطة
أمريكية
##ل
اليمن
##د
القوات
شمال
روسي
##ك
يكشف
ارتفاع
قد
دمشق
الخارجية
برشلونة
قوات
الدفاع
مليار
المصرية
درهم
##هم
سيارة
عملية
فرنسا
##ته
بريطانيا
ما
الدوري
الشارقة
##س
كوريا
تسجل
أوكرانيا
قطر
مدينة
عاما
يبحث
قتلى
منذ
##ب
تؤكد
ريال
العربية
لبنان
ألمانيا
السودان
اليوم
أشخاص
مشروع
شرق
شرطة
الإسرائيلي
السعودي
20
الأولى
الجديد
##ف
الأمم
الانتخابات
انفجار
19
الشمالية
اتفاق
الله
التعاون
أن
عدد
البرلمان
بغداد
دون
المعارضة
طهران
عسكرية
القاهرة
الدولة
قرب
أمريكي
أفغانستان
قرار
القدم
##تها
الفلسطينية
100
##ع
تحذر
وسط
الحدود
الوطني
العراقية
أكبر
اكتشاف
للتنس
الجديدة
تطالب
باكستان
عبر
باريس
نحو
##ق
العالمية
قضية
بالفيروس
أمريكا
أوباما
الهند
تنفي
##تين
قمة
لندن
أردوغان
البلاد
دوري
المقبل
رونالدو
القدس
الإرهاب
اعتقال
تونس
العربي
دول
الأزمة
12
حزب
##يا
15
حالة
حكومة
الفضاء
##ز
مهرجان
##ى
لافروف
النووي
أسعار
السلطات
ترفض
يحذر
التي
30
الصحة
آلاف
شخص
فيديو
العراقي
العمل
يهزم
##ح
النار
11
منطقة
معرض
العسكرية
يوم
لاعب
الروس
السلام
دورة
حتى
الناتو
لقاح
العثور
الأرض
داخل
مطار
بدء
الإيراني
قائمة
مصرع
ميسي
2020
اشتباكات
##وا
الإسرائيلية
قطاع
ضحايا
تقدم
الأهلي
الأول
50
الغاز
لكرة
وزارة
التحالف
الكويت
أشهر
حادث
زايد
التركية
##اء
الجنوبية
يورو
بكورونا
العقوبات
علماء
الملك
اليابان
هل
جديدا
عمان
سنوات
التركي
محكمة
أزمة
الطائرة
عدم
سقوط
بفيروس
زيارة
صلاح
السيسي
يطالب
العالمي
أثناء
الجزائر
الشرق
جراء
قانون
أحد
غرب
العلماء
منظمة
مواقع
نتنياهو
إصابات
انطلاق
قتيلا
إيطاليا
تواصل
الحرب
مانشستر
لدى
نصف
رأس
عقوبات
وقف
البرازيل
حلب
ينفي
آسيا
ملايين
أفضل
حملة
يعود
الوزراء
كوفيد
تتهم
فتح
كرة
لقاء
إعادة
الثاني
مركز
الدول
العسكري
المغرب
الأسد
افتتاح
السابق
العلاقات
مؤتمر
خطة
القضاء
يرفض
مباراة
تعرض
مرة
مجموعة
تبدأ
أعمال
رجل
طالبان
يفوز
بتهمة
إجراءات
لجنة
عيد
الثانية
الفضائية
اجتماع
وإصابة
استخدام
##ما
سيتي
وزراء
آخر
تحت
مونديال
الليبية
16
حريق
تحطم
حظر
صواريخ
جائزة
مواجهة
الأوروبية
روس
حماس
لم
نهاية
الطاقة
دولة
##ج
الذي
أبطال
البحر
طائرات
ربع
الموصل
يزور
عمل
سفينة
البحرين
الوضع
تفجير
فلسطيني
فيروس
منتخب
لقب
الأبيض
ليفربول
13
الغربية
للمرة
المفاوضات
عودة
عشرات
أيام
بايدن
عند
محاكمة
مصري
برنامج
لأول
أنقرة
الداخلية
الليبي
اتفاقية
اسرائيل
مستوى
تدخل
##ور
كييف
الخليج
حركة
الفرنسي
فريق
##ار
موعد
سان
لبحث
40
لمواجهة
القبض
إسبانيا
صورة
قاعدة
اللاجئين
غوغل
حصيلة
ساعة
مكافحة
RT
الاقتصاد
امرأة
تأجيل
الأوسط
الجوية
يتهم
المنطقة
كيف
محاولة
مساعدات
يهدد
الفلسطينيين
القاعدة
تدين
محطة
##ير
زيادة
العامة
عباس
24
2018
إسرائيلي
يصل
الكشف
إسرائيلية
14
رسالة
عقد
استئناف
بناء
إفريقيا
العرب
ايران
تشكيل
يلتقي
الأطفال
نظام
الرياض
##ش
##يات
فلسطين
مدفيديف
رسميا
وفد
أستراليا
دعم
##ال
25
النووية
المحكمة
تراجع
رئيسا
##رة
دور
الخاصة
رفع
أم
الحياة
سلمان
صاروخ
يانغ
17
عبد
خاصة
المنتخب
فوق
مسلحين
نقل
وجرحى
الشباب
تفاصيل
حرب
المركزي
أي
##تي
##0
العاصمة
اليمنية
جنود
رغم
توقف
إغلاق
راشد
##اد
اغتيال
ناسا
الفلسطيني
سعودي
السفير
الفرنسية
طفل
تنظيم
دخول
آخرين
انتخابات
بيونغ
تهدد
اللبناني
خطر
طيار
هجمات
بلاده
اليمني
العين
يطلق
2016
قصف
جنيف
يواصل
الإنسان
ترفع
الأبطال
قتل
مسؤول
تعلق
له
مفاوضات
سباق
##يين
أنباء
ميلان
نتائج
خلفية
صندوق
أبو
تعرف
وصول
شركات
صفقة
فيلم
لدعم
عرض
المالية
يبحثان
18
إنتاج
الرئاسة
نائب
تعتقل
البيت
الإسلامية
الذهب
شاب
الأسلحة
تستعد
زعيم
عمليات
الطيران
لها
2014
البحرية
حل
يصدر
البريطانية
رمضان
صنعاء
فيسبوك
لمكافحة
يقدم
صور
تنشر
مجددا
مناطق
المكسيك
الأوكرانية
القذافي
طريق
يقود
السفارة
قريبا
بقيمة
بيع
الحوثيين
عسكري
إعلان
مصرية
السجن
تعتزم
يتوج
بينهم
ضرورة
المريخ
##ء
التونسي
بعيد
تغلق
نار
تصدر
لحظة
الهجوم
الضفة
طيران
انتحاري
الأسبوع
2019
أعلى
تحقيق
نيويورك
بلقب
نشر
يوجه
المجلس
مناورات
الرئاسية
النصر
بيروت
نفط
وجود
بطرسبورغ
ضمن
فوز
اليونان
تصل
##وف
القرم
بحق
60
الصيني
دي
سبب
مسيرة
مقابل
السوريين
جوية
الإيرانية
خارجية
##نا
تفوز
تنوي
تصريحات
عناصر
استمرار
تطرح
وفيات
يطلب
##1
بطل
عربية
قائد
ميركل
##يل
تطلب
يسجل
200
بي
قناة
##يه
إدارة
يبدأ
يونايتد
تبحث
تطبيق
لن
هدف
ترحب
تسجيل
دولية
يقتل
النواب
ثاني
صحة
يثير
##4
الشهر
موقع
الأردني
التحقيق
الحوار
الموت
سوق
##بة
الشيخ
تشيلسي
بكين
روما
الحكم
الشمالي
أمير
تبلغ
يبلغ
##ول
أطفال
العنف
سوري
هيئة
مبارك
##5
مليارات
فرض
الدولار
##قة
واحد
##ط
تدريبات
كلينتون
الأخيرة
البريطاني
بطلا
جندي
##ود
تحقق
مواجهات
##ض
أمنية
كبير
كل
طريقة
أجل
سيناء
أدوار
المتوسط
اتحاد
الإصابة
تركية
تعليق
##تان
الأحمر
البنتاغون
للجيش
أسلحة
القمر
تعود
كي
لماذا
الشرقية
بداية
##2
احتجاجات
الكرملين
الماضي
بانفجار
رحلة
مدرب
السيارات
تويتر
علي
##3
300
الطوارئ
جميع
هذا
ضبط
##لي
الأكثر
تفرض
تعيد
35
مركبة
الألماني
يسقط
المساعدات
21
انخفاض
آبل
الامن
الجوي
تقرر
الأقصى
جامعة
دراسة
ريف
400
يعلق
إثر
حفل
يوفنتوس
إجراء
النهضة
عالميا
استقالة
الصينية
كبيرة
برلين
الكونغرس
شهر
كندا
بريطانية
مالي
مستشفى
##دة
2017
تطوير
تنفيذ
نجم
إنشاء
الجزيرة
عجمان
##6
خدمة
أولمبياد
السلة
نيجيريا
شباب
##ري
حياة
الأراضي
محادثات
##وس
بصدد
حافلة
##غ
سيارات
نادي
عالم
غارة
مسلح
لمدة
تقرير
شباك
اللبنانية
تعزيز
شخصين
اثنين
اقتصادية
سوتشي
##8
ماذا
أمن
بلدية
مبنى
حكم
فتاة
2021
السلطة
مبادرة
يحقق
بهدف
دعوة
لعام
ولاية
الإماراتي
تمديد
ماكرون
السلاح
المواطنين
فنزويلا
هاتف
##ام
الأوكراني
بان
حساب
طرابلس
الخيمة
تحدد
مون
إدلب
الوطنية
تثير
الأسود
فلسطينية
بايرن
يدين
ذكرى
احتجاجا
الذكية
بعض
خارج
سكان
شارابوفا
عمر
تركي
منظومة
الحوثيون
تسيسكا
إس
الاقتصادي
الكبرى
إلغاء
تطور
حقوق
##لة
بجائزة
كان
تجدد
مروحية
الإنترنت
سعر
مرسي
##هما
المشاركة
تاريخ
سامسونغ
سد
مجال
ثلاثة
تقديم
سجن
##يف
22
العاهل
##7
القتلى
توافق
فلسطينيين
##دي
الثالث
الذهبي
الهلال
تمنع
دولي
يستقبل
##ث
ترد
##ني
خط
##9
انتهاء
تشارك
مسلحا
الجمعة
ترسل
رجال
واحدة
الإنسانية
المسلمين
الاتفاق
نادال
يد
500
الكرة
تسعى
جولة
اختبار
الفجيرة
بريطاني
بلا
يقر
لإطلاق
المحطة
المفتوحة
بشكل
سعودية
لوقف
هبوط
الجزائري
مواطن
انهيار
الفيفا
القيادة
جيرمان
منح
##مة
##وم
تخطط
نتيجة
يستعيد
يهنئ
التواصل
شاهد
##اب
إنقاذ
السفر
صدارة
كيري
يواجه
المجتمع
كردستان
مياه
ينقذ
أرسنال
مهمة
ترصد
مفخخة
النساء
النقد
أوروبية
تحتفل
ميونيخ
70
الجليد
طفلة
2012
بهجوم
تدعم
الإسلامي
جهاز
المرحلة
حقيقة
سحب
مشاركة
الألعاب
افغانستان
بنسبة
مدرسة
أخرى
إرهابية
يمكن
الأعمال
بتفجير
شرقي
غارات
قاتل
متحف
منع
صينية
ظهور
اليورو
يتحدث
استهداف
الأمير
الجاري
تفتح
ذهبية
سلاح
زينيت
طوكيو
يطالبون
##فة
الاقتصادية
الأقل
الألمانية
الحكومية
العليا
توقع
حال
مدير
وحدة
انتشار
سراح
قادة
الإسباني
لحل
أسبوع
الزمالك
الشعب
تقتل
2015
الزور
الامريكية
عربي
العشرات
طلب
معلومات
نووية
إقامة
شمالي
المخدرات
الدور
دير
##سي
إيرانية
الإلكترونية
الشركات
القمة
السرطان
الطائرات
ان
تدرس
تسمح
ثانية
السياسية
تواجه
##خ
الوحدة
تحرير
لكأس
منزل
الإيطالي
التونسية
جلسة
المرأة
وكالة
يرد
الروبل
سلسلة
مسابقة
نتانياهو
يعرض
الحريري
الخاص
المياه
يحدد
بدون
حدود
كيم
خدمات
عائلة
يضرب
اللجنة
المغربي
شبكة
الإخوان
المسلحة
النصرة
ركاب
زلزال
لحماية
شراء
مباحثات
منتدى
برصاص
أجهزة
مالية
مقاتلات
عالمية
موقف
الذكرى
المؤشرات
تدريب
صالح
مشتركة
استراتيجية
الاجتماعي
القطاع
سر
الإفراج
بموسكو
أو
مظاهرات
سابق
يشارك
##يد
أهمية
البشير
بطلة
سنة
طرق
نيمار
يستبعد
أوبك
بحر
ينتقد
إنسانية
غاز
مقر
عليها
ملك
23
اتهام
الأسواق
بمناسبة
يصف
الذهبية
علاج
يدخل
تسلم
ذكية
مسجد
ولي
يوافق
الخليجية
تودع
رقم
قطار
توقيف
منصة
##حة
##عة
بيت
الجامعة
الدوحة
القطري
بورصة
تمنح
كارثة
اشخاص
تعيين
المركز
يوقع
##وي
إيقاف
السويد
الفيروس
صيني
قبالة
الثالثة
مستعدة
وديا
أولى
احتمال
السوق
أحمد
الكيميائي
جزيرة
الأرجنتين
تجري
قياسيا
أميركا
يرفع
للمشاركة
مذكرة
##يس
الاستخبارات
تستضيف
مخيم
مقاتلة
أتلتيكو
العودة
جونسون
بخصوص
توجه
حجم
يحمل
يظهر
##نة
الصحي
باستخدام
بلدة
تتراجع
وراء
##تا
تتجاوز
زوجته
##بي
الجنسية
الجنوبي
الليغا
قنبلة
يجدد
كوبا
ليغ
مئات
يشيد
يودع
الاحتجاجات
الشيوخ
المدارس
سرية
وضع
يكتشفون
يوما
السينمائي
عقر
آيفون
الثلاثاء
تتوج
تشكيلة
للطاقة
للطيران
يحرز
النظام
تسليم
سبارتاك
فرنسي
به
تتوقع
تعزز
بيانات
توقعات
حماية
90
تصفيات
حاكم
محافظة
نفسه
يتلقى
أسباب
الأولمبية
البرازيلي
##تهم
حارس
ملف
2013
إيراني
الأحد
الخرطوم
المهاجرين
تصفية
توقيع
عدن
##ص
آثار
تجربة
خليفة
يمدد
الدين
جهود
هجوما
يتوقع
الأميركية
القادم
تصنيف
27
رئيسة
80
إرسال
الإعلام
التجارة
بنك
قرارا
لتعزيز
يمنح
العمال
الموسم
بيان
تدمر
غازبروم
مخالفة
الإنجليزي
الخميس
ساعات
قلق
معركة
التعليم
تسوية
تختبر
بروكسل
ضابط
فضيحة
هو
يؤدي
الاثنين
فرنسية
الرقة
بالسجن
تحظر
يتعهد
يجري
الأميركي
المسلحين
رفض
الباكستانية
تل
##كي
اليد
خبراء
خفض
غدا
والصين
يفتتح
السوداني
الصحية
تنتقد
فيها
قتيل
مصير
هولندا
يأمر
أبيب
التجارية
ضخمة
لعدم
يتعرض
26
المملكة
جنوبي
لصالح
لعلاج
تستدعي
شرطي
أحدث
استقبال
الأردنية
الإصابات
الفوز
السنة
السياحة
الماء
لإعادة
نجوم
وجرح
اسم
البرلمانية
السياسي
تحمل
ضربة
بإطلاق
تخفض
تلغي
عدة
يقرر
##في
الصواريخ
يقترب
يهاجم
اسطنبول
التدخل
حمص
سير
وواشنطن
العملية
الهواء
بها
حي
المتظاهرين
هي
الحظر
بعدم
باب
بكرة
بولندا
سطح
سفير
ضخم
فعاليات
##اس
البنك
المناطق
حالات
شوارع
عنيفة
فقط
قياسية
مدنيين
اتهامات
الاحتلال
العبادي
بثلاثية
تفتتح
ثالث
داره
قمر
كاميرا
واسعة
واصابة
البشر
الحالي
شروط
قوة
قيادة
##لا
##دا
بدعم
رقما
مصدر
التاريخ
النيابة
عراقي
لمجلس
نمو
يناقش
الصاروخية
بوقف
سرقة
ملكة
إسقاط
الدستورية
تلقي
ثمن
##كا
أعضاء
النزاع
بحلول
تحديد
تستأنف
عين
للتعاون
بنغازي
خروج
بومبيو
تبادل
يضع
يقترح
ترتفع
فيدرر
تايلاند
سواحل
يغيب
أهداف
البشرية
تقر
جرائم
نظيره
بنجاح
الهواتف
حربية
عهد
قرية
متهم
نسبة
أصحاب
الاسرائيلية
التجاري
تغيير
غرق
هادي
وسائل
يتظاهرون
يعد
الأسهم
الديمقراطية
جمال
سائق
سيئول
اتصالات
الذرية
المدنيين
بعثة
بقوة
يدعم
أجواء
أنصار
تعاون
##جة
أراضيها
التعادل
بسوريا
رسوم
واتس
##وب
داغستان
عقوبة
هواتف
التوتر
الحرس
القرن
دينار
مباريات
مسؤولية
مواصلة
مورينيو
يتقدم
إكسبو
##يها
إقليم
الأوضاع
الإماراتية
الغرب
المحيط
بمشاركة
جمهورية
سبتمبر
غرفة
مظاهرة
يتصدر
يحتفل
يوميا
2010
الاوروبي
الشعبي
دعوى
الرحلات
القلب
رد
طرد
يعين
آي
أبرز
الأفغانية
الصومال
تقنية
رحيل
مرض
موجة
يستعد
رحلات
علاقة
البابا
المستقبل
تستقبل
توتنهام
جريحا
##را
أحداث
الجولان
القوى
بلجيكا
جريمة
العهد
الفلبين
حرام
فضائية
مبيعات
الأخير
##اق
تزيد
تشهد
خسائر
ينشر
28
الهدنة
تجاه
جثة
للتحالف
##اني
##كو
150
أهم
برباعية
روحاني
سماء
سيدة
مواد
والعراق
يتراجع
إحباط
اليمين
قبيل
لروسيا
مايكروسوفت
إماراتية
المحلية
الهمم
صادرات
صحيفة
معاهدة
##يم
الأمنية
الاتحادية
الفساد
جبهة
البحث
المالي
بقتل
تضع
جماعة
طبية
النهائي
توقعان
طن
فشل
يصعد
أسرة
الجيل
السيطرة
تجمع
كشف
لمساعدة
##اة
الدم
تظهر
عليه
معارك
الإعلان
الوصل
عراقية
##اع
آل
المقبلة
بوك
تأمل
كونغ
ينهي
دونيتسك
عقب
غاروس
لمنع
مراكز
التربية
انتخاب
وإيران
الرجال
بتشكيل
بريف
تعرب
سي
قدم
معبر
##يت
إثيوبيا
إلكترونية
باتجاه
تسحب
تمدد
جيش
نسخة
يتجاوز
يوقف
تضرب
حوار
خطط
طفلا
مسرح
اختطاف
الكهرباء
بوكو
تمويل
تنفذ
غربي
مكان
يسعى
إضافية
الأربعاء
الاسرائيلي
الحر
يتسلم
اطلاق
المصالحة
تفجيرات
صاروخا
تستهدف
ضيفه
قضايا
يرحب
الاستراتيجية
الجو
النظر
باسم
تساعد
مشاريع
يرتفع
ألماني
بكأس
جرعة
دورتموند
رئاسة
لنقل
يكرم
يمنع
الرياضي
بذهبية
تهريب
كوكب
مباشرة
المخابرات
المسجد
عسكريين
مخاوف
يعزز
استعدادها
تفرج
لتطوير
مكتب
إنتر
الأمريكيين
الجنائية
الطعام
المستشفى
تتسلم
تحرز
غريبة
مقاطعة
يعترف
ألمانية
الإسلام
المالكي
تظاهرات
جرحى
ريو
قواتها
ميناء
يعيد
آب
الربع
تنقذ
تهزم
حقل
##ئ
أوروبي
التسوية
بدبي
أفريقيا
التوالي
تعديل
سويسرا
لبناء
للانتخابات
متن
ملعب
الإلكتروني
السودانية
تناول
زيدان
سفن
كبار
نصائح
2011
إن
بحرية
تحول
زوجة
قلقة
إندونيسيا
احتجاز
تنهي
سو
ميانمار
وإسرائيل
إحدى
الملف
تحصل
تدمير
جراح
جي
الإيطالية
الاتصالات
الحديدة
الدعم
الوكالة
حمدان
دفعة
يتعاقد
السوبر
الوقت
جسر
وجه
أممي
العيد
بوابة
تستخدم
ثلاثية
والسعودية
يحصل
استفتاء
التحرير
النوم
تقترح
حديقة
عسكريا
مواطنيها
الأكراد
المحترفين
عاصفة
مستقبل
وزيرة
ينوي
أفراح
القطب
اوباما
تتصدر
ردا
هونغ
يكشفون
##اف
إعدام
المدن
المصابين
سبل
أسواق
إصدار
المشتركة
المعارض
المنكوبة
موظف
يغادر
آلية
أدنى
الآلاف
الأجنبية
الكويتي
تابعة
تستبعد
تسقط
طالب
قياسي
29
الاشتباكات
الاصطناعي
السواحل
بقصف
ليلة
ماليزيا
ياس
يصادق
##فا
الأندية
الشمس
تنطلق
مسؤولين
إماراتي
استهدف
الخامس
مرمى
منشأة
يتوعد
إمكانية
الحزب
السبت
الهزيمة
طبيب
منفذ
يعرب
##يك
الجمعية
العفو
القتال
حماة
درجة
مدارس
مساعدة
##اوي
##مان
إرهابي
الأجانب
انسحاب
برج
للاجئين
ويمبلدون
بمدينة
تدفع
رسمية
للفوز
مدن
مسلحون
##أ
الامريكي
الخارج
اللقاح
الميلاد
ظل
مدربا
وتركيا
يسيطر
سبوتنيك
يتسبب
##سية
الجولة
السينما
بفوز
بوينغ
تداعيات
جوي
درجات
عفرين
غضب
فترة
كنيسة
مترو
يأمل
يساعد
ينطلق
##طة
أمريكيين
اختتام
الآسيوي
الإرهابي
البلدين
الرياضية
القوة
النقل
تغير
رواد
فحص
فيس
لوحة
مسبار
يتبنى
##وت
إم
الأضحى
الباكستاني
تشغيل
تعمل
عبدالله
للتحقيق
يؤكدان
##بر
##يق
التصعيد
الصدارة
بحادث
تطورات
تعتمد
تعد
جبل
حفتر
سياسي
غياب
قطع
قيادي
لرئاسة
مصنع
نقطة
يخسر
الطلبة
خليجي
غريب
فلسطينيا
قوية
نادرة
اصابة
الطريق
الياباني
تجارية
تقصف
رولان
سياسة
أبريل
الأموال
الكهربائية
المربع
بحث
تتقدم
حكومية
شاحنة
غذائية
قافلة
قيمة
مارس
مرضى
يعتذر
ابتكار
استعدادا
اقتحام
السماح
الشمسية
العدل
الفطر
القديمة
خطوات
مرشح
يناير
إزاء
الإعدام
الاستثمار
الايراني
الغذائية
النمسا
بجنوب
دينامو
صحية
32
الحرية
السياح
السيل
الطبية
الفنان
الماليزية
توريد
توفر
صناعة
نابولي
هدفا
هولاند
وقوع
##سة
75
أستانا
الأخضر
الأسرى
التجسس
الحمراء
العمليات
القومي
الهندية
تبني
تهمة
خلية
دفاع
سرطان
سلام
مثيرة
نساء
والجرحى
##اك
تشتري
صحفي
فرصة
مارادونا
مرور
مسلحي
يفرض
الكورية
اللجوء
الوقود
بني
صفوف
31
بحياة
روبوت
سوريين
كازاخستان
يدفع
يكتسح
##ارة
##از
إذا
الدماغ
السويس
بطاقة
بطريقة
بقرار
زوجها
ظبي
كاليفورنيا
كمين
مؤسسة
مفاجأة
موسم
##وفا
45
الحرارة
دعوات
سويوز
سياسية
علم
معدل
موعدا
ميستورا
الثقة
الدستور
انفجارات
كانت
يعقد
يونيو
##بات
48
أبل
أممية
الطفل
تي
دفع
لشراء
نوبل
نووي
ويدعو
الرابع
الوسطى
تؤجل
تعتبر
خطيرة
دولارا
طرح
لاعبي
البرتغال
التوصل
تتفقان
تمثال
عبوة
لإنقاذ
للقوات
ماي
يفتح
الثوري
الجهود
تحيي
دواء
شعبية
عامل
مخاطر
مغادرة
هوية
##ذ
الدورة
برلمان
دار
فنان
للحكومة
مايو
يستهدف
أقوى
ألفا
اعتماد
الأبعاد
الخدمة
الكالتشيو
المؤتمر
باغ
خطوة
للأمم
منها
نارية
##وية
الاستيطان
المصريين
النفطية
جوائز
كافة
مدى
نجل
يتعادل
يقيل
يوتيوب
يوليو
أميركية
الإسبانية
التنس
الحاكم
الحمر
المدينة
بشدة
تؤيد
تتيح
تنقل
شنغهاي
عزل
قره
وقت
##تر
إعصار
الفني
الفيضانات
جدل
حسين
صلاة
عالمي
فندق
محطات
مسلحة
ميامي
##اي
الامم
الحرة
توسع
معسكر
وسوريا
يعتزم
##ئي
##زي
إكس
التشكيلة
الهجرة
بمصر
تتجه
تحذير
حديثة
رحلاتها
كتاب
إجلاء
الجزائرية
السوداء
بيلاروس
خالد
إقالة
تأثير
تسبب
تصدير
تصعد
حق
خبير
دارفور
طاقم
كهربائية
مرسيدس
نجاح
وثائق
أسود
الهجمات
تتعهد
تحث
تقضي
قيود
كابل
لبطولة
لوكوموتيف
ناسفة
نيوزيلندا
يحث
أموال
التصويت
بثنائية
تنظم
دقيقة
قازان
مواطنين
وزيرا
اعتداء
الإرهابية
الائتلاف
الدبلوماسية
الفن
تصميم
رام
فيه
لقطات
للحصول
للرئيس
للسلام
مادورو
أسرار
العمر
تعز
توضح
شبه
لترامب
يكون
##ئة
أكتوبر
إشبيلية
إنجاز
الإرهابيين
الحوثي
الصدر
خاص
عصابة
فقدان
قرعة
قصر
لمصر
منصبه
والإمارات
##يني
إربد
الالتزام
الريال
المعارك
حاملة
ذكي
سليماني
لاجئ
لدورة
معاناة
##يون
الشعبية
العلم
تصريح
خاشقجي
فضاء
أردني
أمني
اصطدام
الثقافة
الحجر
القاتل
تتحول
رصد
روبين
سيبيريا
فبراير
هذه
الإنتاج
الكوري
الوزن
بابا
بوغدانوف
قبرص
يسمح
يعتبر
يلغي
يومية
##اتها
الرياضة
الغوطة
الفاتيكان
القادمة
بالقرب
تتحدث
تسيطر
سلطات
عاصمة
غواصة
محيط
هاتفيا
هواوي
يدمر
أرمينيا
الاستفتاء
الانتقالي
الكردستاني
الملكة
تحتضن
تدهور
تزويد
تقود
فلوريدا
فنية
مزاد
##رو
##مي
الجدل
الذكاء
باليمن
شخصية
محاربة
ويلز
يهدي
أفراد
اختراق
اختفاء
الحصار
بيانا
تستعرض
تهديد
لدوري
##وة
2022
اكثر
الإفريقي
الانتخابية
المدني
الهندي
بالعراق
تنضم
للدوري
ليبرمان
مشترك
ولا
##رات
أسابيع
اعتبارا
المسؤولين
رابطة
طلبة
كولومبيا
لقوات
يزيد
يقسو
##تون
الطلب
ديربي
ضرب
طراز
فالنسيا
لاعبين
لجائزة
للأطفال
مستشار
مشاهد
نجاد
ومصر
يعزي
##جي
احتفالات
الأفغاني
الخطوط
الرابعة
الميليشيات
تداولات
تعديلات
تفشي
توسيع
جورجيا
جونغ
حادثة
##e
أرض
إطار
الشارع
تزود
حبس
لعملية
متهمين
مدنيا
مطعم
مهاجرا
موظفي
نهر
يوسف
يوضح
##هن
33
الأعلى
التصنيف
القطرية
تاريخية
تصادم
حفظ
سفارة
طلاب
قلب
مسألة
ناقلة
يعتمد
يقضي
استعداد
الإجراءات
الذكي
الصحراء
العشرين
انتقادات
جنديا
حضور
دجوكوفيتش
ظريف
غرامة
لهجوم
##اح
أرامكو
إحياء
الصراع
بيل
تضبط
تفاهم
خطأ
دعما
مشاورات
ويؤكد
##دية
##صل
34
أسماء
أطباء
أنها
الاتصال
الحشد
الشياطين
عمرها
لادن
لرئيس
نواب
يضم
يعلنون
إسرائيليين
إعمار
الملكي
جنديين
رسائل
مشاهدة
مطالب
يخرج
##جر
أقل
ألعاب
أمم
الأمل
البحري
الظفرة
تدشن
ثلاث
رفح
رياضية
مؤقتا
مراسم
نقاط
نيسان
هاري
يشدد
يكلف
##دو
أعوام
إخلاء
الثورة
الحج
الكيميائية
تحويل
تشدد
تعترف
شحن
منصور
أسرع
أميركي
أندرويد
اتصال
النرويج
انقلاب
بريكست
تعاملات
خامنئي
سعيد
عرش
ينجو
إنهاء
الثنائية
تخصص
تظاهرة
صورا
يعبر
##در
أذربيجان
الاعتداء
الحكومي
الغربي
النارية
بانتظار
فساد
للعام
يتوجه
##شة
إنستغرام
البريميرليغ
الشيشان
الفائدة
الممتاز
دعمها
صاروخية
صربيا
قواعد
لطائرة
مرحلة
مسلسل
موناكو
هندي
ومقتل
##مر
الوفاق
بولاية
تهديدات
جماعية
خطير
عشية
##ارات
##وك
##يو
250
36
الخليجي
السكري
الصفراء
تجارة
تكرم
فيضانات
ميدان
يحسم
##ئية
أون
الميزانية
تأسيس
توزيع
فريدة
مادة
ميزة
نوفمبر
##سكي
1000
الانسان
بنحو
رسمي
سرت
قرارات
كامل
لإجراء
لرفع
مروحيات
مينسك
ينضم
##يته
600
أب
أداء
استيراد
الرجل
المضاد
اليابانية
انضمام
تكون
توجيه
سواريز
صغيرة
لاستئناف
للسيارات
مسبوقة
يدعون
يشاركون
افريقيا
الطرق
برلماني
تتوعد
جدلا
غوانتانامو
فيينا
لإنهاء
مهاجر
هدية
والجيش
يشهد
##كر
الأركان
المواد
بدلا
تتخذ
تستعيد
تشكل
ذاتية
كروس
لغز
للناتو
مرسوما
استعادة
الزرقاء
المغربية
تنتظر
جدة
طعن
فعل
كركوك
كلمة
مصرف
هندية
##سك
120
البنوك
تتبنى
سيف
للبيع
للشباب
للكتاب
لمحاربة
وروسيا
المساعدة
المعلومات
الملكية
تتعرض
زعماء
غامضة
فان
فخ
قطعة
لتشكيل
للسعودية
لمونديال
والتعاون
##نية
##ينا
إنجلترا
الأسبق
الجمهور
القتالية
النفس
بإعادة
تهبط
جنيه
صدام
مؤسس
وتدعو
##با
أقدم
الأطباء
الأمني
الأولمبياد
الاعتراف
الانقلاب
الدرع
الدوما
الساحل
تؤدي
تصوير
تويوتا
كم
مجزرة
منصب
يبتكرون
يشن
##كس
##ورة
أنه
إضراب
الانترنت
اليومية
سفر
للعمل
مبكرا
مشروعا
مميزة
اقتصاد
التجارب
الدولارات
الفضائي
النصف
النقاب
خورفكان
سنويا
سيطرة
عمال
لبناني
لتسوية
مصادر
نشاط
##ادي
##تش
##عات
اجتماعا
الأساسية
التعامل
بالقاهرة
براءة
تجسس
تطرد
تعثر
تندد
تهاجم
سلطان
ظاهرة
للدفاع
وادي
وحدات
يستعرض
إحالة
الارهاب
السابقة
الكبير
النفطي
الهادئ
بأن
تجارب
ديسمبر
غوارديولا
قصة
لتنظيم
للحد
للسيدات
لمناقشة
نجاة
يتفقان
##حي
##رس
##شي
النائب
امريكية
تحذيرات
زيارته
عملاق
فوزا
مثير
والشرطة
والمعارضة
##S
##وع
أسطول
ابنة
الدنمارك
الراحل
الزعيم
الضوء
العسكريين
حسن
دبلوماسي
شارع
عطلة
لزيادة
لقاحات
##صر
##يان
أربيل
الحصول
الكأس
المبعوث
المركبات
المونديال
بخماسية
تاريخي
تبحثان
فايزر
قانونا
كلباء
نقص
يشتبه
##اته
اختيار
السفن
تجميد
جزر
لزيارة
يتأهل
يحددون
##عي
إسلامية
الحب
السرية
عامين
عمره
كلب
للرئاسة
مراقبة
مستويات
هدنة
يدشن
يعتقل
البحرينية
الجرحى
الجنود
النهائية
بركان
تحديث
تعادل
خليجية
دوليا
فرقة
قراصنة
مخدرات
##لات
أرباح
الأمطار
الأممي
البطالة
الجنوب
السداسية
القائمة
القانون
الوطن
اليورانيوم
تحدي
تخفيف
جمعة
ساركوزي
سياحية
عقود
لإنتاج
للقاء
يستقيل
يقصف
أهالي
اتفاقيات
احتجاج
الملاعب
تتسبب
تطيح
طلبات
مقبرة
يحاول
يرصد
يسلم
الحركة
بشمال
تبيع
تشيد
تقليص
حرائق
سنغافورة
صاروخي
فيفا
لكورونا
معارض
يطيح
##غة
37
تقترب
جنسية
حوالي
سفارتها
عروض
قلقها
للغاز
موراي
ميزانية
ولادة
##رب
أخطر
البطولة
التطعيم
الجنسي
الخام
الصحفيين
القصف
الكونغو
الهاتف
دبا
ذوي
زفاف
متر
مفاجئة
وثيقة
##سون
البيضاء
الصناعية
بغارة
بفعل
بوروشينكو
ترشيح
تناقش
جماهير
كهرباء
لإنشاء
يعمق
أغسطس
أمريكيون
إدانة
الأنباء
التسامح
السباحة
بجروح
تحتفي
حاشدة
شحنة
عرضا
أرضية
الانضمام
الحربية
الشخصية
المحتجين
تحصد
تحقيقا
ثالثة
حاول
حسابات
خطورة
دائرة
لتحقيق
للحوار
مدربه
مفاجئ
مواطنا
نشطاء
نظيفة
يغلق
##اه
##رين
أربعة
الأرجنتيني
الثقافي
الخدمات
الستار
تحالف
خسارة
عملاقة
غوتيريش
قضائية
قمرا
ميلاده
يمني
يومين
الأطراف
الاستثمارات
انتقال
تجاري
تشديد
صراع
عنف
لعبة
مجانا
ويبلغ
ياباني
يحطم
أراضي
أسهم
الأكبر
الذين
العقبة
اللاذقية
بث
بدمشق
حصة
شهرا
يعمل
يقع
##مل
##وز
أكراد
اجراء
استقرار
الرقمية
المرشحين
الموسيقى
بالقدس
بسورية
تحديات
تصاعد
شهرين
كوسوفو
لإسرائيل
لادا
أغلى
إصابته
الربيع
الشامل
اللقب
ببطولة
خلاف
عضوية
عقده
للفورمولا
لليوم
منشآت
يتفقد
##شر
##قي
##من
##وات
آسيوي
أسطورة
أمراض
البورصة
الصغيرة
العملاق
الكنيست
اللاعبين
تشيلي
جون
خطاب
دقائق
ضم
غالاكسي
لاستقبال
هام
ورشة
يحصد
يحول
يفقد
##يب
##يتين
2009
38
55
أطول
أغنية
الأولمبي
الثنائي
الرمادي
الطاولة
الفلوجة
المنشطات
تصنيع
حوادث
رفيع
سلطنة
علاقات
فوزه
لتنفيذ
لضم
لمن
مؤشرات
هاتفا
والولايات
يؤجل
يبحثون
ينتزع
##رد
##رق
##لية
أعداد
أمريكيا
ابن
استطلاع
الانسحاب
الرسوم
القوقاز
اللغة
المدرب
النجم
امام
بتقديم
تخسر
تزايد
تشييع
فون
للشرطة
مأرب
يحتفلون
يخفض
يفشل
##ايا
##رز
##فر
##لين
إرهابيين
اختبارات
الجماعي
الحيوانات
النجوم
الوحدات
انتحار
برامج
تيلرسون
ثورة
طاقة
عضو
غينيس
لانتخابات
لتقديم
مستعد
معظم
موقعة
هزيمة
يقطع
يقول
أجمل
اسرائيلية
اشتباك
الآسيوية
الايرانية
البحريني
الترشح
التزام
التطورات
الرسمية
الصور
المسرح
اندلاع
تحرم
تنمية
فرص
فرق
معارضة
وفرنسا
##اج
##جل
الزواج
الشراكة
جثمان
حدودها
رجلا
عجز
كريستيانو
مؤشر
مضادة
يؤيد
يطرح
##مات
أزياء
استعداده
التشريعية
التشيك
الدخول
بوتفليقة
تأمين
تايوان
تحبط
تخفيض
تنتهي
حميميم
دراجة
قوي
كرزاي
لحم
للمعارضة
متظاهرين
مركزا
مسيرات
يقتحمون
##افة
##عد
##كة
أجنبية
اتخاذ
الأزهر
الأفضل
الاوسط
الرئاسي
بارز
برميل
بفضل
تصف
تكنولوجيا
ديون
ذات
كلفة
للدراجات
محلية
مهاجم
موظفيها
وترامب
يدرس
يصوت
##انية
##زل
##يرة
استضافة
استقالته
التفاوض
الفيديو
المعتقلين
بالشارقة
بالضفة
بسجن
تنتج
جمعية
حيال
فورا
مطلع
موقفها
نفسها
يهبط
##s
##سات
أوغلو
الخامسة
الخضراء
الدراجات
حرس
رائد
رعاياها
سيارتها
كاميرون
مجمع
مشكلة
يستضيف
##اري
##يتها
أفلام
إف
الأسطورة
البرية
الشرعية
القرار
القمح
المال
تتلقى
خمسة
سيلفي
صاحب
صناعي
قسد
لعقد
محل
منتصف
منه
ميلاد
نصر
يتحدى
##دات
42
800
البوندسليغا
الصناعي
الكويتية
بالإفراج
برئاسة
بعملية
تكساس
جائحة
جثث
عددا
لحضور
لداعش
ليستر
يتعثر
##ئه
##يقة
آمال
أسبوعين
إلكترونيا
الإفريقية
الركاب
الروهينغا
الشرقي
الصليب
الصيف
الطقس
تعقد
رالي
ساحل
شاشة
شكوى
عنه
لوحات
متوقعة
وزوجته
وقطر
يحذرون
يسحق
##ولة
##يتي
إزالة
الاتهامات
تصبح
تصنع
تقارير
جدا
ختام
علامة
كبرى
محتملة
محمود
مدني
وطهران
يحتجون
##بين
##وح
أسوأ
إرهابيا
الاجتماعية
القارات
المحادثات
المزيد
اليوناني
تعبر
تنجز
تنسحب
جراحية
خان
سكنية
سليمان
سيرينا
ظروف
وطنية
يابانية
##ائية
##كوف
##له
أثينا
أمر
الشمال
تخرج
تورط
سوني
شابا
شفاء
صدور
ضربات
عنها
فضائي
لمراقبة
محافظ
مصاب
يسبب
##مين
أردنية
إل
التدخين
التضخم
الحد
الخليل
الكردية
الكنيسة
اليونانية
اول
بزيارة
بمحاولة
تشن
تغادر
تقلص
فكرة
لحكومة
محاولات
مكة
##رت
إيطالية
الاستقرار
الاسد
السادس
العلاقة
القرآن
المستخدمين
الواقع
بالكامل
تقتحم
جانب
خلافات
صرف
لاعبا
مروري
وباء
وكيري
يجمع
يرى
##ستان
##كين
41
43
أمطار
الخروج
الرقابة
المؤبد
امريكا
تتخلى
جنرال
دبابة
سن
عنان
عنصرا
مواطنة
ناجحة
يحتفي
##وني
أصغر
أوضاع
استيطانية
الدفع
السياسة
الصاروخ
العجوز
العراقيين
المعلم
المناخ
بحيرة
تحمي
دونباس
زواج
سيدات
فنلندا
قدما
للاتحاد
مقديشو
ممثل
نجمة
نوع
يخطف
يدافع
يهز
##ائه
##يز
65
أصل
إيطالي
الأنبار
التجول
السريع
المشترك
المواجهات
برد
تشير
رايتس
سنودن
للاشتباه
للحفاظ
لمنصب
مسبوق
منظومات
ويكيليكس
يجب
يخطط
يريد
##ادة
52
آفاق
السيارة
الصومالية
برفع
بينهما
سندات
شقيق
عرب
عمرو
للأندية
للكشف
للمواطنين
مؤسسات
مشتبه
مشروعات
مضاد
ملاعب
نادر
يتحول
يصيب
##سا
أعراض
إلكتروني
استدعاء
الإقليمية
الاحترازية
الازمة
الحديدية
الكون
الليرة
الملاكم
بأكثر
تونسي
حزمة
ساحة
شامل
شراكة
ضغط
غامض
فوائد
قتيلان
كبيرا
والغاز
##ائي
##دان
##يع
اصطناعي
الإسرائيليين
العاملين
الفريق
القضايا
القضية
القهوة
المجموعة
بحضور
بلدان
توزع
حكما
رباعية
روستوف
صعود
طاولة
فعالية
قبضة
قذائف
كراسنودار
كوزنيتسوفا
لديها
لفيروس
منتجات
يتخطى
##تو
##كية
أحياء
أقمار
أندية
أوكراني
الدراسة
الرقم
الشتاء
الصحفي
العالي
العلاج
الكبار
الهولندي
الوفيات
برأس
برنت
بروسيا
تجاوز
ضواحي
طالبا
علامات
عمدة
لألعاب
للاستثمار
مجلة
مزاعم
موافقة
والد
وجبة
ومحمد
##زا
##يتش
أحلام
أصول
إسطنبول
ارتداء
البغدادي
التنسيق
الحبوب
المباشر
تتحدى
تحاول
تسريب
تعتذر
تعويضا
تغريدة
تفقد
خليج
عدسة
فن
قيادات
لاتسيو
منبج
هائل
يشكر
##نيا
ارتفاعا
الأمراض
الجسم
الخيرية
السيدة
القيود
انتهاكات
ترحيل
تعترض
جرش
جمهور
حلول
دهس
رخصة
رواتب
عربيا
فى
مبعوث
مطالبة
يحظر
##كار
آباد
أبناء
أنواع
أوراق
إلزام
الأطلسي
البيئة
التاريخي
السيدات
الضغط
القياسي
بالفوز
بواسطة
بوفاة
تحلق
جزائري
حوثية
سلامة
صحفيين
عون
فرنسيس
قفزة
قيام
لاستضافة
للجدل
منازل
هاميلتون
يختتم
##جم
##جين
##خر
##راء
##زن
##عم
##هي
700
السياحية
بشق
تستنكر
رياضي
مذهلة
مسرحية
مهاجرين
يحضر
يرسل
##اية
##جية
##شق
##وق
أتراك
الافتراضي
الانتصارات
الثلاثة
الحرائق
السابع
السنوي
الصنع
الفرعون
سداد
فيلا
كفيتوفا
كلوب
لبنانية
لبيع
للثقافة
لواء
ممارسة
يتجه
يقلب
يلقي
##00
##تك
##سر
أمل
أوكرانية
التلفزيون
الرباعية
القارة
الممثل
ايطاليا
بسيارة
جماعي
حلف
ضباط
للأردن
لنهائي
ماكس
مسار
موانئ
يؤكدون
يقبل
يوجني
اتفاقا
الاسلحة
المتهم
المفوضية
الهوائية
انقطاع
بقاء
ترخيص
تعارض
خبر
دوما
راموس
سبيل
سرعة
صناعية
كتائب
لتدريب
مصابا
مواصفات
والاتحاد
وظيفة
يغير
##ثة
السماء
الفلسطينيون
المبارك
المرور
الهبوط
تحتجز
ترى
قرض
لحقوق
مباشر
متفرقة
##ند
2000
72
إمدادات
الفلك
الفيسبوك
القادمين
بالتحقيق
بمقتل
تأشيرة
تجتاح
حكومي
رفضها
شعار
طارق
عالية
لوك
مروع
مناقشة
يرفضون
يطلع
##t
##وى
إيبولا
التسجيل
العزل
الفنانة
القيوين
المؤسسات
المشاركين
بأفغانستان
بسرعة
تجديد
تفكيك
جورج
درعا
دعمه
سابقا
قديمة
قيد
للفنون
مبتكرة
مختلفة
مصريين
وأردوغان
والده
وحماس
وسام
يختار
يقهر
ينتظر
ينسحب
##حب
##طي
##فية
##قات
57
أنابيب
إجازة
المائية
المواقع
بالذكرى
بيوم
ضريبة
فورد
كويكب
لسباق
لشركة
مدافع
ملتقى
ميغ
يرجح
يفجر
##ئها
##اط
##عين
##هر
إبراهيموفيتش
الاحتفال
الساحة
الشهير
الغارات
الكحول
الكوريتين
المبكر
المنشآت
بأبوظبي
توحيد
خارطة
خيرية
شرطيين
شهير
لعشاق
مواعيد
يجتمع
يحرم
##اش
##دد
##ده
##صة
##نغ
إفريقية
الإدارة
التراث
التنمية
الدفعة
المستوى
الوليد
اوروبا
بدوري
بشرية
بمساعدة
بينها
تتفق
تسريبات
تقصي
جسم
دبليو
زمن
سوبر
سياراتها
صفحة
ضحية
عواقب
فريقه
فصائل
فلاي
قبول
قدرة
لائحة
لفرض
للحوثيين
للعودة
مشاركتها
مطارات
ملفات
نصب
##ئم
##وان
أس
إقرار
الأنفس
الافراج
الامارات
المدى
النفايات
بالسرطان
بسرقة
بمرض
تدرج
كابول
محرك
مساعد
مستخدمي
نفطية
يستخدم
يعثر
يهاجمون
##كات
أبواب
إليزابيث
استثمارات
اقتراح
الأجهزة
التنفيذ
السلامة
الفصل
الفورمولا
المركزية
باتفاق
بنيران
تحتج
تحرر
تصعيد
تقيم
ردود
سري
سمكة
صديقة
كرواتيا
متبرع
مجهول
مخطط
مدمرة
نيس
ووتش
يقصي
##ائها
##تم
##ظ
أطراف
أمازون
إنديان
إنزال
الأممية
السرعة
السوفيتي
تؤكدان
تعزيزات
تعطل
تغريم
تفاقم
تقول
تنس
سلة
ضيافة
طارئ
طلال
غيتس
قدرات
كويتي
كينيا
لاتفاق
نموذج
وباكستان
ويندوز
يحبط
أجانب
أنظمة
إلقاء
اقتراب
الأفلام
الافغانية
البيانات
التاريخية
السجون
الفراعنة
الكلاسيكو
امريكي
بتقنية
تقوم
جدول
سريع
سيارته
طلبا
طنا
قاتلة
لإدارة
لإيران
مبكرة
مجانية
مركبات
موسى
والهند
يندد
##عب
##ماء
اعتراض
الاستقلال
التبادل
الخلافات
الفصائل
المنزل
تاريخه
تسلل
تضيف
تنصيب
حبيب
حسني
زراعة
شغب
عربة
فصل
فنانة
قوانين
للقاح
محتجين
مشواره
ملياردير
منافسات
يقوم
يمنية
##زم
##نات
##يبة
أحكام
أدلة
أسانج
إمام
الأحداث
الديون
السلطان
المراقبين
المشتبه
النيل
بزيادة
تتعلق
تطعيم
تلاحق
حلم
عتبة
عراقيين
علاقاتها
عملها
محتمل
مشجع
نابلس
وأكثر
يطورون
يقتحم
##ران
##غا
49
أدوية
أغنى
إعلام
ابنه
الإقامة
الاقتراع
البصرة
البلطيق
الحديثة
السبب
السكان
العدوان
الكاملة
المتهمين
ببغداد
برلمانية
بنتائج
بوجود
حاجز
حطام
خلف
رؤساء
رؤوس
رؤية
رفات
سقف
سيدني
صنع
طريقها
فني
فيتنام
متطورة
مخرج
مشاكل
يصبح
##دين
##هان
إعفاء
الاسلامية
التحرش
الجائحة
الحسين
الف
النازية
الهيئة
بإجراءات
بإعدام
باكستانية
بصواريخ
بلغاريا
بوروسيا
تثبت
تستثمر
تغزو
سفيرها
سكريبال
عاجلة
لRT
للنفط
وألمانيا
وبريطانيا
ينقل
##اعي
##لق
39
85
اثر
اقتصادي
الأزرق
الجماهير
الخبراء
الرئيسي
السويسري
الفرات
المرورية
المسافرين
المنازل
النقاط
اهتمام
بالرد
بسعر
بسيطة
تحرك
تدابير
تدفق
تصرفات
تهز
متهما
موريتانيا
ميونخ
نائبا
نفق
يفاجئ
##a
##ضة
أودي
أين
استبعاد
الانتحار
الخارجي
الختامية
القائم
المستثمرين
بدفع
بقضية
بمبلغ
بيلباو
تفعيل
تقطع
تمهيدا
جلسات
حجر
خطوط
طريقه
لبرشلونة
لمنتخب
ماراثون
متنها
وكوريا
يتفوق
يسرق
يشعل
يشير
##ارد
##فون
أثرية
أرقام
إيرادات
البرتغالي
الحل
الدراسي
الضحايا
اللعب
المنافسة
بتحطم
بفرض
تلزم
تنجح
توفير
دافيدينكو
سجينا
شجرة
صلة
عراقيا
غصن
فرار
للأزمة
للولايات
لوس
مستمرة
مصور
هناك
وميركل
##ابة
##به
##هب
أنحاء
أويل
التخلي
التصدي
الجنس
القتل
المباشرة
المحلي
المركبة
المسؤولية
بالتعاون
بلاتر
تؤثر
تسرب
ثلاثي
جو
شبكات
شتوتغارت
عملة
كتالونيا
لصاروخ
للشعب
معه
نهائيات
هنغاريا
وأوكرانيا
يتغلب
##وري
1500
44
إيفانكا
التأهل
الجانب
الرقمي
السادسة
السفينة
القصر
تدافع
تفتيش
خطف
خلايا
شؤون
غينيا
للقارات
مليوني
موقفه
وقود
يشكل
##انا
##فع
##لم
##وال
##ويل
130
اتفاقات
البرنامج
البيشمركة
التأمين
الجمهورية
الحبس
الحديث
الشحن
الطيور
العملات
الملعب
اليهود
بقيادة
بمحافظة
تبدي
خريطة
ذاكرة
صعدة
طبي
طويلة
كشمير
كلاسيكو
ليبية
مخالفات
موقعا
والأردن
يخضع
يناقشان
يودي
##اض
##رف
##ضي
##عا
اسرائيلي
اغتصاب
الآن
الأجنبي
الباب
البريمير
البقاء
الثدي
الخطر
الرد
الشعر
الفائزين
الماتادور
المجال
المحتلة
النازحين
الوصول
تكريم
حتا
حرارة
حكومته
دو
شابة
عقدا
فائقة
قطرية
قوى
لإقامة
لتحسين
للشطرنج
مغربي
ودية
##ارية
##سيا
##عية
47
أكاديمية
استراليا
الأتراك
الترجي
الحقيقي
الشاطئية
الصناعة
القنصلية
المستوطنات
المنتجات
النيجر
الوفد
باراك
بالإعدام
بلادهم
تجنب
تزور
تسليح
جنسيا
صحي
علني
لاستعادة
للألعاب
للأمن
ماريا
معدات
ميدالية
نوكيا
هنية
وبكين
يروي
##بية
##حات
##صور
##هات
أبوابها
أثر
إسعاف
الائتماني
الخط
المجموعات
المدنية
الملاكمة
الموظفين
برنامجا
بطلب
بيريز
تذاكر
تفرق
تنظر
خاصا
خمس
شرط
شكل
طارئة
ظهر
قواته
كاميرات
لأصحاب
لاجئين
لتأمين
لحزب
لخفض
للمطالبة
مايكل
مصريا
مضيق
مواقف
موت
وعشرات
ويليامز
يحدث
ينتقل
##بو
##ريا
أبيض
أوزبكستان
اجتماعات
اختراع
الإغلاق
الشهيرة
الصالات
العاج
العزيز
الكندية
المئات
الموقف
بحل
بذكرى
بسقوط
بلد
تختار
تريد
تشعل
تلقوا
شهادة
صحفية
طالبة
عرفات
قاسية
لتجنب
لدول
للقضاء
للمنتخب
ليبي
مدنية
منظمات
مهلة
ورئيس
وقع
يستأنف
يقفز
##او
##رية
##مع
آند
أسترازينيكا
إعداد
إقبال
اردوغان
اعادة
الأدوية
الأسترالي
الرسمي
السجائر
المتأهلين
المفقودة
الناس
النيابية
باكستاني
تبتكر
تلوح
تنشئ
داخلية
شخصيات
شيخ
عبور
عمله
غربية
قرش
مشددة
مفاعل
واعتقال
وهو
يتابع
##جان
##سم
##مار
##يلة
أدنوك
أنشطة
إسلام
إيفرتون
التحتية
السكر
الفنية
المفروضة
بأسعار
باللغة
باليوم
بدخول
بريكس
بقايا
تطال
تكتشف
توصي
جدار
جزئيا
حقائق
درع
روبوتات
شواطئ
طائرتين
عقارات
قلعة
كوري
كورية
للعالم
منافسة
مهدد
نية
هامش
يتخلى
يحل
يكتشف
ينظم
##تة
##جد
##حم
##زة
##ظم
##قر
##وش
46
احتدام
استثنائية
التكنولوجيا
الدبابات
الروبوتات
الكامل
المحمولة
المرضى
بالسعودية
بتنفيذ
تتأهل
تنافس
دورية
رومانيا
طقس
عشر
فوزنياتسكي
قارب
قانونية
قرى
كاسترو
كيفية
لدخول
للتعامل
مزيد
منزله
هامبورغ
هيومن
وست
##فن
أرضه
إليها
الألغام
التزامها
الجامعات
الخلاف
المبادرة
الملاحة
النشاط
الهوية
بالكرة
بسحب
بنت
بنغلاديش
بوش
تتخطى
تصادق
تفشل
حديث
حيوان
حيوانات
دبلوماسية
ديوكوفيتش
شاملة
قلقه
لاغتيال
لتركيا
لدراسة
لفتح
لوزير
متظاهرون
معدلات
منجم
موسيقية
موكب
وتؤكد
وفق
وقوات
يتبرع
ينصح
##الة
##بول
##داء
##سب
##غو
##هام
إفريقي
استثمار
استهدفت
الأسترالية
الأمريكيون
الإثيوبي
التعاقد
السومة
الصاروخي
الطبيعي
العرض
القراصنة
الليبيين
المراقبة
الملايين
انتاج
بإجراء
بال
بديلا
بعودة
بهجمات
تباين
تحكم
خارقة
ضمان
لتحرير
لضحايا
للكرة
مدة
مرات
مشوارها
معهد
مفاجآت
ممثلة
هروب
وجهة
وليامز
يلتقط
##احة
##بان
##مال
51
احتفالا
احد
اعمال
الإكوادور
الاستراتيجي
الخلايا
الخير
الدولتين
السراج
اللبنانيين
المستقلة
بالانتخابات
برازيلي
بنشر
تتفوق
تدشين
تضم
خطرا
دين
رياضة
سعوديين
صيد
طوارئ
فولكس
لاعبة
لريال
لص
لكل
مجهولة
هامة
واليورو
وان
وموسكو
يحمي
يستدعي
يشتري
##باء
##حل
##صب
##كم
##هل
140
الأجواء
التطرف
الحجاج
السيتي
الشام
الصداقة
العقارات
الغذاء
الفيصلي
المستقبلية
النسخة
بأعمال
بنوك
تاريخها
تحتاج
تحسبا
تستحوذ
تقل
جبال
جنازة
شريط
قاذفات
لاعبو
لوبان
لولاية
مي
نسائية
هرمز
يحتاج
يكسب
ينفذ
##انة
##ومة
إبراهيم
اثناء
استقلال
الحماية
الدينية
الضرائب
الكمامات
الليل
الماضية
المقاتلات
المنامة
باشتباكات
باغتيال
بالتجسس
بفتح
تاريخيا
تحدث
تصمم
تضامنا
تقفز
تقنيات
توتر
جزء
جهازا
حقول
داعشي
شويغو
عبارة
قتالية
كاملة
لاحتواء
مشاركته
مكتوم
ينال
95
أمين
الإعلامية
الحدودي
الزمن
السبع
القسام
اللاتينية
بأنه
بغارات
تأشيرات
دب
درون
لحظات
مدار
هاتفها
هزة
هوندا
وأنباء
يشكك
##جات
##ست
##فو
##ينية
أوبرا
إصلاح
إيجابية
ابنته
الآثار
الأمين
الإنكليزي
البر
البناء
البوسنة
الخناق
الساعة
الصوت
الطيار
المناعة
النمو
اوكرانيا
ترتيب
تزامنا
تسير
تطبيقات
تفوق
جليد
حمد
خلفا
طائر
طاجيكستان
قادرة
قذيفة
للبلاد
للتعليم
للدور
للسباحة
مختلف
ملابس
نقابة
هوليوود
##ائل
##بل
##جا
##زو
##قته
900
استكمال
الاستخدام
الافريقي
البنزين
التدريب
السترات
العملة
المقاومة
انفجارين
بافلوتشينكوفا
بتسليم
تربط
تقاضي
تنخفض
تنسيق
ثان
جيل
خفر
سبيس
صفقات
فتى
للفلسطينيين
ليلا
مبادرات
مشهد
معايير
معها
مهارات
موظفين
وسيلة
وطني
وفاته
يرغب
يوروبا
##جرة
##صول
##لون
أصوات
إعلامية
الأضواء
الاقل
الجدد
الحملة
الضباب
المبكرة
المضادة
المهدي
الهولندية
بشار
بوشكين
تأهيل
تجبر
تعدل
تعين
تهدي
حدوث
خشبة
دام
صغير
غضون
كارلو
لأسباب
لتخفيف
متجر
متى
محاكم
معاقبة
معتقل
موحدة
هدم
وأنقرة
يحرر
##شا
##غر
##فين
##قد
أيدي
إيرباص
احتفال
استعدادات
اعتقالات
الأيام
الإسكندرية
التحقيقات
التقنية
الجزء
الجمهوري
الخسارة
القاسمي
الكريم
المتمردين
المواجهة
النتائج
الوجه
بحريق
بنظام
تعويضات
جمع
حرة
حصار
حياته
سوداني
شاطئ
شديد
عقار
قرغيزيا
لبوتين
لسوريا
لغة
للدموع
ليس
منافس
يجبر
يعاني
يقيم
ينخفض
##o
##تار
##ندا
##وين
آمنة
استخراج
اصطناعية
افتراضية
الأوروبيين
الثوار
اليرموك
انتحارية
بمنطقة
بمواصلة
بنغلادش
ترحل
جزاء
جولي
حرية
حقيبة
دوام
ذكيا
ذهب
سلبية
سوء
عامة
لاس
لمرضى
لوجه
ليون
محافظات
معرضا
يتيح
يلحق
يمثل
##ئمة
##امة
##لك
أسر
أنجي
ارهابية
الجرائم
الحمل
الرابطة
السعادة
العدالة
المباحثات
المشاريع
تحسن
تقييم
حامل
سعد
شن
عدوى
فائدة
فاسو
فنادق
قضاء
قنابل
كاسياس
لضمان
نموا
ونصف
يؤدون
يحتفظ
يرشح
##y
##ئر
##اص
##قى
##نت
إنتاجها
الأصوات
الاولى
التقشف
الديمقراطي
الصحافة
الفنزويلي
الكاميرون
اللاعب
اللقاحات
بمليون
تأكيد
تبعد
تخالف
جيمس
رابع
رابعة
شرعية
صناديق
ضعف
عنيف
فيغو
كيا
لأوروبا
لأوكرانيا
لهجمات
مجهولون
مديرية
موسيقى
موضوع
ميلانيا
نزع
يحيون
يوصي
##اها
##اوية
##تور
##سين
##قل
##لو
##ويات
الأردنيين
الأسماك
الاحتياطي
التدريبات
الحصن
الزراعية
الفنون
المنطلقين
النيران
انتظار
بدور
بصدارة
تباع
تجمد
تحليق
تدعوان
ترجح
ترشحه
تعول
تكرار
ثمينة
حادة
حمل
دليل
فئة
فيسنينا
قرضا
قرن
كيميائية
للجنة
لمعالجة
لنشر
متوقع
محتجون
مرفأ
معا
مقاتلي
مقترحات
موسوعة
هتلر
هيونداي
يصلون
يعثرون
##تل
##ذب
##رح
##سل
##فات
##قاء
##وث
58
أطعمة
أقصى
إخماد
ازدياد
اعتداءات
الأسطول
الأسير
التيار
السابعة
الطلاب
المساجد
انتشال
باكورة
بانهيار
بشرق
تسلا
تصيب
تونسية
ثمين
جاكسون
حدث
حوثي
ذمة
رادار
سجون
سوريون
شكري
فرحة
فرقاطة
فك
فلاديمير
قاض
كردية
لتحديد
لقرار
لمنظمة
لواشنطن
متأثرا
محملة
محور
مسقط
مواطني
ميليشيات
ناشط
وجها
ودول
##طية
##فت
##لد
##وار
##يض
160
67
ائتلاف
احتياطيات
اضطراري
الأقمار
الانتقال
الانفجار
التتويج
التصفيات
الجرعة
الجنايات
الحارس
الحسناء
الحفاظ
الداخلي
الرئيسية
الزيتون
الشتوية
الصيد
الفصح
القاضية
القيامة
الليلة
المسيرة
الودية
برنامجها
بوليفيا
حقوقية
شبح
شقة
صعب
ضجة
كتيبة
كمية
لإحياء
لاستخدام
لتمويل
لغم
لفريق
للعراق
مستوطنون
ملامح
هجومين
والسودان
يعودون
##رض
##زات
##فيا
##قية
##كان
##كل
3000
54
CIA
آسيوية
أجندة
أغرب
أنفاق
الأسنان
الأم
الاصطناعية
التهدئة
الثلوج
الحربي
السباق
العماني
المروحيات
انباء
بارتكاب
بالقتل
بتهم
بروغريس
بطائرة
بغزة
بليبيا
تختتم
تداولاتها
توك
جبهات
حافلات
خوفا
رئيسي
رواية
زوار
سارة
سكني
شرطيا
فيتش
فيورنتينا
كارلوس
للشركات
لو
مسلم
معلم
مفتي
هايتي
وزاري
##اسة
##اغ
##انيا
##باب
##حق
##خير
##سن
##فصل
##ولي
##يح
##يري
أنجلوس
الأوقاف
البريطانيين
البلدان
التحضير
التفجير
الثلج
الرأس
السلمية
القلق
الكلاب
المحتجزين
بأعجوبة
بإلغاء
باكو
بمطار
تأييد
تتطلع
ترحيب
تشافيز
تكريت
جنودها
ديفيد
رائعة
سيطرته
صوت
صوفيا
علمية
قميص
للانضمام
للفيروس
للوقاية
مأساة
مساجد
مقاتل
مكالمة
موديل
نظاما
هوائية
والرياض
وتبلغ
وهبي
يترأس
يلوح
##رر
##سان
##صار
53
56
أسترالي
إسرائيليون
اجراءات
الأسعار
الاول
التظاهر
الخطيب
الدرجة
الدواعش
الدوليين
الزراعة
الشاعر
الشركة
الطلاق
العائلة
العقارية
المسيل
الموازنة
بحري
بحماية
تخفف
خطرة
روسيين
زائر
سفيرا
سوخوي
شهادات
عرسال
عشاق
فتيات
كريم
كمبيوتر
لتوفير
للإفراج
ليتوانيا
مالك
مساء
مستودع
مسلمة
ميلادها
هكذا
هواتفها
والبحرين
يحيي
يربط
يغرد
##ئن
##اسي
##ايات
##حد
##عون
##قلب
##كون
##مون
##يج
##يش
##يعة
إسبانية
الألمان
البرادعي
البرازيلية
البولندي
الحجاب
الرياضيين
السنوية
الشاب
الصربي
الصيفي
الفنزويلية
المناورات
النادي
النيجيري
انتصاراته
باحثون
بالتنس
بمنع
تعاني
تيريك
حيث
رئاسية
رقمية
غولن
فريد
لربع
مذبحة
مسافة
منازلهم
ميداليات
نافالني
نوت
نور
والحكومة
والدها
وليبيا
يؤثر
يترك
##صدر
##لل
إدراج
إسبانيول
إسلامي
إنذار
اسكتلندا
اعتصام
الأنفاق
الاستعداد
البندقية
التحكيم
الثقافية
السلع
السير
الشوارع
الغابات
الغواصات
الكاظمي
النور
بالصين
بحجم
برونزية
تأمر
تتوجه
تشلسي
تم
جديدين
حرق
دبلوماسيا
ذي
ساخنة
ستة
سجين
سرا
صحراء
عادل
عنصر
قرغيزستان
قزوين
لبدء
للبرلمان
للتخلص
مختبر
مدرعة
منفذي
موديز
نقدية
وتيرة
ورونالدو
يدعوان
يستنكر
##A
##l
##اقة
##دم
##رع
##سير
##فاء
##نين
62
64
إعلامي
الأزمات
الأولية
البعثة
السمنة
الشؤون
الشيخوخة
الطبيعة
القيمة
المصارف
المهرجان
الناخبين
امكانية
انتصارات
بالعمل
بتحقيق
بيرو
تضارب
تودي
تيك
حية
دراسية
سريلانكا
شالكه
عارضة
فوري
كلمات
لقائه
للبرميل
للحياة
لهوكي
لوضع
محامي
محرز
مرتبطة
مصفاة
نطاق
وباريس
وساطة
يبدي
يوسع
##الي
##تهما
##جه
##كن
##يلا
110
آليات
أفغاني
أماكن
الأوسكار
الإنساني
الجميع
الحسكة
الخنازير
الشغب
الفوري
المتطرفين
اليونسكو
باعتقال
بالرصاص
برلسكوني
بري
تحيل
تخلي
تسفر
تقريرا
جارتها
جهة
حاد
حيز
ديل
سابقة
سحاب
سعي
سفراء
سلالة
شاشات
صياد
طرفي
عملياتها
عنصرية
قطري
لاختيار
لليمن
لمهرجان
مشاجرة
مكاسب
مليونا
مناهضة
نيزك
وأمريكا
واسع
واقعة
والأمن
والكويت
وسورية
ولد
ومن
يوعز
##جع
##قدم
##لف
##مية
##نو
##وخ
##ونات
##يهما
2030
أركان
أضخم
اصطناعيا
اضطرابات
الاردن
التهديدات
الجبير
الحرم
العنصرية
القادة
القياسية
المراكز
المنتدى
بصورة
بنما
تتباين
تحل
تشاد
تطبق
تطبيع
ثنائية
جزائرية
جوبا
حفلة
حملات
ديفيز
ذئاب
سجناء
شرم
شعبي
صناعيا
فيراري
كليتشكو
كميات
للرد
لمتابعة
ماكين
متعددة
مريض
مسؤولون
نبيل
نداء
نهائيا
هاليب
ورقة
وفقدان
وليد
يخترعون
يشبه
يطلقون
يلعب
##ئب
##ائق
##ارا
##بورغ
##شات
##شار
##طور
##وعة
أخطاء
أستون
الأسرة
الأوراق
الاحتياجات
التخطيط
الحدودية
الدماغية
الذاكرة
الرحيل
السد
الشورى
العصر
العمالة
القانونية
الماسترز
باليستيا
بدءا
بديل
بطارية
بلاك
جابر
جراحة
حجب
زميله
سودانية
شرعي
صاروخين
عروضا
غسل
فرز
قلبية
كلم
كويتية
لأكثر
لدفع
للطائرة
للمساعدة
لمشروع
لمواصلة
لوغانسك
مرعبة
مصابين
مقترح
مكتبة
نوعية
هاتفي
واردات
والجزائر
واليابان
يبعث
يبيع
يومي
##ئح
##تس
##خة
##زية
##زينة
##ستر
##شين
##طلب
##فير
##نكو
##ولا
##يكي
68
76
إخراج
إيلون
احتجاجية
استشهاد
الأجسام
الأميرة
الاجتماع
الاكتئاب
السائقين
السعوديين
الشتوي
الضربة
الغذائي
الفقر
اللقاء
المانيا
المرشح
المستشفيات
انتهاك
بارزاني
بالتدخل
بالدولة
بكوفيد
بوركينا
بيد
تداول
تدريبية
تشكك
تعافي
تفجر
ثغرة
حسناء
خيتافي
روني
زفوناريوفا
زوج
شرف
شقيقة
طرطوس
عضوا
غزيرة
فاطمة
لمباراة
لنصف
مشهور
مشوار
معالجة
مكافأة
منفصلين
نزاع
وفدا
وماكرون
يسدد
يصور
يعتدي
يعدم
يوقعان
##اتي
##بون
##ذر
##رون
##ساء
##طار
أبوابه
احتراق
اسبانيا
الإبراهيمي
الاحتيال
الثمانية
الجريمة
العناية
اللحظات
المدرسة
الموضة
بالاتفاق
بالدوري
بريطانيون
بريطانيين
بسرطان
بطاقات
بلبنان
زاخاروفا
ستريت
سعود
سلوفاكيا
صلاحيات
ضخما
عائدات
عريقات
فيلما
قادر
لذوي
ليفاندوفسكي
مستشفيات
مشكلات
مهام
نزوح
هيفاء
وشك
وفلسطين
يتولى
يعالج
يمنيين
##دون
##ونا
##ونية
##يرو
350
أطلقها
إضافي
الأزياء
البدء
البطريرك
البيان
التأشيرات
التطبيع
التقدم
التمويل
الجلد
الدخل
السويدية
العظمى
الغواصة
الفيلم
المطار
المقاطعة
انعقاد
بحثا
بضحايا
بطعم
بفوزه
بلقاح
بيليه
تحضر
تخصيب
تخصيص
ترافق
ترك
تشغل
تلفزيونية
توريدات
جامع
جريح
جناح
جواز
حب
دونالد
سباحة
صادمة
طويل
عيون
فيتامين
كليا
لتسهيل
لحركة
للتنمية
للصين
للقدرة
مؤثرة
مستجدات
مشرف
ملاحقة
نيو
ووهان
يوفر
##دت
##مس
##نس
أجزاء
أحمدي
أوامر
الاسلامي
الباليه
البث
البورصات
التزلج
الجامعية
الجوف
الحداد
الدمار
الزلزال
الشريف
المثليين
المقاتلة
الملياردير
المنظمات
الموارد
النجمة
الهاشمي
الوقاية
اليويفا
اي
باتريوت
بشروط
بلادها
تاجر
تتابع
ترميم
تزين
تكثيف
خفيفة
خلل
دفن
رياض
شائعات
شائعة
شعر
ضخ
عائلات
عاجل
قرقاش
لإرسال
لتفادي
لقاءات
للتصدي
للصواريخ
ليفانتي
مجموعات
محركات
محليا
مرتضى
مرشحة
مسؤولة
مصطفى
نبأ
والفلسطينيين
وظائف
ويقترب
يخترق
يعاقب
يعترض
##افي
##وض
66
أجنبي
أساس
أمانة
أوبر
إرجاء
إعطاء
اعلان
الأشخاص
الأماكن
الإطلاق
الإعصار
الاغتصاب
البضائع
الدبلوماسي
الديوان
الذاتي
الشريعة
الصيفية
الطب
العظيم
العنابي
الكابيتول
اللحوم
المفرق
المكسيكي
بأمراض
باستهداف
بباكستان
بدولة
برية
بصاروخ
بنقل
بهم
بورش
تجلي
تعرضه
جدد
خدماتها
خرق
دبابات
سائح
صيف
عقوباتها
فوتوغرافية
قيودا
كيريلينكو
لقمة
للبحث
للدولة
للملاكمة
للنساء
ماكاروفا
متأخرات
مترا
مدوية
ملابسات
ملكية
مهندس
وارتفاع
يا
يستهل
يطعن
##ريك
##عاد
##مبي
##موت
##ورا
71
أراض
إصلاحات
إنه
احترام
استراتيجي
استعراض
الإعلامي
التصوير
الحرير
الدفاعية
الذاتية
الشاي
القراءة
المتحدث
الوحيد
بالفيديو
بالوقود
باليستي
برسالة
بما
تصادر
ثقة
حديد
دبلوماسيين
رهينة
سالم
عرضة
عشرة
فاخرة
فالكون
كنز
لوزراء
ليفركوزن
مراجعة
مسؤولا
مشعل
مغربية
مقهى
مكثفة
مواطنون
ناد
نزيف
نيوكاسل
وبرشلونة
وجهات
ودمشق
يخصص
يعتزل
ينتهي
يهودية
##D
##اث
##حر
##رج
##روف
##زين
##صد
##على
##يرا
2008
63
أقرب
أودينيزي
إسرائيليا
إليه
الأرقام
الأسرع
الانتقالية
البلجيكي
التأهب
التقاعد
الخطأ
الدبلوماسيين
السندات
الصادرات
الطبيعية
العجز
الغيط
المخالفات
المخرج
النطاق
الوفاة
بإغلاق
بإنشاء
بحلب
بسداسية
تجتمع
تراقب
تشمل
تصرف
تنال
تو
ثقب
دم
سياسيا
شديدة
صارمة
عاملا
قاسم
لإلغاء
لجمع
لسيارة
لعودة
لهم
مديرا
مروعة
مصادرة
يخشى
يقتلون
يمطر
ينافس
##جري
##حن
##شد
180
أسترالية
إلا
إيه
استغلال
الأمة
الجمال
السوفيتية
السويدي
الصغير
الطبي
العاشرة
الكوكب
المرض
المسؤول
الهجومية
اليمنيين
بالتعادل
بولتون
تحسين
تضاعف
تمساح
توثق
حاسب
حراك
حزيران
خطى
رينو
سياح
سيناتور
شبان
صفعة
قروض
قريب
كانوا
كندي
كيميائي
لاتفيا
لتوسيع
لضرب
مجهولين
مراهق
مطاردة
موازنة
موحد
ميغان
ناصر
نينوى
وارسو
ولبنان
يتكفل
يفلت
يلمح
##ثر
##دل
##سكو
##قص
##ونغ
61
أسماك
أصدقاء
إنسان
الأهداف
الإنفلونزا
البرد
الثقيلة
الثلاثي
الجماعية
السجناء
السن
السويسرية
الشاحنات
الكتاب
المتوقع
المشتري
المطارات
اليونايتد
انفصال
بالإرهاب
بالخطأ
بالطاقة
بالهند
بعقد
بمجلس
تطبيقا
حراس
دائم
ذا
صدمة
طفلين
عقبة
فرنسيين
فياريال
قتلت
قضائي
كوبان
لأداء
لأفضل
لتفريق
لخوض
لسحب
للتفاوض
معاملة
منزلا
مهددة
موجعة
ناجح
نزال
نيابة
هابل
هدوء
والدته
ولندن
ونائبه
يسيطرون
ينعى
##تنا
##جمة
##طين
##نز
##وبة
##ورد
##ورو
أسير
إغاثة
الرمثا
الزهور
الصلاة
الصندوق
الكندي
الكهربائي
الكوليرا
المباراة
المسيح
المظاهرات
الممثلة
المواطن
ايراني
بتعادل
بتنظيم
بمليار
تتبرع
تجعل
تحقيقات
ترغب
ترقب
تسهيلات
تصر
تغييرات
تكتسح
تهم
ثمينا
جديدتين
حادا
حصول
شجار
صباح
ضدها
طول
علمي
عندما
كردي
لخدمة
لطالبان
لقصف
للإصابات
للحرب
للسلطة
لمحمد
مؤتمرا
مؤيدة
مقدونيا
موظفة
مونتي
هاتريك
هيلاري
وول
ويتوج
يبقي
يحرقون
##ابي
##اتهم
##ادية
##بط
##تبادل
##حكم
##زان
##سو
##طا
##ظة
##فان
##مته
##نى
##ودة
##يفا
74
99
آبي
إتش
الأسر
الإيرانيين
الاخوان
التحديات
الثلاث
الخزانة
الضمان
العلمية
القرية
المتعاملين
المنظومة
بالعالم
بالفساد
بالمحطة
بطرد
بوادر
بول
تتصدى
تتعادل
تحاكي
تشترط
تصويت
تعدم
تعلم
تكثف
تنامي
توم
ثم
حد
درهما
دياب
ديوان
زيمبابوي
سباقات
شارلي
صديقته
طبيعية
غرقا
قادمة
قنوات
كاد
كلاشينكوف
كندية
لأردوغان
للتدخل
لمؤتمر
مراسل
مستوطنة
مصمم
منتج
ندوة
نظرية
هائلة
ويطالب
يتخذ
يصدق
يقلل
##i
##n
##جب
##جن
##جو
##سد
##قا
##لان
360
5000
أسرى
أوسيتيا
اذا
الأحزاب
الأغذية
الأونروا
الاستقالة
البولشوي
التحكم
التهديد
الدستوري
الرصاص
الروبوت
الزوار
الزوجية
المؤقتة
المباني
المسال
المواقف
الهدف
بأول
بايكونور
بتعيين
بشن
بصنعاء
بوضع
تابع
تحسم
ترشح
تلوث
ثوان
جودة
ديزني
رأسه
شمسية
قادروف
قراءة
قيمتها
كاتالونيا
للسياحة
للطلبة
مرتقب
مرورية
مسائل
مستوياته
مقابلة
مقاتلين
مميز
ميلانو
والتنمية
والحوثيين
وجنوب
وحزب
وريال
وزيرستان
ولكن
ومسلحين
ووزير
وولي
ويتأهل
يتنبأ
يرحل
يسخر
يغني
##d
##الات
##ذة
##راب
##روس
##شل
##صال
##طلق
##قت
##قط
##نون
##هة
##ييف
أربع
استياء
الأرضية
الاضطرابات
الاوروبية
البافاري
البايرن
التقني
الجورجية
الحديد
الشواطئ
الشيخة
الضربات
الفنانين
القرش
المتطرف
المرتبة
المسلمون
المنزلي
الناشئة
الوداد
بالعاصمة
بالعودة
بعدد
بقطع
تتحرك
تحركات
تخشى
تريليون
تستعين
تعيش
تكافح
تناشد
جانيرو
جمارك
حفرة
خادمة
ذلك
راكب
سفاح
سيطرتها
سيكون
صحفيا
طائراتها
فاشلة
قانوني
قديروف
قط
لأولمبياد
لفحص
للجمباز
مانشيستر
مخزونات
مزدوج
مشاهير
مقعد
موظفا
ميزات
نوعها
هندوراس
وأوباما
والرئيس
والناتو
يتصدى
يتصل
يحكم
يروض
يعيش
يكمل
يلتهم
يويفا
##ئات
##تجنب
##رار
##روسية
##ضر
##طر
##ظمة
##لاك
##لس
##هد
FBI
G7
أيضا
أيفون
إحراق
إسباني
إيرانيين
اسمه
الأوروغواي
الاتهام
الانتخابي
البشري
التظاهرات
الجزيري
الحالية
الحوادث
الحيوية
الرسائل
السريعة
الصقور
الطعن
الفدرالي
المصرفية
بأوكرانيا
بالضربة
بالغاز
بتركيا
بحظر
برعاية
بشبهة
بلاتيني
بنود
تاكسي
تحرش
تخفيضات
تعويض
تغني
تنجو
جهات
حربا
حلبة
سيادة
شريف
غرناطة
غواتيمالا
فحوص
قائدا
قاذفة
قال
كربلاء
لحادث
للتخلي
للطائرات
للمفاوضات
محددة
مسودة
معتقلين
مليونية
نظرة
نفطي
واعدة
واقع
ومكافحة
وهمية
يتيم
يجتمعون
يحرق
يحلق
يختبر
يطرد
ينجح
##أسواق
##ديا
##رمان
##غير
##فيس
##لاند
##يدة
##يكا
59
أعماق
إدخال
اخرين
اس
الإيدز
التسوق
الثانوية
الثقيل
الجبهة
الجندي
الحوثية
الساعات
السياسيين
الصومالي
الطارئ
العاصفة
القدرة
القضائية
المحتمل
المدار
المصلين
الموحدة
الموساد
الموعد
الميداني
النبوي
انتعاش
باكستانيين
بالاس
بعجمان
بلندن
بنزيما
بورتو
تثبيت
تخطف
تيريزا
جاهزة
جنايات
جنوى
حذر
حضرموت
خيبة
رامز
ركلة
سوداء
صيانة
قبر
قندهار
كلية
لأي
لشاب
لطلبة
لقيادة
للرجال
لهذا
مستمر
مستوطنين
ملقا
نسور
نماذج
ويعلن
يدك
يسحب
يعجز
##بت
##تحمل
##داد
##فق
##قب
##قين
##لت
##لندا
##مو
##يط
86
آلي
آنجي
اضطراريا
التقليدية
التمييز
التوجه
الدفاعات
الرقص
الطريقة
الغد
القرصنة
القلبية
القنابل
الكاتب
الكمبيوتر
المؤسسة
المتعلقة
المدرسية
المقاتلين
المقدسة
الملابس
الميت
انقاذ
بأنها
بإعلان
بانتهاك
بسيناء
بلوتو
تباشر
تبرئة
تتويج
تحد
تخضع
تساقط
تستلم
تعاقب
تفاجئ
تكلفة
تيغراي
جاهزية
حاولوا
حرمان
رموز
ستيفن
سقط
عربات
عقدة
عموري
غموض
فاغن
فانكوفر
فاي
كتلة
كسر
لاهاي
لتوريد
لدور
لعنة
لقطاع
للدول
مبابي
مذيعة
مساعي
مسافر
مطلوب
معان
مفوضية
ملياري
منحة
مهم
نائبة
نمر
واسرائيل
وتونس
ويحذر
يتألق
يتهمون
يثبت
يسفر
يصد
يعانون
يكسر
يهود
يوروفيجن
##افر
##الا
##بس
##ريس
##صات
##صم
##عنف
##قار
##كيا
##لن
أسئلة
أغلب
أمكار
أورال
أونروا
استخبارات
الأمر
الأمراء
الأوكرانيين
الاعتداءات
البنية
البيرو
التوقيع
الحصانة
الدعوة
الرعب
الفيدرالي
المباريات
المستوطنين
المعرض
المليون
المنظمة
النسائية
النفسية
الوزاري
الولادة
امتحان
باتخاذ
باستئناف
بطولات
بنصف
بنفسه
تايمز
تبقي
تعذيب
تلتقي
تلسكوب
حوثيا
خيالي
رائع
رعاية
روبوتا
سيلفا
شهيرة
صفة
طالبات
طبيبة
عصر
علاوي
غابات
غانا
غروزني
فالكاو
فهد
فوكوشيما
قطارين
لتمديد
للإرهاب
للإمارات
لنيل
ماء
مبادلة
متابعة
مجرة
محمية
مرتين
مرسوم
مرسيليا
مناقصة
مهمته
موسك
نزلاء
وإيطاليا
والدة
والقاهرة
وميسي
يحافظ
يحاولون
يهدر
يواصلون
##er
##تشي
##حياء
##دته
##رام
##رن
##زرع
##زمة
##فاق
##فل
##كسي
##لته
##وه
##يمة
##يوم
أعمالها
أغويرو
أفغان
إيرلندا
إيفانوفيتش
ابتداء
ابنها
اجل
الإمارة
الادعاء
الارهابية
الاستئناف
التعلم
التعليق
الجدار
الحالة
الحزم
الديربي
العلوم
القطبية
المحتل
المرمى
الموجهة
امتحانات
انتصار
انشاء
بألمانيا
بالأسلحة
بالسلاح
بدل
بريد
بطائرات
بوسطن
بيتكوين
تعالج
تعليمات
تقاطع
تلعفر
تموز
توعية
ثروة
جميرا
حدة
حوض
رغبة
رفضا
سبعة
سوسييداد
صدارته
صديقه
عملياته
فلسطينيون
فورمولا
فيرغسون
قاع
لتفجير
لجوء
لكن
للضغط
للقتال
لموسكو
متطرفة
مستقلة
مقاعد
موغيريني
ميسترال
نيتها
هيكلة
وآخر
وأوروبا
والسلطات
واليونان
وتحذر
يستعين
يعول
يقاضي
##امي
##دول
##ساس
##شاء
##طات
##عر
##كوك
##مه
##ورية
1200
2024
آلة
أرواح
أمان
اكتمال
الأثرية
الإنذار
الانقسام
البطل
البلد
التشيكية
التعذيب
الثامن
السرطانية
الشمسي
العملاقة
القبائل
القبة
المؤقت
المتحركة
المسيحيين
الناتج
النزاعات
انتقالية
بأسلحة
باليرمو
بخفض
بلاغ
بورز
تأهل
تجيز
تحافظ
تشرين
تقبل
تميم
تنذر
تهنئ
ثلجية
جوازات
حدا
حسم
دربي
رشوة
روح
سعوديا
سكة
شهريا
طاقمها
طبيعة
عما
فعالة
فيما
قاعة
قرابة
قطارات
لاعبيه
لسد
لسورية
للإصابة
للعلاج
متشددين
مخلفات
مساع
مستوطنات
مستوياتها
مسيرته
مصابة
مقابر
مقاومة
موفقة
نشوب
هاكرز
والعلوم
وشمال
يصدم
يصنع
يقل
يناشد
##ائب
##ابات
##افات
##بري
##راج
##رغ
##ريد
##شغل
##طف
##عيد
##نان
##يفة
69
آنا
أحزاب
أخبار
إشارات
إشارة
الNBA
الآمنة
الإدارية
الإساءة
الإنقاذ
الاردني
الانفصال
التحليق
التعديلات
التوقعات
الحافلات
السمك
الغولف
الكولومبي
المستجد
المشروع
المعلمين
المهمة
النشامى
باليه
بطريرك
بعرض
بوشهر
تباطؤ
تروي
تستحدث
تفويض
تنصح
توقعاته
حاسوب
حداد
رهائن
زعيمة
ستارت
سلبا
صهر
ضمانات
فرانكفورت
فرع
قابلة
قسم
كائنات
لتغيير
لرصد
لسكان
للتزحلق
مد
مضيفه
مطالبات
معاقل
مندوب
منصات
نظارات
هاتفية
هيكل
واسعا
وجريح
يعتقد
يعفي
##أكل
##تحدث
##دن
##راض
##زال
##شهر
##شيد
##صاب
##فري
##قم
##ميل
##وحة
##وفسكي
170
77
أخيرا
أسد
إيبدو
استجابة
اعتزاله
الإصلاح
الإعاقة
الإنفاق
التايلاندية
التنقيب
التنين
الثلاثية
الجيزة
الحرام
الحية
الرباط
الشعوب
الشيطان
الصباح
الضريبي
العقاري
الغضب
الفاخرة
القنيطرة
القيام
الكبد
المتحف
المدمرة
المشروعات
المشهد
المصرفي
الهوكي
باد
بارتفاع
ببناء
بتفجيرات
بخرق
بضواحي
بعيدة
بمحرك
بهدفين
بوسط
تأسف
تحذيرا
جرح
جهودها
درب
زورق
صعبة
صوب
طفيف
عجلون
عجوز
عطل
غرام
فجر
فريقا
فزاع
فوزنياكي
فولفو
فينغر
كتب
كوسموس
لتأسيس
لتطبيق
لجميع
لشركات
لفترة
لكشف
للاقتصاد
للبنان
للمحكمة
مأهولة
متظاهر
مشاة
مصابي
مفتاح
موسيقي
نوعه
ونتنياهو
ويرفض
ياندكس
يتطلع
يتفق
يستعدون
يقلد
ينتحر
يهودي
يونانية
##C
##اخ
##انو
##جعة
##جون
##حين
##رك
##ضم
##طال
##قال
##قصر
##مياه
##ندي
737
آذار
آماله
أردنيين
أصالة
أطلق
أولويات
إيصال
اسطول
اعتراف
الأحوال
الأخبار
الأنظار
الإيجابية
الاخيرة
التابعة
التشغيل
السري
الصمت
الطائر
الطابق
العريش
العسل
الفرنسيين
الفيزياء
الكتب
الكوريل
المختطفين
المرزوقي
المنتخبات
انتحاريين
بازل
بالمشاركة
بالمنطقة
بحارة
بدعوة
بديلة
بروتون
بعيون
بمواصفات
بنهاية
بيلوسي
تحجب
تستمر
تسرق
تسريع
تغرق
تفجيرين
تقبض
تقدر
تلجأ
تلفزيوني
جوا
جين
جيوكوفيتش
حمى
حيا
رئاسي
رائحة
رفضه
رونالدينيو
سلبي
شرب
صادم
عميل
عودته
فض
فيرير
قراره
قرارها
قطة
كا
كاتدرائية
كاملا
كما
كيريل
لاختبار
لحوم
لقطر
لكوكب
للاعبي
للخروج
لنادي
لنظام
مؤقتة
مسمى
نصيحة
نيران
واحدا
واشتباكات
وسيئول
وصف
يجرد
يصطدم
يطلبون
يقلص
يهددون
##k
##ادق
##بحر
##تاد
##شم
##علن
##كير
##لاء
##لاس
##لب
##ليا
##وج
82
84
92
93
أبخازيا
أطنان
أمنيا
أنغام
إتمام
إي
اجتماعية
الإنتخابات
الايطالي
التزحلق
التشامبيونز
الرعاية
الرمضانية
السلمي
العاشر
القديم
القطار
القيادي
الكراهية
الكمامة
المؤهلة
المارة
المنزلية
النمر
بالاعتداء
بتعزيز
بجرائم
بحاجة
برحيل
بعيدا
بلاد
بلير
بمبادرة
تزال
تسيير
تشكو
تصطدم
تضيء
تعفي
تلتقط
جنوبية
حذاء
خاصية
دستور
دييغو
زيت
سيدان
عملا
غذائي
قديم
كراتشي
لأجل
لاستهداف
لتسليم
للقاعدة
مذهل
مزارع
مزودة
مساحة
مسبقة
مغنية
مما
ممثلي
ممر
مهاجمة
والوضع
وحيد
يدلي
يزال
يقدمون
##E
##T
##إبقاء
##ئين
##ارك
##بح
##بيل
##خطر
##خل
##دير
##ذرية
##روا
##زار
##عرض
##عود
##غان
##قها
##مير
##ودية
##ولات
أمه
إثارة
إنغوشيا
اقليم
الأرصاد
الإنتربول
الاراضي
الاوكرانية
التاسعة
التحول
التقاط
التنفيذية
التوطين
الجهات
الختامي
الخطة
الزهرة
السلط
الشطرنج
الشيشاني
الصورة
الظروف
الظواهري
الفرق
الكرك
الكوكايين
المرتقبة
المصريون
المقيمين
المكرمة
الميركاتو
النقدية
الوثبة
بئر
بانكوك
بدقة
بضرب
بلوغ
بمعاقبة
بيتيس
تبرم
تدرب
تصور
تلتهم
تورونتو
تيفيز
جازان
جولات
حظرا
خيالية
دافوس
دواعش
رقصة
زحل
سانت
ستوك
ستوكهولم
شابين
غزو
فرانس
كوزنيتسوف
كونتي
لأحد
لاجتماع
لاند
لجذب
لحملة
للأسلحة
للإسلام
للتواصل
للهوكي
مؤقت
مريم
مسلمي
معقل
مغلقة
منى
مول
نيبال
نيته
هم
وأذربيجان
واليمن
يجتاح
يعادل
يوثق
##P
##r
##اقي
##الية
##تيك
##حية
##دار
##رسون
##سوف
##سياسة
##صف
##صيل
##ضع
##طل
##طلة
##قام
##لر
##ليل
##مت
##مد
97
أضعاف
استبدال
اقامة
الأب
الإفطار
الابتكار
الاسلام
الانتحاري
التحضيرات
الثمن
الجبل
الجهاز
الحراري
الحراك
الرئيسة
الرهائن
السوريون
الشراعية
الطفلة
الفوضى
القاتلة
القفز
الكائنات
الكبيرة
الوسط
براغ
برمنغهام
بروتوكول
بعلاج
بكفالة
بمحطة
بهاتف
بوجه
تسخر
تصاريح
تعاقده
تقسو
تمطر
توتال
جامعات
حجاج
حجز
حفلا
حوت
خرائط
ربط
رحيله
سيد
سيرغي
سيلتا
شبيه
شوماخر
ضوابط
عزمه
غواصات
فاتورة
فلاشينغ
فنون
قاضية
قياديين
كاماز
لأزمة
لأطفال
لإزالة
لتجاوز
لفوز
للأسد
للمسلمين
للمهاجرين
لما
لمفاوضات
لوزارة
ليزر
ليست
مؤامرة
متوسط
مجالس
مرشحا
مزرعة
مزيدا
مسلحو
مشارف
مقطع
ميدوز
ميشال
نغمة
نيودلهي
هازارد
هدد
والإبعاد
وقفة
ولايات
يواجهون
##X
##إبعاد
##اكب
##تسوية
##تن
##جنود
##حكام
##دع
##دها
##دور
##شينكو
##غي
##فئة
##قاط
##قلق
##قون
##كب
##لها
##يدي
125
2025
450
5G
أصداء
أوزيل
إستونيا
إصابتها
إنكلترا
اتلتيكو
ارتكاب
افتراضي
الأخرى
الأوبرا
الإدمان
الابيض
الاسكندرية
الانسانية
التجوال
التعليمية
التنظيم
الخريف
السبسي
السنغال
الصفر
المخاوف
المدير
المسجدين
المعرفة
بالتحرش
بالسعي
بالموصل
بثلاث
بصعوبة
بكاميرا
بلدات
بمغادرة
تامر
تحكيم
تدل
تزوير
تزيح
تطهير
تعطيل
ثعبان
ثقيلة
جرمان
جلال
جميل
حراسة
سامة
ستاندرد
سراي
سندرلاند
سوفيتية
سيناريو
صوتية
عارية
علاء
عنصرين
عيار
فارس
فيتل
كيلوغراما
لبلاده
لتبادل
لضبط
للأرض
لمنظومة
لميسي
مارتن
محلي
مرتقبة
مشجعي
مطاعم
معارضين
معبد
مغامر
مفاتيح
واي
وداع
وكيل
يؤيدون
يجعل
يسير
يعفو
يغادرون
##ئا
##اور
##بيا
##تقدم
##حام
##حو
##خدم
##صعب
##غور
##ناء
##ودي
##وفو
##ينة
##ينغ
73
أراضيه
أمرا
أمسية
أوغندا
إبرا
إقليمية
إنترنت
ارسال
الإفتاء
الابراهيمي
الانتهاكات
البلدية
البيض
التاسع
التبانة
الجهاد
الداخل
الدراسية
الدوام
الرجاء
العلمي
الفتيات
الفيتو
الكنائس
المتجددة
المجيد
المحمول
المروحية
المصاب
المعروض
الموسيقية
الناشط
انخفاضا
بإسقاط
باستقالة
بالولايات
بحريني
بدأت
بعقوبات
بمقدار
بنفيكا
بيئة
بيشاور
تجميل
تجنيد
ترسم
تسدد
تسونامي
تعرضت
تكاليف
تكسب
تكلف
تهنئة
ثقافة
جولته
جيب
حصان
حلا
حملته
خارجي
دجلة
رسم
روفر
زرع
زوجين
سؤال
سريعة
سياحي
صدامات
صمت
ضوء
غائم
غاضب
غرامات
غلاف
قطاعات
كاتب
كامب
كرسي
لأعمال
لاستكمال
لتحويل
لسرقة
لصناعة
لكوريا
للملك
للموسم
لمنح
مبعوثا
متهمة
مزورة
مطورة
موارد
نشاطها
نفوق
نهج
هدايا
وزيري
يجهز
يخوض
يرقص
يفكر
##خي
##فتي
##ماني
##مور
##هور
##وضع
##ياس
##يرات
آرسنال
آن
أرباحا
أرضي
ألمان
أهل
إهانة
الأرمن
الأطعمة
الإنجليزية
الاحتفالات
البوكمال
التاجي
التشيكي
التقليدي
التنصت
التهاب
التوجيهي
الجمهوريين
الجنيه
الحمرية
الحمض
الحواجز
الدربي
الساحر
السلبي
السلم
الشخصي
العاملة
الفتنة
الكاميرا
المادة
الهواة
الوافدين
الوباء
امتلاك
انسانية
انه
بإيران
بارك
بالجزائر
بتصريحات
بتونس
برازيلية
بسكين
بضربة
بعرقلة
بفرنسا
بمواجهات
بيكهام
تبعات
تتعامل
تحتفظ
تدريجيا
تروج
ترودو
تشكر
تقدمها
تقسيم
تكليف
تكمل
تنعش
تورينو
جنسي
جنين
ساخن
سناب
سنسيناتي
شيكاغو
ضغوط
غاريث
فافرينكا
فيغاس
قرطاج
كاليبر
كريستال
لاتخاذ
لجان
للسينما
للمرحلة
للهواتف
مؤيدي
ماجد
مجالات
محمول
منهم
ناطحة
والقوات
وبايدن
وعلى
وفقا
يتعلق
يرفعون
يلزم
##أمراض
##احات
##راف
##زق
##سيف
##شروط
##صا
##عش
##قمة
##لوف
آلام
أزارينكو
أياكس
إسكندر
إيل
ابنتها
اتصالا
اراضيها
استاد
اشتون
الأدنى
الإقليمي
الانتشار
البريد
التجميل
التعافي
التنفيذي
الثامنة
الجالية
الجعفري
الدعاية
الدقة
الديناصورات
السكنية
الشعور
الغاء
الفنادق
الفيصل
المثالية
المشاهير
المشاورات
المطاعم
المفقودين
انها
بالوقوف
بتطبيق
بحرينية
بطول
تتألق
تتبادلان
تتعاون
تحتل
تحضيرات
تزيل
تغطية
تفاؤل
تفكك
تقدما
تلتزم
تنتزع
توصيل
توظيف
حدودية
دماغ
زوارق
سابقين
سفيرة
سيارتين
سينما
شفيق
صافي
صالة
طعام
عائلية
عابر
عليهم
فائق
فرط
فضية
فوربس
فيديوهات
فيل
كادت
كارداشيان
كريليا
كوستا
لأمريكا
لبنانيين
لتهريب
لثلاثة
للضرب
لمجموعة
لمغادرة
لموسم
لموظفي
مارغيلوف
ماركل
مذكرات
مراحل
مراكش
مرشحين
مسيئة
مشارك
مقرا
مكاتب
هوكي
وأفغانستان
والمغرب
وتطالب
وعباس
وهي
يبتعد
يبتكر
يشمل
يعارض
يعانق
يلتقيان
يلجأ
##R
##m
##آلاف
##ؤ
##ابع
##افية
##بث
##بع
##تعلم
##رتها
##رم
##سطو
##شطة
##شية
##عمة
##فوض
##فى
##مدرب
##ودا
88
أضرار
ألاسكا
أموالا
إبادة
إيجاد
استحداث
الآخر
الأثقال
الأحياء
الإثيوبية
الإسراع
الاستعدادات
البلجيكية
التخلص
التعرف
التلقيح
الجمباز
الحرمين
الرؤية
الركبان
الروماني
الزائد
السياحي
الصغار
الغناء
القمامة
المعاصر
المعركة
المقدس
النورماندي
الهدوء
ايام
بالتخطيط
بالشرق
بالقوة
بتمويل
بروميتش
بشراء
بطاريات
بطرابلس
بيرسي
تتنافس
تحذف
تسمية
تنتخب
تنتقل
حسب
حقيقية
حكام
داعية
دفاعا
دلتا
راتب
روزبرغ
سجنا
شهور
عزمها
غلوناس
فولفسبورغ
قبلة
قوائم
كاساتكينا
لاطلاق
لجهود
للتسوق
للخطر
للسيطرة
للمجلس
للمرأة
مئة
ماكدونالدز
ماليا
متواصلة
مدرسية
مراقبين
مسؤوليتها
مستقل
مصارف
معمر
مفتوحة
مكعب
موالية
ناشطة
نفقات
هدافي
وايران
وتل
وضيفه
وطالبة
يرتدي
يطال
يفضل
ينتخب
ينظر
##اءات
##ائح
##ائر
##اقات
##بحث
##تحرش
##تواصل
##جمع
##جيل
##دال
##صاص
##ضى
##غاثة
##غل
##قع
##قق
##كتب
##مجوهرات
##مري
##مواصفات
##وفي
##وفيتش
##ونة
##يئة
##يي
2023
أهلية
إسماعيل
احتياطات
استثمارية
اعتقاله
الأرباح
الأميرال
الأنشطة
الإعمار
الارض
الاطفال
البدنية
البصر
التبرعات
التوافق
الخارقة
الدماء
الرحمن
السعيد
الصوتية
الضريبة
الضريبية
العدو
العيش
الكروي
اللهجة
المتوقعة
المخاطر
المرتقب
المركزة
المصرف
المناخية
المنتظر
الموقع
انستغرام
اهمية
بالدم
باليستية
برمائية
بوترو
بولونيا
بيضاء
تأخر
تأهب
تجميع
تجهز
تجول
تدحض
تعليم
تغرم
جاهز
جيدة
حذف
حمزة
خصمه
خميس
خيارات
داعشيا
ديالى
روبل
شاحنات
شبوة
شيء
صعوبات
صفر
ضيف
عسكريون
علاقتها
عمران
غلطة
فقد
فيليب
قياديا
كيلومتر
لتصدير
لحفظ
للطي
لنتنياهو
لهزيمة
محرج
مخيمات
مشبوهة
ملحوظ
منتجع
نافذة
نانسي
نفايات
نهيان
هداف
وعدم
وعمان
ومتظاهرين
يانوكوفيتش
يتدخل
يتوصلون
يستهدفون
يطمئن
يغرق
يفتقد
يقف
ينتشر
ينعش
يهنئون
##ئيل
##افع
##اهم
##اول
##بد
##حف
##خط
##خفض
##راع
##ريف
##سلم
##شخص
##ضرب
##طعام
##عاء
##عاب
##غضب
##فض
##كوفا
##نام
##هية
##وشي
##ىء
##يكس
750
أتلتيك
أرملة
أفغانيا
ألبانيا
أنبوب
أنشيلوتي
أواخر
إسترليني
إنها
إيجارية
اتهامه
احتيال
اسلحة
اغلاق
الأمان
الإغاثة
الإماراتيين
الافتراضية
الامنية
الايطالية
التضامن
الجائزة
الحواسب
الرحلة
الشيوعي
الصحراوي
الغامضة
الكربون
المدعي
المصارعة
المغني
اليونيسكو
بإرسال
بافغانستان
بلاي
بلقاء
بمواجهة
تبقى
تحضيرا
تستقطب
تستكمل
تشوركين
تشييد
تعاونية
تعرضها
تفجيري
تواجد
توتي
تيموشينكو
حاجة
حارة
حاولت
حزبه
حصتها
خالية
خام
دراجات
ديبورتيفو
دينارا
دينية
ذروة
رباعي
رسام
سلوك
شحنات
شعلة
صاحبه
ضرائب
عرس
عروس
علو
غريزمان
فئات
فابيوس
فعال
فوزها
قريبة
كانون
كواكب
لبرنامج
لحلف
لشن
لطفل
للتسوية
للخارجية
للسفر
للسوريين
لهاتف
لوحي
لوكاشينكو
لي
مالطا
متاجر
محاور
مدفع
مغني
ممارسات
مولدوفا
نصيب
هاون
هرم
والأزمات
والمتوسطة
وبوتين
وتعلن
وصافة
وغير
وقائية
وليفربول
ويواصل
يختطفون
يخلف
يضمن
##ئل
##ائم
##ادتها
##اعية
##اوة
##اوى
##بق
##بور
##تحول
##توقيت
##حالات
##دى
##ذا
##ذبح
##ربة
##رجل
##رخص
##رميتاج
##ستي
##سلندا
##شى
##طرف
##طفل
##طول
##علم
##قيم
##لتها
##مواد
##ياء
2500
4000
78
83
آمن
أثري
أوديسا
أيار
اصابات
الأصل
الانتقادات
البكتيريا
البلقاء
البولندية
التسلل
التفجيرات
الجماعات
الخطرة
الدموية
الغرق
الفم
القائد
القادسية
القطارات
المتفجرات
المحافظات
المخ
المساس
المستهلك
المشروبات
الموحد
النعيمي
النمساوي
النيجيرية
الوجود
الوظائف
انصار
باردة
بالتدابير
بالجيش
بالصواريخ
بالمثل
بجهود
بدر
بكر
بكلفة
بلينكن
بمنح
بناية
بوند
تخزين
تركمانستان
تشيخوف
تعاونها
تعلنان
تفريق
تنديدا
توازنه
تولي
ثلث
جزءا
جزئي
جماعات
جماهيره
جنبلاط
دائمة
دورته
رانيا
روسيتان
زيكا
زيلينسكي
سانشيز
سلوفينيا
سنجار
شريحة
شريك
صفوفه
عرقلة
فنانين
قرصنة
كارتر
لإسقاط
لإصلاح
لتزويد
لرالي
لقاحها
لقبه
للاحتفال
للبولو
للسياح
للصحة
للغاية
للقرآن
للمسلحين
للموسيقى
لمقاطعة
لويس
ليلي
مئوية
مبكر
متلازمة
مسؤولي
مستوطن
مصراتة
مصريون
مصنعا
مقارنة
ممثلا
منافسه
منزلها
مهامه
ميتشل
نجران
هاما
هجرة
هولندي
وإلى
والإسرائيليين
والدفاع
وحش
ويقتل
يتم
يجمد
يحتجز
يرصدون
يشرح
يصاب
يقترحون
يكثف
يمكنها
يهرب
يوزع
##ائع
##ائهم
##افين
##امن
##توقف
##جاب
##حجر
##حرق
##خرج
##ديل
##رسوم
##روع
##رير
##زر
##زع
##صنع
##فاف
##فال
##فصائل
##قارب
##قاوم
##لندي
##لول
##لينا
##مكان
##نته
98
أسبوعا
أسنان
ألفي
إجمالي
إطفاء
إفطار
احتفاء
احتياجات
الأجرة
الأسباب
الأيمن
الإبداع
الابن
الالكترونية
الباردة
البحار
البيتكوين
التام
التوحد
الحبتور
الحسابات
الرافدين
السيد
الطفولة
القروض
الكواكب
المتورطين
المدرسي
المدفعية
المضافة
ايرانية
بأسرع
باقة
باللقب
باولو
بتفجيرين
بسداد
بمقاطعة
بنيويورك
بواشنطن
بيري
تتواصل
تجار
تحميل
تشجع
تطعن
تهديدا
تورسونوف
توقعاتها
جنوده
حفلات
حمام
دراغون
رائدة
سريان
سكك
سلاحا
سماعة
شقيقه
طواف
عائمة
عمومية
قصيرة
كوالالمبور
لاجراء
لتوزيع
لعمليات
لقتل
للبيئة
للشحن
للطفل
للقذافي
لمقتل
لوبيز
ليوم
مبادئ
مثل
مجاني
مزيفة
مسجدا
مصارعة
منافذ
مونتريال
ميداني
ناري
هزت
هلمند
والعالم
والمقيمين
وتعتقل
وغزة
يبكي
يتمنى
يرسم
يشترط
يصطاد
ينجز
##ئق
##ائف
##بطل
##تام
##تسبب
##ثار
##حضر
##حلال
##شن
##صارع
##صرة
##صغر
##ضابط
##ضخ
##عتها
##عمل
##فوعة
##قالة
##قامة
##قان
##قذ
##قه
##قود
##كاد
##مام
##معدات
##واء
##وخة
##يار
أتلانتا
أطلقت
أغذية
أهدافا
أيلول
إتلاف
إنجازات
إيبار
ازاء
استجواب
اعضاء
الأعضاء
الإمدادات
الاسبوع
البلاستيكية
التداول
الجمركي
الجوجيتسو
الخمسين
الرواتب
الزهايمر
الصينيين
الطويل
القطط
اللواء
المالديف
المجالات
المسرحي
المشي
المعدة
المناخي
الموسيقي
الميدان
ام
بأمر
بأي
بالإمارات
بالنسبة
ببرونزية
بخطة
بكتيريا
بلس
بيك
بيكيه
تأخير
تبرئ
تتغلب
تضررا
تطارد
تطلقان
تفعل
تمرد
ثوران
جونز
حبة
خفية
دولا
رئيسها
سكايب
سليم
سوانزي
سويدية
سينمائي
شات
شروطا
شمس
صديق
طرف
عينات
غاضبة
غورباتشوف
فوستوتشني
فيتيل
قمع
قوارب
كبسولة
لأكبر
لتنمية
لشؤون
لصوص
لطائرات
لعب
للآداب
للأكراد
للتعاقد
للتوصل
للسرطان
للماسترز
للوصول
لمدينة
محاكاة
محتجزين
مخابرات
مخدرة
مشتبها
معمل
مواصلات
هجينة
وصفة
وظريف
وكندا
ومحتجين
ياسر
يجتاز
يحاكي
يسرقون
يعطي
يمكنه
يناهز
##ائد
##بارك
##بدو
##ترك
##تفاعل
##تيان
##ثات
##ثي
##جمال
##حمل
##روسي
##روفا
##سوق
##شهادة
##شيا
##ضحية
##طرق
##عزل
##عمال
##فيد
##قف
##كيك
##ملة
##منة
##ميز
##نر
##نيوم
##وسة
##وط
##ومي
##ونيا
81
94
iOS
آر
أبابا
أصيب
ألوان
أنفسهم
أولا
ابطال
استنفار
الأعيان
الأميركيين
الأوائل
الإتحاد
الاتجار
الاعلان
التدابير
التقرير
التوترات
الخفافيش
الراغبين
الصربية
الطيارين
العقابية
الغلاف
الفتح
القوية
الكترونية
اللازمة
المايسترو
المتشددين
المثير
المحاكم
المسيحية
المصادقة
المعايير
المهام
الناشئين
النفسي
انطلاقة
بأزمة
بأصواتهم
بتأجيل
بتوفير
بجمهورية
بنقطة
بهوكي
تؤسس
تتزود
تتوقف
تحرق
تحطيم
تذكر
تزعم
تطبيقها
تغطي
تمهل
تنتشر
تنظيف
تنفيذي
خاطئة
دموية
ديناصور
ذبح
ذهاب
رئيسية
روسيتين
زي
سات
سجل
سخرية
سويسرية
سياسات
شرطا
شيخون
شيرين
صينيين
ضده
طعنا
عارمة
عزاء
فتوى
فلويد
فور
فولكسفاغن
فيرونا
فيستا
قتلوا
قمرين
كثيف
كرديا
كروية
لأجهزة
لإجلاء
لتلقي
لحظر
لدمشق
للاتصالات
متطرفين
متفجرات
مجوهرات
مخصصة
مركب
مصيدة
معروف
معقله
موعدها
هربا
وإسبانيا
والأخير
وتهدد
وجوه
وعدد
وكيم
يتجول
يتفقون
يتوقعون
يضبط
يطور
يعتدون
##p
##آمال
##أسر
##ئد
##ئع
##ادر
##اكس
##ترويج
##تية
##جز
##حصيلة
##حض
##رتكب
##رتين
##رى
##زواج
##زيل
##صورة
##ضان
##عت
##عن
##غالي
##فار
##قراءة
##قطع
##لاف
##لحة
##لوم
##مح
##يلية
أبين
أداة
أدوات
ألونسو
أمميا
أوسكار
أية
إضافة
إعلانات
احتفالية
استثناء
الأمد
الأوبئة
الاستجابة
الاستمرار
الاعتماد
الامتحانات
الانباء
الانتهاء
التغيير
الجزائريين
الجنرال
الجورجي
الديوك
الذئاب
الزراعي
الشأن
الشاشة
الشخص
الشرف
الضالع
العداء
الكلاسيكية
الليلي
المأهولة
المرموم
المزاد
المسبار
المفقود
المنصوري
الموافقة
الوساطة
الولاء
بأداء
بأكبر
بالسودان
بالضرب
بالمؤبد
بتغيير
بحبس
برفقة
بشاشة
بعقوبة
بفضية
بلدا
بمشروع
بندقية
بولت
بيجي
تأييدا
تجرد
تحاكم
تركيين
تشيع
تضمن
تعاطي
تقييد
تكسر
تلقيه
تماما
تنقض
حاسمة
حدائق
خلق
راسموسن
سبورت
سبيربنك
سلطة
سوفيتوف
سويدي
سينسيناتي
شارلستون
شيفروليه
ضريح
عراك
عنق
عواصف
عيسى
غد
غريفيث
فنانون
قبلية
قضى
قلة
كوستاريكا
لإعلان
لتوقيع
لسقوط
لشهر
لكسر
للإعلام
للتزلج
للنبي
لمحاولة
لمعركة
لنمو
ليوناردو
محدودة
محقق
مراسلة
مرصد
مستفيد
مسن
مشهورة
معالم
مغامرة
مفيدة
ملهى
موديرنا
والسداسية
والسيسي
والشرق
وبيلاروس
وجبات
وروحاني
ونجاة
يتمسك
يحصلون
يخترقون
يدرسون
يستفيدون
يعتلي
يكتفي
##g
##اجم
##اعد
##افا
##اندو
##باس
##باني
##بيانات
##بيه
##تاح
##تز
##تطور
##تظر
##تلاف
##ثية
##جاهزية
##جح
##دائه
##ربع
##سجن
##سحب
##سكان
##سور
##شب
##طان
##طعن
##طلاق
##ظور
##قول
##قوى
##كت
##لتين
##متابعة
##مساعدات
##مضي
##نائي
##نيت
##هرب
##هيب
##ورت
##ولين
##يلي
87
96
آسيويين
أند
أوروبيا
أوف
إباحية
إنترميلان
اخرى
اعترافات
الآلي
الأرجنتينية
الأصول
الأغوار
الإشارة
الإقلاع
الافغاني
الالكتروني
البلاستيك
التانغو
التجزئة
التحدي
الحذر
الحلف
الخيول
الدهس
الديمقراطيين
الرياح
السيادي
الطبيب
العائدين
العضوية
العمرة
الفقراء
القديس
المبنى
المتضررة
المتعددة
المحتملة
المشجعين
الورقية
امريكيين
بأحد
بؤرة
بالإكراه
بالانسحاب
بالوتيلي
بانتخابات
بحلة
بسيارته
بشعة
بقطاع
بنية
بورسعيد
تتولى
تحارب
تحليل
تخترق
ترسيم
تسديد
تسهيل
تغيب
تقع
تلاميذ
تلتحم
تنزانيا
تيري
تيم
جثامين
جليدي
حبوب
دمج
ذرية
ذكاء
رادفانسكا
رحلته
زعيما
ساحق
ستكون
سرايا
سمير
سور
سياحة
سينوفارم
شاعر
شاومي
طريفة
علاقته
عوامل
غطاء
غولف
فرضية
قابوس
لاجئا
لافتتاح
لتصنيع
لحماس
لشبونة
لصواريخ
للخدمات
للخيول
للناشئين
مازدا
مبلغ
مجنونة
مدمر
مديرة
مرتبط
مزايا
مستقبلية
مغبة
ناشئة
نص
هاتفك
وإثيوبيا
وجوبا
وعد
ويعزز
يترشح
يحيل
يشكو
##ائتلاف
##ازات
##اضح
##اعة
##اهية
##بشر
##بير
##تات
##تح
##تحدي
##تد
##ترا
##تصفية
##تطهير
##تميز
##حسن
##دج
##روبل
##ريان
##ريق
##سهم
##شارات
##شرب
##شعة
##صي
##طرح
##ظر
##غذية
##غني
##فور
##قرار
##كرس
##مبياد
##هين
##واب
91
آسوس
أديس
أساسية
أمتار
أميركيين
إمارة
إنريكي
إنفانتينو
ابو
احمدي
استلام
استهلاك
الأحلام
الأفريقي
الأفغان
الأقصر
الأوراسي
الإسعاف
الإقليم
الامتناع
البديل
البيلاروسية
التحام
التحريض
التقنيات
الجاز
الحسن
الحلوة
الدقيقة
الدهون
الديني
الذعر
السادات
السينمائية
الشائعات
الصحف
الطائفية
الظهور
العسكريون
الفوتوغرافية
القابضة
اللقطات
اللوفر
المخصصة
المفاجئ
المكتب
المواهب
الوعي
اندونيسيا
انقسام
بالأرض
بباريس
بتمديد
بداغستان
بكل
بوغبا
تبث
تستطيع
تسمم
تسهم
تعرقل
تعطي
تفصل
تقلل
تلقى
تمثل
تيران
ثانيا
جاذبية
جاسم
جيلا
داون
دخل
دستورية
دوريات
رحلتها
رغبته
سانتياغو
ساوثهامبتون
شاليط
شكوك
شهداء
صاحبة
ضابطا
طابعة
عائلته
عدنان
علاجا
عمق
غاغارين
فوضى
قبة
قلوب
كوبنهاغن
لاكتشاف
لامرأة
للأعمال
للسيسي
للقدس
للمسافرين
للنازحين
مان
مثيرا
مقدمة
ميشيل
نخيل
نموذجا
هاواي
هز
والزمالك
وبرلين
وبروكسل
وزن
وفي
وكازاخستان
ويصف
ويعود
يأسف
يتوقف
يخفف
يزورون
يصممون
يصوتون
يناقشون
##أعضاء
##بداية
##بض
##بن
##تأخر
##تجار
##ترشح
##تعافي
##تنفس
##تهديد
##حذر
##حرس
##حزاب
##خسارة
##دارية
##دب
##دريس
##دفع
##دوار
##ذج
##ذف
##ذي
##راس
##زوجة
##سيارة
##صري
##ضات
##ضعف
##ضوع
##طم
##ظار
##عمى
##غرب
##غناء
##فد
##فيتش
##فيف
##قاد
##قضاء
##كه
##لاوي
##لندية
##موافقة
##نه
##هيل
230
G20
أبراج
أصبح
احترازية
الأرمني
الأورام
الإمام
الاستفادة
الافريقية
الاوضاع
البارالمبية
البريطانيون
البشرة
الثماني
الجوائز
الحريق
الحلم
الحي
الحيوان
الدرونات
الرباعي
السفيرة
السمراء
الشفاء
الصف
الصناعات
الطويلة
العيون
الغنوشي
الفلبيني
الفيروسات
القامشلي
المجر
المحيطات
المكسيكية
المولد
الميدالية
النشر
النهار
الوعرة
ايبولا
ايفانوفيتش
باحث
باستمرار
بالإجماع
بالماس
بالهجوم
بدير
بقانون
بقدرات
بقدم
بقذائف
بكارثة
بلجيكي
بوفون
بيئية
تبرعات
تحاصر
تزداد
تغريدات
تلحق
تلفزيون
تنشيط
توت
ثمانية
جاره
جنائية
خسائره
داريا
ديانا
رقمي
ستيشن
سقطت
سلمية
سيؤول
شاكر
شخصيا
صادراتها
عادات
عنخ
عنوان
غال
فادحة
فولغا
فيكتوريا
قتلة
كابيلو
كاكا
كلاب
كواليس
كوبيه
كيلومترا
لإصدار
لاقتحام
لحرب
لسان
لسداد
لعزل
لكوفيد
للفنان
للمركز
للوفيات
لمواقع
لينين
ماسك
متطور
معتقلا
منخفض
مولر
ميخائيل
ناقوس
نجله
نسب
نوم
والتعليم
وصنافير
وكالات
ويبتعد
يستخدمون
يستقر
يسود
يصنعون
يفضح
يلقى
##BC
##V
##on
##أخذ
##أفراد
##ألعاب
##إقرار
##اتشي
##ادات
##اغتصاب
##اوات
##تجارب
##تصعيد
##توغل
##جيد
##حاب
##حاضر
##حالة
##خان
##ذهب
##رؤساء
##رواح
##زرق
##سكايا
##سوء
##سيم
##شؤون
##شان
##شيخ
##طاف
##طلاع
##عربي
##علماء
##عمق
##غال
##فذ
##فقة
##فه
##قفز
##ليك
##موس
##نح
##نص
##هدف
##واي
##وبا
##وبي
##وسائل
##يسي
أثرياء
أرجنتيني
أطلقه
أنجلينا
أوروبيين
أولية
إينوك
اب
احداث
احدى
اشتعال
افتراضيا
الأشغال
الإيقاف
الاسرائيليين
التزاماتها
الجريح
الجلسة
الجمركية
الجوار
الجوع
الحامل
السنوات
الشبح
الطاقم
الظلام
العالقة
العديد
العشر
العقود
الغارة
الفترة
القطاعات
الليزر
المبحوح
المسلح
المسيئة
المطورة
الناصر
الهاكرز
الهول
انديان
بإنهاء
بارزة
بالانقراض
باير
بحمص
بسوق
بعمليات
تتجسس
تجاوزت
تجتاز
تسوق
تقدمه
تملك
تنفق
تورد
توصل
توطين
ثقافي
حفر
خادم
خلفان
خيار
خيانة
دل
دموع
دميتري
رعب
روبرت
رياضيا
رياضيين
سار
سريعا
سكودا
شتاينماير
صفحات
طال
طبق
طنطاوي
عطاء
فرسان
فضائح
قداس
كابريو
كنائس
كيربر
لإصابة
لاستكشاف
لتسجيل
لكزس
للاعب
للامم
للمستثمرين
للمصالحة
للوزراء
لمرض
لينوفو
مأزق
مادونا
مانديلا
متفائل
مثيل
محام
مستحقات
مستخدم
مسلمو
مسلمين
مكسيكية
ممتلكات
موتورز
موتورولا
موغابي
موغوروزا
موقعه
ميتسوبيشي
نازح
نوعا
هاغل
هوكينغ
هولندية
واثق
ويضع
يبرر
يختارون
يلاحق
##10
##ئط
##ئف
##ابية
##ازة
##اسبة
##افد
##بب
##بلدان
##تحضير
##تفوق
##توزيع
##ثأر
##حول
##دمان
##راق
##ريب
##ريت
##ساق
##سعر
##شك
##صفح
##طب
##طون
##ظمات
##ظهر
##ظهور
##عبة
##عسكر
##علام
##عمار
##غاء
##فتاة
##فته
##فرح
##قمر
##مراقبة
##نائية
##هار
##ورات
##وسي
##ولوجي
##يمي
##يوس
106
Xiaomi
آشتون
آيا
أعماله
أوبل
أولوية
إبرام
إنذارا
إنفلونزا
احتياطي
استرليني
اسلام
اقتصاديا
الأربعة
الأوزبكي
الإسلاميين
الاعتقال
البوليساريو
التحرك
الترجيح
التزامه
التهم
الجبرية
الجفاف
الحادث
الحارة
الحذاء
الخبز
السابقين
الصعبة
الطارئة
العروبة
العقل
الفارق
القرغيزية
القسم
القصوى
القصير
القصيرة
القطيف
المبيعات
المحاكمة
المعابر
المعدلة
المفاصل
النادرة
النحل
النقض
امنية
بالمركز
بتدابير
بتوقيع
بسلام
بصحة
بمحيط
بمسابقة
بنتيجة
بيجو
تراث
تراجعا
تركيب
تسبق
تشبه
تشرع
تصد
تصنف
تعامل
تمثيل
تنعى
تهدم
تهوي
تودعان
توصية
حصد
حقيقي
حواجز
حيازة
درسا
درنة
ديوا
ديونها
رافعة
رجلين
ردة
رسوما
رقابة
روسيان
زوكربيرغ
سفينتين
سلع
شاركوا
شمل
صوتي
صيفية
طلاق
طيارين
ظهرت
عبدالعزيز
عجلة
عزم
عصابات
عملاء
عهده
غاراته
غالب
غولدن
قميصه
لأمير
لافت
لطلب
لفلسطين
للاعتراف
للسلع
للشمس
للفن
للهجوم
مجنحة
محج
مخططات
مداهمة
مدخل
مسابقات
مستقبله
مستقرة
مصافحة
مصانع
مصورة
مهدي
موبيل
مودريتش
موقعها
مومياء
ميت
نجمه
نو
هيغواين
وأربيل
واعتقالات
وال
والأمم
والتحالف
والسبب
والعدالة
والغرامة
وثائقي
وجودها
وليام
ومسلحي
ويتهم
ويكشف
يبث
يتبادلان
يحجز
يحرج
يذكر
يصر
يضيف
يعطل
يغلقون
يمنيا
ينتقدون
ينفون
##G
##أدوية
##أسهم
##ئلة
##ئهم
##الون
##تبني
##تحقق
##تسجيل
##تصدر
##تطوير
##تع
##تعرض
##تفتيش
##تكنولوجيا
##تنازل
##تيار
##ثاث
##ثل
##جاد
##حار
##حدث
##خليج
##خور
##داري
##ذهل
##رث
##زام
##ستاني
##شرف
##صرف
##طباء
##عقاب
##عمر
##عها
##غسل
##فترس
##فس
##فيل
##قاعدة
##قتها
##قضية
##قيادات
##قياس
##لاح
##لز
##ليغ
##ليف
##وجه
##وقات
##ويا
##يانا
##ينتين
1300
أسامة
أسبوعيا
أشد
أفتوفاز
ألزهايمر
ألغام
أمستردام
إبقاء
إذاعة
إرهاب
إقليميا
اكبر
الآخرين
الأقوى
الإسماعيلي
الاختبارات
البيع
البيلاروسي
التلفزيونية
الجماعة
الحشرات
الحليب
الذيد
الرزاز
الروسيان
الروسيتان
الزفاف
الشاطئ
الشديد
الصحفية
الصرف
الضغوط
الطبقة
العراقيون
الفئة
الفعاليات
الكيماوي
المتضررين
المكلف
الموتى
الوحيدة
انكماش
باجراء
بالتورط
بالطائرة
بتعديل
بتهريب
بجامعة
بسباعية
بضائع
بموقف
بوريس
بيوت
تجذب
تخفي
تذكاري
تريكة
تعتدي
تعديلا
تلميذ
توصيات
جوني
جيبوتي
حريقا
حصاد
حلقة
حواسب
خطيرا
خفايا
رائدا
ربما
رجلي
زين
ساعد
سحرية
سكانها
شاهين
شعب
شكاوى
شهرة
طفلها
عاملة
عجرم
عجلات
عدسات
عينة
غابة
فتاكة
قتال
كائن
كارثية
كروز
كنوز
لأعلى
لتحديث
لتسريع
لتصفيات
لجامعة
لرونالدو
لسوق
لطرد
لعدد
لغات
لقاحا
لقانون
لل
للتجسس
للتطعيم
للجميع
للنقل
لمنطقة
لهيئة
مذيع
مزيج
معادية
معجزة
مفخختين
موجهة
نوويا
هلال
وإطلاق
ودي
ورجال
وسقوط
وشيك
وفتح
وميغان
ويتعهد
ويصعد
يدلون
ينقذون
يهيمن
##B
##أة
##أشعة
##إعفاء
##اءة
##اخر
##ارع
##بابا
##باط
##برغ
##تتاح
##تحف
##تخصيب
##تدريب
##تزوير
##تصرف
##تكثيف
##توقيف
##جماعات
##جيه
##حرف
##حفل
##خراج
##خلد
##خنق
##راد
##رتبة
##رقة
##زعيم
##زمات
##سرة
##سف
##شاب
##شبكة
##شع
##شغال
##شهد
##صالات
##صيف
##ضبط
##غون
##فز
##فيت
##قاتل
##قبض
##قيادة
##ليغا
##مبادرات
##متها
##مخدرات
##مروحيات
##مستقبل
##وء
##وما
154
79
iPhone
أبها
أرخص
أرضا
أطلقتها
أميرة
أهدافه
إدمان
إرشادات
ارهابي
اطار
اعتزال
الأفريقية
الأهلية
الإضراب
الإنزال
الاحتباس
الاحمر
الانهيار
البادية
البطاطا
التتابع
التجربة
التذاكر
التمثيل
التميمي
التونسيين
الجناح
الحاجة
الحلال
الخطيرة
الدب
الدجاج
الرأي
الرحيم
الروك
السيستاني
الشعلة
الصفقة
الضباط
الطباعة
العبارة
العشرة
العقد
العقوبة
العميد
الغزيرة
الفدرالية
القبرصي
الكلى
الكوارث
المثيرة
المحافظة
المخزونات
المضادات
المعارضين
الوعر
الوقف
انتقاد
باسطنبول
بالمجلس
بتشديد
بسباق
بسيط
بفلسطين
بمرور
بملايين
بنس
بنكهة
بوردو
بولندي
تأييده
تتارستان
تتوسع
تحشد
تساهم
تطلع
تمكن
تمكين
ثورية
جاك
حاسبا
حاملا
حجاب
حدادا
حر
حرقا
حمدوك
خاتشانوف
داكار
داود
دماغية
دوتيرتي
زملائه
سائحا
ستواصل
سقوطه
سمك
سنا
شارك
شعبان
طائفية
طفرة
طوال
عمالقة
غباغبو
قبائل
قصير
قطبي
كتابة
كرنفال
كوتينيو
كير
كيلوغرام
لاسلكية
لتوحيد
لجماهير
لخلافة
لطيفة
لعرض
لقطة
لمانشستر
لمحاكمة
ليل
مؤخرا
ماتيس
مارك
مخططا
مسؤوليته
معتدلة
ملاكم
مناسك
مهرجانا
مهندسون
مواهب
مونشنغلادباخ
نيابية
نيكاراغوا
هالك
وإغلاق
وادا
والغرب
ورد
ورم
وصل
وما
ومانشستر
ومصرع
ويثير
ويصيب
ويهدد
يتدرب
يتلقون
يتوجهون
يجسد
يحتوي
يستطيع
يشل
يفكك
يفوزون
يقتنص
##N
##O
##أجمل
##أس
##أغنية
##ألف
##اعتداء
##اقتصاد
##بحوث
##تاج
##تجديد
##تداول
##تسليح
##تصل
##تطلب
##تغير
##توسط
##ثرة
##جرم
##حال
##خفي
##دعاء
##دهار
##دوي
##ذات
##راحة
##ربي
##رجاء
##ردي
##زياء
##ساحل
##ستة
##شاط
##شرع
##صان
##صحف
##صرية
##صناعة
##ضيف
##عصاب
##فعاليات
##قائد
##قاتلة
##قبال
##لكي
##لمة
##مدينة
##مرة
##مفاوضات
##وذ
##وفة
##يث
##يشيا
115
آمون
أبحاث
أبيي
أدى
أرماتا
أزارينكا
أزمات
أمريكيتين
أنصاره
أوساسونا
إشعار
إعجاب
إيرانيون
اتساع
اشهر
اعتذار
اغتياله
اقتصادها
الأمعاء
الإصلاحات
الإندونيسية
الاستهلاكية
الانتصار
البطاقة
البطولات
التفكير
التوقف
الجمارك
الحاكمة
الحويجة
الخرف
الدموي
السائق
السكك
السيلفي
الصخري
الصينيون
العبور
العظام
الغامض
الغردقة
الفحم
الفعل
الكوبي
المحتجزة
المحتوى
المحدد
المزعوم
المستدامة
المسلحون
المطالبة
المطلوبين
المفتوح
المهاجم
النبي
الوثائق
الوزارية
امن
انتفاضة
بألوان
بأمريكا
بالأعمال
بالجملة
بالحكم
بالرئيس
بالعقوبات
بالكشف
بالمئة
بالمرحلة
بتعويض
بجهاز
بصفقة
بلغراد
بمنظومة
بنز
بنفسها
بنيجيريا
بيبي
تتربع
تجاريا
تجاهل
تسهل
تشريعية
تفضح
تكذب
تهدئة
توأم
جاسوس
جيشها
حار
حضارة
حليب
حين
خصوصية
خليل
ذوبان
رضيع
روبلا
رولاند
سائقي
سجنه
سيرك
سيناريوهات
شباط
صاعقة
صالحي
صيغة
صينيون
عشاء
عقارية
غرف
فاعلية
فرنسيا
فندقية
فولهام
قائدها
قبيلة
كافاني
كلوني
لأم
لتشديد
لتونس
لرواد
لعمل
لقطع
للتوعية
للجو
للذهب
للشرق
لليونان
لمسابقة
ليما
مباراته
متجهة
متطرفون
مخزن
مدغشقر
مشروبات
مغلوب
مقتدى
مقترحا
مكالمات
مكسيكي
منتجاتها
موسمه
ناسداك
نسخ
نويل
هجومية
وإلغاء
والتكنولوجيا
والدولية
وتتهم
ودبي
ورفع
وطن
ولوغانسك
ومجلس
وهولاند
ويقول
يبرئ
يبقى
يتدربون
يتنافسون
يحظى
يزود
يستقطب
يستمر
يصعق
يطل
يعرف
يعرقل
يونس
##I
##x
##ارت
##اردو
##الم
##بذل
##بك
##بورصة
##بيد
##تدهور
##تراك
##ترف
##تكامل
##تلاعب
##جاع
##خابات
##خلع
##خن
##دام
##دز
##ذن
##رته
##زف
##زول
##ستغرق
##ستون
##سلطة
##سوس
##سيء
##شتري
##شعر
##شف
##طباق
##طوق
##عقود
##عمدة
##غنى
##قائه
##قاضي
##قرب
##قصاء
##قوي
##كثر
##كور
##لام
##لوا
##ليم
##متحان
##هج
##هرة
##وها
##يتهم
##يغا
220
آراء
آيدكس
أسلحتها
أعياد
أنقاض
الأساسي
الأسطوري
الأعياد
الأغلى
الأقباط
الألوان
الإطاحة
الاجراءات
الاجنبية
البترول
التراجع
التشريعي
التغذية
التغير
التلاعب
الحجز
الحكام
الخصوصية
الخلافة
الخيانة
الداعية
الرومانية
السامبا
السقوط
السودانيين
الشبكة
الصوتي
الضبعة
الطلق
العنكبوت
الفحوص
الفرصة
الفقيرة
القرنة
القواعد
القومية
الكارثة
الكردي
الكروية
الكعبة
المترو
المجهول
المذنب
المقبلين
المواصلات
النخبة
النقب
النكبة
الوثب
الوجبات
الوزير
الوقائية
انحسار
بإسرائيل
بالبشر
ببرنامج
بتطوير
بمركز
بمسجد
بمصنع
بموجب
تتوصل
تدق
تستنفر
تشارلز
تصوت
تغيرات
تكبد
تكريما
تنازلات
ثقافية
ثنائي
جاء
حساسة
حكاية
خاتم
خسائرها
خفافيش
خيمكي
راية
سامبدوريا
سماعات
سهم
سويسري
سيول
شائع
شاختيور
شهود
صهريج
طائرتها
عائشة
عبدالرحمن
عريس
عفوا
غاغا
غضبه
فحوصات
فرنسيون
فياض
فيكتور
فيلق
قابل
قضائيا
قيمته
كالياري
كتابا
كمال
كوميدي
لأنه
لاتحاد
لاعتداء
لبعض
لذكرى
لسبب
لصندوق
لقناة
للأمير
للإرهابيين
للاتفاق
للتصويت
للتظاهر
للتنقيب
للحزب
للعاملين
للقمة
للمحاكمة
لهواتف
لون
ليبيين
ليغانيس
ماني
مراهقة
مساعداتها
مشتركا
مغامرات
مفقود
مفقودا
مقاضاة
مكتبا
مليحة
مهامها
ناشطين
نايف
نجما
نفسية
هايلي
وإعادة
والمحيط
وترفض
وحلب
ورطة
وشيكة
وطالبان
وكييف
يحتضن
يدرب
يدعي
يزعم
يطلقان
يعزون
يعيدون
يفيموفا
يكذب
ينتخبون
ينتصر
يهاتف
يهوي
##ia
##u
##ارقة
##ارين
##ازي
##انج
##بلوغ
##بيريا
##بيك
##تذكر
##تراتيجية
##تراطات
##ترحيل
##تسول
##تعاطي
##تعة
##تعقب
##تقرار
##توجه
##جدية
##جلطة
##جهات
##حاكم
##حرك
##خلية
##خمسة
##خوف
##راغ
##راهن
##ربا
##رها
##روض
##ريح
##ساوي
##ستين
##سكا
##شعال
##شيش
##صادر
##صام
##صية
##ضرة
##ضلة
##طاء
##طق
##طيران
##عاصير
##عث
##عرب
##عسكريين
##غطس
##فيديف
##قاتلات
##قاسم
##قرة
##قطاع
##قوارب
##كوم
##كينا
##لال
##مؤسسات
##مشاريع
##مها
##هدم
##وصول
##وفد
##يتا
##يزي
3D
آسيان
آمالها
أتاتورك
أجسام
أخيرة
أديب
أساليب
أسبوعية
أقارب
ألافيس
أمس
أنا
أنغارا
إثبات
اتهامها
ارتباط
اطفال
الأداء
الأديان
الأرثوذكسية
الأشهر
الإمبراطور
الإنكليزية
الاستثماري
الالمانية
التخابر
التشكيلي
التعاملات
التغيرات
الجزر
الجودو
الحالات
الحسم
الحلقة
الخمسة
الدار
الرئة
السلالة
السيول
الشخصيات
العالية
العامري
العزاء
الغموض
الكرواتي
الكلب
المتطرفة
المجمدة
المفروض
النمساوية
الوهمية
اليهودي
اليوفي
انتقاله
انشقاق
بإنتاج
بالأردن
بالعين
بتعليق
بجولة
بدعوى
براون
برمجيات
برنابيو
بغير
بكشف
بمحاسبة
تتمسك
تسحق
تشافي
تشخيص
تطمح
تمسكها
تمييز
جدية
جويا
حجة
حصرية
حميد
حيوية
خالفت
خامسة
خشية
ذكريات
راؤول
راقصة
رخص
رصاصة
رويس
ريبيري
سائقا
سطو
شتاء
صد
عادية
عاليا
عثر
عقلية
عناصرها
غلق
فيصل
قاتلا
قدراتها
قضاة
قنصلية
كالينينغراد
كرم
كمامة
كهرذرية
كين
لأوباما
لإصابات
لاما
لتدمير
لتعديل
لتعليم
لتقليص
لتقييم
لتولي
لرجل
لفيلم
للاستفادة
للانسحاب
للعيش
لمركبة
مأدبا
مؤيد
ماك
مبتكر
متكاملة
مراقب
مرشحي
مرعب
مريضة
مزدوجة
مستقبلا
مسح
مسروقة
مسنة
مشفى
مطر
مهاراته
مواطنيه
موجات
ناقلات
نظارة
نقطتين
هيوستن
والأخيرة
والشارقة
والمعرفة
وبدء
وبغداد
وتتأهل
وتكشف
وصلت
وطوكيو
وفنزويلا
وقوف
ولم
ومنظمة
ويتصدر
ويشيد
يجذب
يخاطب
يسعون
يعدل
يفرجون
يفرق
يمهد
ينجحون
ينشرون
ينمو
##أمن
##أهداف
##ابا
##ابيع
##ازمة
##استعداد
##اسو
##امتناع
##ايل
##بتها
##بدد
##برز
##بعة
##بيين
##تاب
##تاحة
##تجنيد
##تحرك
##تعليق
##تعيين
##تف
##تنافس
##تهريب
##تيل
##جوب
##جولة
##حمد
##خا
##خبراء
##ختطف
##خوان
##دتها
##رؤية
##رابطة
##رود
##زيد
##سبورغ
##سلة
##سياد
##شاحنة
##شرة
##شرعية
##صيب
##ضاع
##ظات
##ظاهرة
##عادل
##عل
##غتصب
##قذف
##كبر
##كشف
##كوفيتش
##لص
##ليات
##مج
##مجة
##مخابرات
##مواقع
##نحت
##نكر
##نها
##هجمات
##هير
##واقم
##واني
##وزارة
##ونه
##يحة
##يران
##يلد
##ينات
107
2003
أرقاما
أصبحت
أفغانية
أنف
أوائل
إزاحة
إنجليزي
إندونيسية
اجهزة
ادارة
اسمها
اضطراب
اقتراحات
الأذان
الأضاحي
الاتفاقية
الاستعراض
الاستماع
الاعتزال
البعض
البلقان
التخفيضات
التدخلات
الترخيص
التسلح
التعرض
التلوث
التمهيدية
التنقل
الجاذبية
الجبلية
الجذعية
الجزاء
الجميل
الذهاب
الزجاجة
السعوديات
الشرعيين
الشهيد
الشيشانية
العروش
الفرص
القرى
القضبان
القطريين
الكنغر
اللجان
اللون
الليكود
المائي
المالكة
المان
المرشحة
المسائل
المستشار
المشاة
الناشطة
النوع
الهاشمية
امرأتين
انقراض
بأجهزة
بائع
باكستانيا
بالإجراءات
بالفجيرة
بالنار
ببيع
بتجميد
بدأ
بزي
بطرس
بقضايا
بقميص
بمحاكمة
بمكافحة
بوكيمون
بيونتيك
تتأهب
تتبع
تتدخل
تحتوي
تحجز
تحذيرية
تحييد
تذكرة
تراخيص
تسجن
تسميم
تعزي
تفند
تلمح
تور
توضيح
توغو
جمهوره
حافة
حاليا
حرجة
حيفا
خال
خلافا
خوذة
دخلا
ديني
ذو
راتبه
رفيعة
رقعة
رمز
ريفي
زراعية
سامي
سرقت
سعادة
سلعة
سماع
سيزور
صحافي
صناع
صواريخها
صيادين
صياغة
طراد
عراقيون
عز
عقوباته
عملات
عنهم
عيادة
غسيل
فاروق
فلكي
فيروسات
كاسحة
كروم
لأفغانستان
لإيجاد
لافتة
لانتخاب
لتصوير
لحساب
لحسم
لخدمات
لرعاية
لصحة
لطهران
لكبار
للالتزام
للبحرية
للتجارة
للتشاور
للجمهور
للسلطات
للمحطة
للمنافسة
لمستخدمي
مارسيليا
ماريو
ماكغريغور
مبان
مبلغا
متضاربة
متطلبات
متطوع
محاولته
محدود
مدعوما
مرشد
مشاعر
معتقلي
معدلة
معظمهم
مقتنيات
ملء
ملعبه
ملفها
ملكي
ممنوع
مميزا
مناعة
مهنة
ميل
نالتشيك
نوتردام
نيوز
هشام
وأخرى
وأرمينيا
والأزمة
والأهلي
والقدس
وتدمير
وفاق
وقطاع
ويبحث
ويصفه
يتزوج
يثمن
يجرون
يحد
يخرجون
يشكون
يكبد
##20
##ئعة
##ارب
##اكتئاب
##اكي
##اهج
##ايد
##بقى
##بنى
##بوك
##بوكو
##ترفيه
##تزايد
##تسلام
##تعبئة
##تعذيب
##تقال
##تقبل
##تمديد
##تهرب
##تهية
##توظيف
##تيكية
##ثوار
##ثير
##جور
##خت
##درا
##دري
##راجع
##رسي
##رشوة
##رعب
##زعج
##زعماء
##ساسية
##سرع
##سعودي
##سيادة
##شركات
##شعاع
##ضين
##طائرات
##عشاب
##عشرات
##فائه
##فتاح
##فحص
##فرط
##فرنسية
##قش
##كبار
##كبة
##كسب
##لح
##لهم
##لى
##مقاهي
##موسيقى
##ميا
##نهاء
##نيات
##هو
##هود
##ورغ
##وكس
##يرون
1400
6000
89
Galaxy
آندرويد
أجرة
أحذية
أسرته
أشعة
أنظار
أولمبية
إغلاقا
إير
اسرائيليين
الأرشيف
الأسودين
الأفارقة
الإعلانات
الإنشاء
الإيرادات
الاحتجاج
الاردنية
الاقليمية
البري
التنحي
الحكيم
الحمد
الخسائر
الدائمة
الزي
الساخنة
السامية
السود
الظهر
العائلية
العشاء
العقلية
الفائز
الفائزة
الفتاة
الفتى
الفواكه
القرضاوي
القطبي
الكاميرات
الكوادر
اللحظة
اللياقة
المجتمعية
المجمع
المحافظين
المخطوفين
المرتفعات
المرشد
المزدوجة
المساواة
المستهلكين
المسنين
النانو
النرويجي
اليهودية
انفلونزا
بإقامة
باراغواي
بالاستقالة
بالافراج
بالرياض
بالمغرب
بانتسير
بايكال
ببدء
بتصميم
بتورطهم
بريمن
بضم
بغرق
بمنصب
بهزيمة
بوكا
تايسون
تتضمن
تجاوزات
تجريبي
تجريد
تحظى
تذكارية
ترجئ
ترعى
تسريح
تصدح
تنحي
تونسيين
جراحه
جرود
جليدية
حقبة
حمراء
خططوا
دخلت
دوليين
ذخائر
ذهبي
ذهبيات
ربيع
رقص
زهاء
زينة
سبع
ستقدم
ستيف
سرق
سطيف
سعوديون
سفنها
سنتين
سيحدث
شأن
شمالية
صعوبة
صلب
صوماليون
غانتس
غريمه
فضائيا
قصص
كاراكاس
كهربائي
لأسر
لأسعار
لأهالي
لاجئون
لاريجاني
لاعتراض
لامبارد
لاهور
لتفعيل
لتوليد
لحوار
لزعيم
لعائلة
لفك
للأفلام
للأهلي
للحجر
للصناعات
للعنف
للمستقبل
لموقف
لنزع
لوب
لوفتهانزا
متنازع
مثواه
محصول
مدعومة
مستهل
مستودعات
مسدس
مشبوه
مصالح
مصالحة
معرفة
معسكرات
مقتله
ممرضة
ممكن
منتخبات
منزلية
منطاد
مهما
مواسم
نسائي
نوايا
وأتلتيكو
والبرازيل
والملك
والهرسك
وصوله
ويست
ويلتقي
يبتكرن
يتعافى
يحذف
يحسن
يخفق
يخيم
يرجئ
يرمي
يطارد
يعرضون
يعزل
يعوض
يوناني
##آت
##أم
##ؤوس
##ؤون
##إسلام
##إيواء
##اتف
##اتية
##احتجاجات
##اطئ
##اظ
##الين
##انقلاب
##بار
##بركة
##بوط
##تأمين
##تال
##تباه
##تحليل
##تركي
##تسويق
##تطوع
##تعامل
##تعويض
##تفاؤل
##تمسك
##توسع
##توصيل
##ثيوبي
##جاج
##جماعة
##جنة
##جهة
##حث
##حفتر
##حون
##خار
##خرة
##دبا
##دس
##دني
##ذان
##ذخائر
##ذخيرة
##رجنتين
##رقص
##ريقية
##زالة
##زح
##زوج
##زون
##سار
##ساف
##ستأجر
##ستغرب
##ستكشف
##سعادة
##سفير
##ضح
##طرة
##طع
##عربية
##غرام
##غياب
##غيث
##فتين
##فروسية
##ففة
##فورد
##قابل
##كابل
##كف
##كوادور
##لتون
##لج
##لسي
##مائية
##مانية
##معاهدة
##مهمة
##مى
##نب
##نفاق
##هالي
##هبوط
##وته
##وحات
##ومان
##ويه
##ياد
##يال
##يبا
##يقته
##يما
##يهة
##يهود
BMW
أدمغة
أساطير
أشكال
ألا
أنثى
أنس
أوفا
إب
إبعاد
إريتريا
إماراتيا
إماراتيين
إمرأة
إنجازا
إيجابي
اجتماعي
احتواء
احياء
ادعاءات
استقالتها
افراد
اقتراحا
الآمن
الأرواح
الأهرامات
الإباحية
الإطفاء
الإقبال
الاقصى
البرهان
البطن
التمسك
الجسر
الحديدي
الحقائق
الخيل
الدنماركية
الدواء
الروسيات
السرقة
السلبية
الصحافيين
الطالب
العصابات
الفئران
الفاشل
الفحص
القاء
القدرات
القلمون
القناة
القنصل
الكاف
الكثير
الكرامة
الكيني
الليغ
المؤشر
الماجد
المحترفات
المخالفة
المسار
المستخدم
المسرحية
المشاكل
المغلقة
المنورة
المهني
النشيد
الواقي
الوداع
انتخابية
انزلاق
انسحابها
ايقاف
بارما
بالتوحد
بالشلل
بالصدارة
بالعربية
بتحرير
بتدمير
بتزوير
بتصادم
بجوائز
بسهولة
بشرط
بلغت
بنسب
تبريد
تتخلص
تجوب
تحبس
تخريج
تخلف
تسببت
تعم
تقف
تقلب
تلقيح
تمد
تمرين
تمسك
توب
توسعة
تولوز
توني
ثوري
جريئة
جنودا
جيرارد
حربها
حفيد
حياتها
خبيرة
خطا
خططا
خططها
خليجيا
دعوته
دفاعية
دهسا
دوائر
دولارات
ديبالا
ديمقراطية
راكبا
زوجان
سائحة
سببا
ستراسبورغ
ستطلق
سويفت
شل
صعيد
صقر
ضابطين
طارئا
طشقند
طيور
عاجلا
عازف
عاطل
عاملين
عساف
عظام
علياء
فاليكانو
فرانسيسكو
فندقا
قس
قنديل
كفاءة
لاستفتاء
لاعبات
لتشجيع
لتطبيع
لديه
لرجال
لعضوية
لقادة
للإسكان
للاحتجاج
للجامعة
للحدود
للحماية
للشهر
للعب
للفيفا
للقطاع
للملاحة
لمسلحين
لوكالة
لوكسمبورغ
متشددا
مجنون
محاصرة
محاكمته
مخازن
مخالف
مخبأ
مدرس
مريضا
مسرحي
مسعود
مطالبين
معروفة
معمرة
مفتوح
مهتمة
مهمتها
نرويجية
نصرة
هاكر
هال
هدفه
هيفن
والخارجية
وحركة
وحماة
ورأس
وكلينتون
وليس
ووقف
ويقود
وينتقد
ياسين
ياهو
يباع
يبدأون
يجدون
يخططون
يستغل
يضعون
يظفر
يغازل
يفند
يلتقون
يلدريم
يمهل
ينفرد
يوفينتوس
##27
##us
##آخر
##أجهزة
##أجواء
##أرسنال
##أطول
##أمل
##إخلاء
##إشراف
##إعصار
##إعلان
##اتين
##اقه
##اكن
##اكهة
##اورات
##بته
##بوب
##تأثير
##تحليق
##تراث
##تركيز
##تسديد
##تطورات
##تعب
##تقييم
##تكون
##تنظيم
##جائر
##جامعات
##جبات
##جند
##جودة
##جيت
##حا
##حاء
##حجار
##حشد
##حيط
##خازيا
##خاص
##خلق
##دائرة
##دمج
##ذري
##ردية
##ره
##ريقي
##رينا
##زور
##سام
##سبل
##سيين
##شتباكات
##شراكة
##شو
##شيف
##صعدة
##ضار
##طلع
##عقة
##علاج
##غلق
##قسم
##كعب
##كمل
##لوان
##لينغ
##محتجين
##نكا
##نيين
##هزيمة
##وطن
##ويد
##ويش
##ياب
##يخ
##يست
##يكان
##يكية
2026
آتوم
آسيويا
أثار
أجوائها
أجور
أخذ
أسوار
أغنياء
أكل
أمينا
أوسطية
أوسع
إخفاء
إقلاع
إليسا
إيرانيا
إيفل
اضافية
الأثرياء
الأجور
الأحمد
الاختبار
الاسباني
الاعدام
الاوكراني
البلغاري
التأشيرة
التباعد
التصميم
التفاصيل
التهرب
الحظ
الحمام
الحوامل
الخوف
الدون
الرئيسان
الرامية
الروسيين
الزعماء
السريرية
السلفادور
الشوكولاتة
العد
العدوى
الغابون
الفيل
القانوني
القريبة
القنوات
القيادات
الكهرذرية
الكوليسترول
الكينية
اللغات
المؤسس
المئوية
المتنازع
المرة
المشاهدات
المعتقل
المنازعات
الموريتاني
اليابانيون
ايرلندا
بإصابات
باختبار
باستعادة
بالتخلي
بالخارج
بالعيد
بتروفا
بدورة
براكة
بسلسلة
بشرى
بضمان
بطهران
بعيدها
بفيديو
بمستشفى
بميزة
بودابست
تاج
تترقب
تتكفل
تجد
تجهيز
تحريرها
تحفز
تخص
تدريباته
ترافورد
ترفيهية
تساؤلات
تستغل
تستهل
تشتبه
تصدم
تعليمية
تعمق
تفاعلية
تقارب
تنديد
ثالثا
حلقات
حمية
خصومات
خوض
دارها
دامية
دخان
دورا
رجب
ركلات
رمي
روبن
روتردام
رويترز
ريمونتادا
سآكاشفيلي
سامراء
ستالين
سوفيتي
سيئة
شركتين
صالات
صيادا
صينيا
طالباني
عقودا
عليا
عناصره
عيوب
فنيا
فيات
فيتو
قاعدتها
قدوم
قرص
قيم
كوادر
كوارث
كوكبنا
كييفو
لاعبه
لتخفيض
لتناول
لرحلة
لسلاح
لشحن
لصنع
لطرح
لغزة
للانتقال
للجوجيتسو
للسفن
للسلة
للسودان
للفرق
للهجرة
للهدنة
مبدئيا
مجرم
محتويات
محجبة
مدفعي
مصارع
مصرفية
مكافآت
مكونات
ملبورن
ملجأ
منخفضة
موظفو
نسمة
نظافة
نفوذ
هاتفه
هبوطها
وإصابات
واجهة
والعين
وتطوير
وحشية
وقتل
ومخالفة
وهولندا
ويستعيد
يابانيون
يتجاهل
يتناول
يحتج
يحفز
يدرج
يرتقي
يزداد
يستلم
يستولون
يفوق
يقاطعون
يقام
يوقعون
يومها
##40
##ic
##إعدام
##ئوي
##ابلس
##اجتماع
##اجه
##احي
##ادت
##اده
##اطة
##اعات
##اقته
##انات
##بدآن
##بدع
##برا
##بيت
##تجاوز
##تجول
##تحديات
##تحر
##تحطم
##تخفيف
##تدين
##ترشيح
##تسلم
##تظاهر
##تعد
##تقنيات
##تكلفة
##تلون
##تني
##توس
##توف
##جلس
##حبي
##حت
##حراز
##حفظ
##خدع
##خوة
##دفن
##دنة
##ديف
##رأس
##ربط
##رعاية
##رنانديز
##روفلوت
##زراعة
##سط
##سعي
##سكة
##شكتاش
##شكلة
##صرار
##صوت
##ضت
##ضللة
##طوي
##ظيف
##عال
##عانة
##عشق
##غار
##فوت
##قاعد
##قبة
##قدر
##قراطية
##قضايا
##قوا
##كأس
##كسل
##كنيسة
##لاجئين
##لقة
##ليز
##مبتون
##مجموعة
##مدة
##مرأة
##مساءلة
##مواجهة
##ميت
##نجاح
##نزل
##نوع
##وجة
##وشينكو
##وفاة
##وفر
##ولد
##يدو
##ينيو
190
أحدهما
أذن
أراد
أسرارا
أسيرا
أقنعة
أنغولا
أنقذ
أوكرانيين
إجراءاتها
إضافيا
إيتو
إيستبورن
ابيب
اجتماعها
اختبارا
استئصال
استثنائي
الأربع
الاحتياط
الاستيلاء
الاعتصام
الاماراتي
البعث
التبرع
التحية
التميز
التنازلي
الجربا
الحروب
الخطوات
الخفيفة
الدخان
الدلافين
الدوريات
الذكور
الرسام
الزاوية
الشابة
الشرب
الفنلندي
الكونفدرالية
اللوحي
المجاعة
المختطف
المساهمة
المسلمة
المصدرة
المقاتل
الملتقى
المليارات
المنافذ
المهندس
الهجينة
انتخابه
بإصابة
بإيطاليا
باحات
باقات
بالاحتيال
بالتزامن
بالضغط
بالكهرباء
ببنغازي
بتحسين
بتوجيه
بتوسيع
بحجة
بسيادة
بعدما
بعشرة
بلومبرغ
بوزير
بيرلو
تبون
تجمعات
تحفة
ترقص
ترويج
تسارع
تصريحاته
تصنيفها
تعصف
تقي
تكفي
تلبية
تلغرام
تماثيل
تهدف
تونسيا
ثلجي
جسرا
جلد
جوبر
جوكوفيتش
حادثا
حاسم
حاملات
حدودي
حرص
حصل
حظا
حفيظة
حقوقي
خدعة
خزان
خصم
داخلي
دوافع
ذاتيا
راب
رخيصة
رودريغيز
زعزعة
ساعتين
ساندرز
ستجري
سترد
سحر
سهلة
سياسيين
سياف
شارل
شرطية
شطب
شقيقته
صحف
صحيا
صومالي
ضاربة
عداء
عصام
غازي
غذاء
غيابيا
غيبوبة
قفص
قندوز
قوتها
كاس
كلبا
كليفلاند
لانطلاق
لتجديد
لخطر
لخويا
لدولة
لزراعة
لزوجته
لفتاة
للاستخبارات
للبقاء
للرسول
للعلوم
للقمر
للقيام
للمثليين
للنصر
لمحطة
لمركز
لمهاجمة
لمواطني
لولي
ليلى
لينينغراد
مؤشرا
مبالغ
متأثرة
متاحف
متحرك
متعدد
محاسبة
محتجز
محظورة
مخزون
مدفعية
مدهشة
مذنب
مساكن
مسكن
مضادا
مضاعفة
معاملات
معلق
مقلدة
مكثف
ملغومة
منشأ
مومباي
ناشطا
نبع
نرويجي
نفس
نواز
نيشيكوري
همام
هنود
هيروشيما
هيغ
وإدلب
والزرقاء
والمكسيك
وانخفاض
وتثير
وداعا
ورش
وكاميرون
يتسلل
يتوصل
يثأر
يجيز
يحملون
يسهم
يشجع
يشعر
يطير
يغرم
يفك
يلتحق
ينذر
ينعي
يواصلان
يوافقون
##50
##70
##M
##ay
##ro
##آثار
##آلام
##أخطر
##أزياء
##أفضل
##أقصى
##ؤجل
##ؤدي
##إنجاز
##ابير
##اجة
##اذ
##ارتي
##ارف
##ازن
##امل
##انين
##بنوك
##بها
##بياثلون
##تئجار
##تايوان
##تبار
##تتبع
##تثبيت
##تحسن
##تدافع
##تشغيل
##تصر
##تصريح
##تعهد
##تفاهم
##تنقل
##توحيد
##تيلاء
##ثال
##ثري
##جئ
##جاح
##جال
##جت
##جدار
##جرامية
##جوائز
##حبس
##حصل
##حفاظ
##خذ
##خلي
##خين
##دائها
##درة
##دنية
##ديتش
##ذوق
##ذى
##رارة
##زبائن
##زحف
##زينيت
##ستذكر
##سرعة
##سلام
##سول
##سيتي
##سيد
##شاعات
##شاف
##شدد
##شفافية
##شور
##شون
##صافي
##صق
##ضحك
##طيل
##عاملين
##عثور
##عهد
##غرفة
##غن
##غوطة
##فترض
##فتها
##فها
##قبلة
##كرا
##مثل
##مراكز
##مرض
##مملكة
##مناطق
##نتاج
##نج
##نسون
##نيه
##هاب
##وتر
##وسا
##وكا
##وكر
##ويح
##يزر
##يسكا
##ينكو
103
105
108
111
112
240
CNN
أحمر
أخضر
أفعى
أنطونيو
أوجلان
أوفر
إثيوبية
إساءة
إمبراطور
إنجرليك
إنفاق
إنفينيتي
استمر
الأرق
الأرمنية
الأسري
الأكاديمية
الأنفاس
الأيتام
الإنجاب
الإيجارية
الاتفاقيات
الاستيطاني
الاستيطانية
الاعلام
الامريكيين
الانتقالات
الانضباط
الانكليزي
البقعة
التأثير
التأسيسية
التصريحات
التعبير
التلفاز
الجامعي
الجليل
الجنسين
الحق
الحقيقية
الخبيثة
الخفية
الداعم
الديمقراطيون
الرسم
الرماية
الريح
الشرعي
الشهداء
الصعود
الضحك
الطفيلة
العلني
العواصف
القضائي
الكروس
الكف
الكولومبية
اللوحية
الليبيون
المتطورة
المتطوعين
المتوسطة
المحدثة
المختلطة
المدافع
المدمر
المستجدات
المشتقات
المصالح
المكان
المكشوف
الملا
الملفات
المميزة
الناقلة
النجاح
النفقات
الهندسة
انتخابي
بإقالة
بافليوتشينكوفا
باقتحام
بالاعتذار
بالحجارة
بالمكسيك
بالنفط
بانسحاب
بانقلاب
بتدبير
برحلة
برقم
برو
بصور
بمخيم
بمهرجان
بهدم
بوت
بيراميدز
تأثيرا
تتدرب
تتزين
تجمعا
تخمة
ترجمة
ترفضان
تسلط
تشيكيا
تضر
تفادي
تفكر
تمر
تمول
تنتصر
توضيحات
تيسلا
ثقته
جاستن
جاكرتا
جحيم
جمركية
جنة
جينات
حافل
حالته
حشد
حقائب
خضار
خطته
دائما
دخوله
ديب
رامي
ركوب
رمضانية
روزيتا
روسيات
رياح
زر
زكي
ساسولو
سلمي
سوزان
سيفاستوبل
شعوب
صحو
صغار
صقلية
ضيفا
طفله
عادة
عكاشة
غامبيا
غولدستون
فارك
فتكا
فجأة
فخر
فستان
فضل
فعلا
فيروز
فيون
قائمتها
قتله
قرد
قناص
كسوف
لإيقاف
لاب
لاستخراج
لتحفيز
لدعوة
لرحيل
لغزو
لفرنسا
للأوراق
للبياتلون
للثورة
للجسم
للجمعية
للدبابات
للفضاء
للقوة
للهند
لمشاركة
لمنشآت
لميلاد
مؤكدة
مائدة
مايوركا
مباني
متتالية
متنقلة
مخصص
مساندة
مسربة
مسكنا
مظلة
مفقودة
مقرها
ممثلية
موردوفيا
ميقاتي
نخبة
نشاطه
نصية
نفي
نهم
هواة
وأستراليا
والأرجنتين
والتغيير
والمسلحين
والنصر
والوفيات
وبيونغ
وتراجع
وتعزيز
وتقتل
وخيمة
وراثيا
وشركات
وعجمان
ولافروف
ومخاوف
ونادال
ويطلب
ويقدم
يؤسس
يتنازل
يحضرون
يحلم
يخت
يخفي
يرتبط
يسبق
يضر
يغزو
يمول
ينبغي
##80
##lus
##ءات
##أسطورة
##أشخاص
##أقوى
##أهمية
##ؤها
##إخفاء
##إسبانيا
##إضراب
##ائج
##ادته
##اروف
##اسية
##اشى
##اطن
##اعيد
##افيا
##اكل
##امين
##باد
##بيرغ
##تاريخ
##تافات
##تبة
##تج
##تجدد
##تحالف
##تحذير
##تحفظ
##تخب
##تري
##تشييد
##تعثر
##تواطؤ
##جائب
##جيج
##حريري
##حفر
##حماية
##خرق
##خرى
##خفاض
##خلو
##خليل
##خيل
##ددة
##ربية
##رسائل
##رط
##ستمع
##سكتة
##شاهد
##شبه
##شحن
##شط
##شلل
##شهادات
##شير
##صلاة
##صمد
##ضاء
##ضافي
##ضن
##طاس
##طرد
##طريق
##طيات
##ظروف
##عتاد
##عرق
##عريض
##عقد
##عواقب
##عى
##فائها
##فسكي
##قاليم
##كتوراه
##كوب
##كود
##كيل
##لجنة
##مشكلات
##مصير
##نتعش
##نقل
##نوف
##نيك
##هيم
##وائي
##وتو
##ودها
##وزن
##ونزية
##ياه
##يظ
##يقه
2007
650
أجرا
أجنبيا
أسبوعي
أسس
أسهمها
ألقاب
أوقات
أوكلاند
إضرابا
استفزازات
اسقاط
اعتدى
الأشجار
الأشياء
الأمازون
الأنظمة
الإعارة
الإناث
الاعتذار
الانتحارية
التأسيسي
التجمعات
التطبيقات
التلفزيوني
الثقوب
الثلث
الجبال
الجثث
الجزئي
الحشيش
الخنزير
الرسول
الزعتري
الزكاة
السخرية
السلوك
السنين
السويداء
السيبراني
الشاقة
الشامسي
الشريفين
الصادق
الصداع
الصلب
الظاهرة
العرش
العطية
الفرسان
الفضية
الفكرية
القرغيزي
القس
الكاميروني
الكتابة
اللاجئون
المئة
الماس
المافيا
المتبادل
المتحور
المجرمين
المدفعجية
المراجعين
المريض
المطر
المظلمة
المفضلة
المكي
المنتظرة
المنخفض
الموانئ
الميدانية
الوصافة
اليابانيين
اليوان
اليوروبا
انسحابه
انعدام
انغوشيا
بإزالة
باستقلال
بالحصول
بالرحيل
بتحويل
بسلالة
بضرورة
بعثتها
بمقاضاة
بمناطق
بنات
بنزيمة
بيوبيله
تألق
تايم
تبعث
تبليسي
تتحقق
تترك
تتضامن
تختفي
تدعمان
تدوير
تستولي
تصدق
تضغط
تقيل
تناولها
تنصيبه
تهيمن
جملة
جند
حدوده
حديثا
خير
دبلوماسييها
رافال
رفعت
رملية
روسكوسموس
زجاجة
زينب
سافينا
سبورتينغ
ست
ستوسور
سريا
سموحة
سيريس
شاملا
شرسة
صانع
صراف
صعبا
عبوات
عدوان
عنصري
غالبية
غانم
فتيل
فلاديفوستوك
قاس
كافية
كمبوديا
لأبناء
لأمن
لأن
لاستثمار
لاغارد
لباكستان
لتشغيل
لتعويض
لتمكين
لثاني
لعبور
لغير
لكنه
لكنها
للأسبوع
للتدريب
للجزائر
للقاهرة
لمرحلة
لمصلحة
لمواطن
ليدي
مانشيني
متصفح
متوسطة
محفظة
مخمور
مستاء
مستخدميها
مستهلكون
مصلحة
مصنوعة
مضيفة
معلنة
مغناطيسية
مفعول
مقاطع
ملتزمة
مليونير
ممرات
مهربي
موضة
ميثاق
ميديا
نابليون
نازحي
نجاحا
ند
نفاد
نمساوي
نمط
هطول
وأصحاب
واتفورد
واستقرار
والداخلية
والسلام
والمنطقة
وزوجها
وعودة
وفاتان
وكيف
ونسبة
ويعد
ويوجه
ويوفنتوس
يؤمن
يتحرش
يحجب
يخص
يخيب
يده
يريفان
يزوران
يسمي
يشيعون
يضيء
يفارق
يفسر
يمر
##16
##أثر
##أراضي
##أربع
##أرقام
##أسد
##أوعية
##ؤرق
##إلقاء
##ابولي
##اتحاد
##اتور
##ادرة
##ارو
##الوني
##ايبر
##بخ
##بدون
##تأكد
##تأكيد
##تأهل
##تأهيل
##تتويج
##تخصص
##تدخل
##تدي
##تزلج
##تضامن
##تعاون
##تقد
##تقسيم
##توريد
##تيا
##جاز
##جاني
##جبل
##جرائم
##جمل
##جيب
##حارس
##حدود
##حقة
##حوز
##حيل
##خبارية
##خدمة
##خلص
##دلاء
##دوا
##ذكرى
##ذور
##رسم
##ركل
##روق
##زج
##زعة
##سائح
##سبان
##ستحق
##سته
##سطح
##سكن
##سكين
##سلامة
##سود
##شاك
##شرعون
##شعار
##شفق
##صالة
##صبية
##صفة
##ضال
##ضيق
##طباعة
##ظاهر
##ظمي
##عجل
##عدوان
##عكس
##غام
##غتيال
##غرق
##غى
##فاوض
##فتيات
##فريق
##فلة
##قاب
##قدام
##كايات
##كهة
##كيب
##لعب
##ليس
##ليون
##ماري
##مستشفيات
##مشي
##مظهر
##مقاومة
##منح
##ميلاد
##نتس
##نجر
##نشر
##نك
##نكوف
##ورود
##وزا
##وشة
##وصل
##وغ
##ويف
##يبي
##يدات
##يرية
##يقات
##يهم
##ييت
121
UFC
أبراموفيتش
أبي
أثارت
أرشافين
أريزونا
أسطولها
أسلوب
أعتاب
أغاني
أفارقة
أقراص
أمانا
أوروغواي
أولد
إعلانا
إفلاس
إقناع
ابريل
ازمة
استثماراتها
استخباراتي
استخدمت
استكشاف
افغان
الآباء
الأحكام
الأرثوذكس
الأسطورية
الأعلام
الأكسجين
الأمور
الأنقاض
الأوربي
الاستحواذ
الاسرى
الاعمال
الانفجارات
البرامج
البطائح
البطاقات
البيئية
التألق
التبغ
الجلوس
الحار
الحضور
الحقيقة
الخمس
الدائم
الداعشي
الرحال
الرحمة
الرغم
الريان
الساموراي
السحر
السر
الشبا
الشيشة
الصوماليون
العاجل
العالقين
العروض
الغريبة
الفلبينية
الفيدرالية
الكتلة
المحررة
المدرعات
المدرعة
المراهقين
المزارعين
المسابقة
المظليين
المعادن
المعاملات
المعدل
المقرر
الملاريا
المهارات
النطق
النهاية
الهاتفي
الهداف
الوبائي
اليدين
انابيب
انضمامها
انفجاران
بأسماء
بأم
باتفاقية
باطلاق
باق
بالبحر
بالتوصل
بالخرطوم
بالكويت
باليابان
بانتمائهم
بتخفيض
بخدمات
بخسارة
بعمر
بمليارات
بممارسة
بوتر
بورما
بوليوود
بيبر
بيلاروسيا
تايلند
تتجاهل
تتمكن
تجسد
تخريب
تذهب
ترانزيت
ترانسنيستريا
ترسو
تستثني
تسجيلا
تسرع
تشرح
تشعر
تضامنها
تعزف
تعميم
تعوض
تكافئ
تلقت
تلقيها
تنموية
توريس
توظف
جان
جاهزيتها
جسد
جنسيات
جيتكس
حركات
حزام
حصون
حلولا
خامس
خصخصة
خنزير
دعا
دعوتها
دلائل
دليلا
دولتين
ديار
ذاتي
ردع
روائع
زغرب
زفيريف
سم
سيميوني
شؤونها
صمته
صندوقا
ضربت
ضفاف
طبيعي
طريقا
طلابية
عاش
عبده
عريضة
عزيز
عوضا
غراد
غرار
غوطة
غوميز
فلكية
فورية
فولغوغراد
قاهر
قريتين
قصفها
قناع
كأفضل
كاذبة
كارثي
كاسبيرسكي
كردفان
كسوة
كوشنر
كوفي
لأسطول
لأغراض
لاستيراد
لبنانيا
لترميم
لتغطية
لجعل
لقضية
للإنسان
للاعبات
للتراث
للعرب
للغولف
للفورملا
للقاحات
للمريخ
للمساهمة
للمكفوفين
للهبوط
لمسافة
لمشاهدة
لمعاقبة
لمواطنيها
لميركل
لنهاية
ليفني
ليلية
ماستر
متخصصة
متشدد
متشددون
متقاعد
متهور
متورطين
مثلث
مجالها
مجاهدي
محال
مرتفعة
مركزي
مستاءة
مستشارة
مشتقات
مطلوبين
معسكرا
مقاتلو
مقرب
ملحمة
مونت
نائية
ناشطون
ناهز
نجيب
هاتشباك
وأفراد
واتساب
واضحة
واعد
والتجارة
والشباب
والطاقة
والعلاقات
والقبض
والمتظاهرين
وبن
وتشيلسي
وحيدا
ودعم
ورقية
وسائر
وشباب
وطنهم
وفيدرر
ومركز
ونتانياهو
يبني
يتصدران
يتوافدون
يحولون
يدهس
يدوية
يراهن
يزيح
يستثني
يستفز
يستقبلون
يسلمون
يشددان
يصالح
يضربون
يعدون
يعلنان
يعني
يغطي
يفرج
يقودان
يمكنك
ينظمون
##28
##30
##إجراء
##إساءة
##إسلامية
##إقامة
##إنتر
##إنزال
##إنقاذ
##ئحة
##ئفة
##احتمال
##ارهاب
##استثمارات
##اطؤ
##افيز
##اكو
##اما
##امات
##اند
##اولة
##ايت
##بارزاني
##باري
##بتون
##بقية
##بلة
##بنك
##بني
##بوت
##بيان
##بيض
##بيضاء
##تبرأ
##تخريب
##تدريس
##تربية
##تشعار
##تصاعد
##تعطيل
##تقرير
##تقلال
##تلر
##تلي
##تيه
##تيهما
##ثور
##جادة
##جرى
##جسم
##جندة
##جنون
##حرية
##حصاء
##خاصة
##خب
##خبر
##خطط
##خيم
##دغال
##دنيا
##ذرة
##ذين
##ريكي
##زهر
##زيه
##سابق
##ساسة
##ساط
##ساند
##سى
##سيطرة
##سيمة
##شآت
##شأة
##شال
##شتاين
##شركة
##شطب
##شمركة
##صادم
##صاعد
##صبح
##صدفة
##صعد
##صعود
##صندوق
##صيد
##ضا
##ضرورة
##طام
##طوف
##ظام
##ظل
##عقوبات
##علي
##عمان
##غانستان
##غوغل
##غول
##فظ
##فيلم
##قادات
##قراء
##قرصنة
##قض
##قواعد
##كانية
##كملات
##كوت
##لترا
##لسل
##لقاء
##لوب
##ليني
##مانيا
##متفجرات
##مجتمع
##مسألة
##مسح
##مسك
##مصري
##معركة
##ملوك
##مني
##مواقف
##موظفين
##مول
##نال
##نتهك
##نوم
##هبة
##هلال
##وبر
##وتين
##ورال
##وسع
##وعات
##وعي
##وفية
##وقوع
##يتو
##يشيات
##ينين
101
102
1800
2050
Google
HTC
أدين
أرفع
أشرف
أضلاع
أفاعي
أفعال
أفكار
أقدام
ألبوم
ألكسندر
أملاك
أمواج
أنشطتها
أيمن
إصابتان
إقليمي
إكسون
إنساني
إنطلاق
إنفجار
إنييستا
احتلال
استخدامها
استشاري
اصدار
اضراب
اعصار
افضل
اكتشف
الآلية
الألب
الأهواز
الأوفر
الإثنين
الاسبانية
الاستوائية
الاندماج
الانقراض
البرغوثي
البيانو
التابع
الترتيب
الترسانة
الترفيهية
التسمم
التعقيم
التماس
الثروة
الثلجية
الجاسوس
الجليدي
الجميلة
الجونة
الحاسمة
الحكومات
الحوت
الخيال
الدراما
الدواجن
الراهنة
الرضع
الرغبة
الروح
الزبداني
الزحف
الساهر
السكن
الصندوقين
العامل
العزلة
العمالية
العميق
العون
الغبار
الفارين
القافلة
الكوريتان
الكويكبات
اللصوص
الليلية
المبارزة
المتاجر
المتاحف
المحطات
المستديرة
المشفرة
المضرب
المغنية
المفضل
المقدمة
المناهضة
المنصة
الموقعة
الناطق
النباتات
النجف
الهادي
الهدايا
الوراثية
الوسطاء
الوقوف
انهاء
ايه
باستغلال
باستقبال
باعتماد
باقي
بالاعتراف
بالبقاء
بالتزاماتها
بالحكومة
بالخرف
بالسفر
بتعاطي
بثلاثة
بحارا
بحزم
بخروج
بذل
بصوته
بقذيفة
بكوريا
بمحاربة
بمعرض
بملاحقة
بوسكي
بيتروفا
تأخذ
تؤمن
تبرر
تبرع
تتناول
تجريبية
تحية
تداهم
تستبدل
تسجيلات
تسييس
تعاف
تفترس
تقيد
تمهد
توضيحا
ثور
جام
جاويش
جعل
جماهيري
جواسيس
حازم
حروب
حصص
حلفاء
حياتك
خارق
خسارته
خلع
خوان
خيول
دافيد
دموي
دورات
دورها
دوموديدوفو
ديغول
رئيسه
رايو
رضيعة
رغبتها
رولز
رومني
ريتشارد
زامبيا
زهرة
زيارتها
ساحقة
سانتوس
ساو
سعيا
سقوطها
سلحفاة
سياستها
شاكيرا
شاي
شرعيا
صالون
ضعيفة
عابرا
عالقون
عصير
علمها
علييف
غوايدو
فرح
فريدا
فلبينية
فوكس
فيلة
قدرها
قصوى
قفز
كاديلاك
كاف
كايو
كعبه
لأنصار
لتأهيل
لتنظيف
لجراحة
لرفض
لصد
للإبداع
للإسراع
للتصميم
للتغلب
للحافلات
للرياضة
للمسرح
لليفربول
لمخالفة
لمنافسة
ليوفنتوس
ليومين
مأدبة
مات
مانيلا
متحركة
متفائلة
متورط
مجاعة
محاربي
محلل
مختطفين
مراد
مراعاة
مزود
مساهمة
مصورا
مضمار
مضمون
مضيئة
مقرات
مناسبة
مهتم
موديلات
موهبة
نسبيا
نشرها
نقض
نواكشوط
هنري
هيت
وأمطار
وأمير
واستمرار
والإرهاب
والاستقرار
والخدمات
والخرطوم
والسويد
وامريكا
وتتوعد
وتستعد
وسان
وشرق
وعائلاتهم
وقبرص
ولايته
ومئات
ومنع
وموراي
ويتحدث
ويشدد
يتربص
يتربع
يتسلق
يتضمن
يدير
يراقب
يزين
يشرف
يصب
يعارضون
يعزف
يفضلون
يمارس
ينتقم
يولد
##11
##60
##at
##es
##ook
##أحذية
##ؤمن
##ؤهل
##إطار
##إندونيسيا
##ئك
##ائفة
##ابتعاد
##ابل
##ارته
##استثمار
##اسد
##اطف
##اكا
##اهر
##ايش
##بايرن
##بصمة
##تابع
##تجاهل
##تحكم
##تخرج
##تخلص
##ترو
##تسع
##تصة
##تضليل
##تفزاز
##تقاليد
##توتر
##توني
##تيطان
##ثافة
##ثبت
##ثيوبيا
##جبهة
##جدة
##جندي
##جني
##جير
##حبة
##حتال
##حترام
##حدى
##حزب
##حلان
##حوال
##خبرة
##خلاص
##دخول
##دعم
##دعوات
##ذاء
##ذاب
##ربو
##رحلات
##ردا
##ردوغان
##رست
##رسل
##رفد
##رول
##سائق
##ستا
##ستدامة
##سفاح
##سيدة
##سيه
##شاحنات
##شاعر
##شبية
##شرات
##شروع
##شفاء
##شفى
##شينسكي
##صابين
##صبع
##صحة
##صدار
##صرين
##طابق
##طاقم
##طالة
##طح
##طحة
##طراف
##ظافر
##عتبار
##عته
##عدة
##عصابة
##عفو
##عق
##علب
##فشل
##فونية
##قالات
##قتراض
##قتل
##قروض
##قفال
##قلقة
##قوية
##كولا
##لأ
##لفا
##ليفة
##ماس
##مخرج
##مسؤولية
##مظاهرات
##معاقين
##معلومات
##ميني
##نأى
##نتو
##نصف
##نمسا
##هون
##وائل
##ودين
##وسيتي
##وفين
##وقة
##ولوجية
##يتان
109
118
550
8000
أخرين
أرينا
أشتون
أملها
أمور
أندرييف
أنونيموس
أورلاندو
أوقاف
أونيكس
إمداد
اسبوع
استثماري
استدامة
استفزازية
استمرت
اعتبار
الأخطاء
الأدب
الأسماء
الأفراد
الألم
الأوروبيون
الإيجابي
الإيقاعي
الاستثمارية
الاستعراضية
الاسود
الاعتقالات
الاكراد
الانتربول
الانتماء
الانحياز
الانفاق
الاهتمام
الباليستية
البحارة
البدانة
البروتوكول
التراثية
الترويج
التطور
التعازي
التعديل
التفتيش
التمرد
التنافسية
التهاني
الجانبين
الجحيم
الجسمي
الجمهوريون
الحزام
الحضارة
الحضري
الحمادي
الحيتان
الخوذ
الدنماركي
الريف
الزمني
الساحرة
الساحلي
السفراء
السيناريو
الشبكات
الصوماليين
الصيادين
العائلات
العابدين
العلامة
القرارات
القضاة
الكوني
المجالس
المحاسبة
المخالفين
المخلوع
المخيمات
المدخنين
المزيفة
المسؤولة
المسبق
المستعملة
المسجلة
المصدر
المعجزة
المقاصة
المنتجين
المهن
المواطنة
الموالية
النشطاء
النيازك
الهاوية
الهنود
انجاز
بإدارة
بابل
باستضافة
باشينيان
باعادة
بالأهداف
بالسكري
بالمعروف
بتاريخ
بتزويد
بتنحي
براد
برنامجه
بصحبة
بلاستيكية
بلباو
بمخاطر
بنمو
بهما
بوفيتكين
بيرنلي
تبتلع
تبحر
تبدو
تجريان
تجريم
تدبير
تدك
ترتيبات
تشحن
تشريع
تضامن
تعتزمان
تفاوض
تقاسم
تناقشان
توليد
ثعالب
ثلاجة
ثلوج
جرعات
جوبز
حائط
حبيبته
حضانة
حكوميا
حلايب
خططت
دا
دمية
دوشيفينا
دوي
دويتشه
ديمنتييفا
ركابها
رهف
روميو
ريد
زفافها
زلاتان
سب
ستانفورد
ستيت
سرب
سفارات
سقطرى
سما
سيشارك
شعارات
شلل
شنقا
صبحي
صرب
طائرته
طب
طبرق
عالمة
عريض
عظمي
عليك
عيادات
غريبا
غضبا
غلوب
غودولفين
فائض
فاز
فيا
قدرتها
كمامات
كنت
كهروذرية
كيلو
كيميروفو
لأنها
لإجراءات
لإيصال
لاستقطاب
لاعتقال
لامبورغيني
لتأجيل
لتشخيص
لتنسيق
لتنشيط
لسنة
لسيدة
لشرطة
لصا
لعناصر
لقضاء
لقياس
للأجانب
للاتصال
للتأكد
للتصوير
للرقابة
للريال
للكهرباء
للمحترفين
للميليشيات
للواقع
لمعرض
لمعرفة
لممارسة
لمناطق
لوفاة
ليالي
مأساوي
متبادل
مترجم
متكي
متمردين
محتوى
مرافق
مركبته
مرمرة
مروان
مسيرتها
مشجعين
مصل
مصممة
مطلقة
مقعدا
مكوك
مناسب
منتجي
منزلي
منشآتها
مياهها
نزيلا
نشاطا
نشاطات
نصرالله
نصري
نفطها
نفقا
هالة
هزاع
هيدينك
وأرسنال
والإصابات
والاسرائيليين
والمالكي
وجهها
وداعش
وردة
وزنه
وعائلته
وفواكه
وماكاروفا
وينفي
يأكل
يبهر
يثني
يدخلون
يرون
يشاركان
يعتبرون
يعتزمون
يعيشون
يفجرون
يقطعون
ينددون
ينصحون
ينفجر
##12
##17
##35
##90
##94
##in
##أدلة
##أساتذة
##أشد
##ألم
##أنبار
##أول
##ؤه
##إبادة
##ابه
##ابيو
##اجات
##احل
##ارى
##اشية
##اصر
##الله
##باك
##بذ
##براس
##برامج
##برة
##بره
##بريطانية
##بسط
##بعد
##بلدة
##بيرة
##بيروت
##بيس
##تاك
##تثمر
##تجميد
##تحفيز
##تداعيات
##ترجي
##تسك
##تضرري
##تطبيع
##تفاصيل
##تكريم
##تماع
##تمد
##توري
##توطين
##تويتر
##ثا
##ثمان
##جائحة
##جائزة
##جتياح
##جريمة
##حان
##حمة
##خبار
##خمد
##خورفكان
##خيص
##دأ
##دبابات
##دراج
##ديين
##رال
##راما
##رانه
##ردان
##رضا
##ركان
##ركبي
##رنس
##روبوتات
##ريع
##زلازل
##زمير
##زوار
##ساركوزي
##سرا
##سراع
##سرين
##سوري
##شأ
##شخصيات
##شرد
##صائية
##صطحب
##صلين
##صوم
##صين
##ضعة
##ضلوع
##طاليا
##طش
##طقة
##طوارئ
##ظلي
##عاهل
##عدالة
##عضائها
##عطاء
##عكر
##عنوان
##عه
##غرد
##غطية
##فزا
##فعل
##فقراء
##فلت
##فوضة
##قالته
##قرية
##قصف
##قصية
##قوة
##قوش
##قيد
##كبح
##كتائب
##كورونا
##كيرلينغ
##لاق
##مأكولات
##مادي
##مالية
##محمد
##مركبات
##معارض
##معون
##مقترح
##ممر
##مهارات
##مهيري
##موقف
##نصب
##نق
##هاد
##هادي
##هلي
##همي
##وانات
##وتا
##وردي
##ولو
##ونان
##يتس
##يكل
135
7000
أجنحة
أحرار
أسوان
أشقاء
أقساط
أكسيد
أمانو
أميريا
أنجيلينا
أندريه
أوروبيون
أوساكا
أولمبياكوس
أولي
إجبار
إشراك
إشغال
إطلاقها
إلهام
إنبي
إنتل
ائتلافية
اجتماعه
احذروا
اختلاف
ارتفاعه
استخباراتية
استعمال
اسعار
الأرز
الأعراض
الألماس
الأولوية
الإجمالي
الإنتر
الاتحادي
الاحتكار
الالماني
الاوربي
البرتغالية
البرق
البلوشي
التآمر
التايكواندو
التغلب
التقارير
التماسيح
التنظيمات
التنفس
الجرف
الجليدية
الحفر
الخضروات
الداغستانية
الدراويش
الديناصور
الرضيع
الركبة
الرواد
الرياضيات
السباح
الشديدة
الشروع
الشيعة
الصعداء
الطماطم
الغازية
الغزو
الفرنسيون
الفيديوهات
القاذفات
القبول
القريب
القمرية
القوانين
الكاراتيه
الكذب
الكعبي
الكلور
المؤامرة
المانحين
المتجمد
المتحورة
المتعافين
المتقدمة
المجرات
المحروقات
المحظورة
المسيء
المصير
المعدات
المغاربة
الممارسات
الميزان
الواجهة
اليوغا
انكلترا
او
بأقل
بإدلب
بارتداء
بالتحريض
بالذهب
باللون
بالمليارات
بالهدنة
ببريطانيا
بتروليوم
بتصدير
بتصنيع
بحركة
برئيس
بركب
بريدج
بسلاح
بشري
بصمة
بطن
بفارق
بقطار
بلقاريا
بمدرسة
بنتلي
بوساطة
بوست
بيته
بيرم
بينس
تأجير
تام
تتنبأ
تحرج
تحط
تحويلات
تخطي
تدني
تدهس
ترتدي
ترجيح
ترشيحه
تسمي
تشطب
تشيرنوبل
تعزل
تعهد
تغري
تفسر
تمارين
تمتلك
تهرب
ثاد
ثروات
ثقيل
جدارية
جرابلس
جنسيتها
جوار
جونيورز
جيرونا
حاج
حادثين
حارقة
حرستا
حزبا
حملتها
حواسيب
حيرة
خرافي
خطبة
خيخون
دخولها
دقة
دناتا
دوريان
ديترويت
ذكر
ذوو
ركن
زال
ساحات
سام
ستار
سترة
ستروس
سحابة
سعرية
سلم
سلميا
سوقا
سيجارة
شبيهة
شخصي
شركاء
شعبه
شقيقين
صبي
طريف
طلعت
عرفة
عم
عملاقا
عودتها
فاخر
فعالياته
فيليبس
قطارا
قهوة
كات
كاتيوشا
كاليه
كلاشنيكوف
كلاي
كلثوم
كنيس
لأدنى
لأفلام
لتجربة
لتدريبات
لتهدئة
لجماعة
لخروج
لخطة
لطلاب
لعمال
لعيد
لغاية
لقائمة
لكبح
لكييف
للأراضي
للاستثمارات
للتحكم
للتوزيع
للسفير
للسلاح
للصور
للموتو
لمطالب
مؤثر
ماديرا
مارسيلو
ماركت
ماغنيتسكي
ماليزية
مبارياته
متبرعة
متبرعين
متشددة
متطرف
متعلقة
متنه
محدثة
محركا
مربع
مرتكبي
مزيف
مساحات
مسبقا
مستشارا
مسنجر
مسيحي
مسيحية
مشجعة
مصرفي
معارضون
معلمة
مغاربة
مغن
مناظرة
مناورة
مواطنه
موعده
مونتيري
ميتا
ميزانيتها
نا
نتفليكس
نظيرتها
نفسي
هانوفر
هيمنة
واجب
والبرتغال
والدواء
والضفة
والنفط
وبولندا
وتتوج
وتعتبره
وتغلق
وتقترب
وجهه
وزاريا
وصية
وعبد
وعناصر
وقادة
وقضايا
ونظيره
ويحدد
ويحرز
ويحصد
ويشعل
ويعين
ياك
يبعد
يحتجزون
يحققون
يختطف
يدعمان
يدها
يرافق
يرتكب
يرسمون
يروج
يزيل
يستولي
يشكلون
يضرم
يعبرون
يعلم
يفسخ
يفوزان
يقاطع
يكرر
ينضمون
يوري
يونيفرسياد
##42
##95
##97
##BA
##me
##أعياد
##أقمار
##أوسكار
##إثارة
##إجراءات
##إحباط
##إهمال
##ئيلي
##اجعة
##احث
##اريات
##اصرة
##اطرة
##افذ
##افظ
##الج
##امارات
##امت
##انت
##اهي
##باليه
##بشير
##بغدادي
##بقاء
##بياد
##تخصيص
##تراق
##تساقط
##تصنيع
##تصويت
##تظمة
##تعلق
##تفاق
##تفجير
##تفرج
##تقي
##تلال
##تملك
##تنديد
##تنصت
##تهنئة
##تهى
##توقيع
##توم
##توي
##تى
##ثان
##ثني
##ثيق
##جلة
##جيا
##جيزة
##حاسب
##خال
##ختار
##خسائر
##خطوط
##خلايا
##خيبة
##دانته
##درويد
##دعارة
##ذبة
##راتي
##راقة
##ربت
##رسال
##رفي
##رمادي
##رمن
##رموز
##رنب
##رهان
##روب
##ريكية
##ريو
##زعامة
##زك
##زمن
##زنا
##زه
##زوري
##ساحة
##سارية
##سرقة
##سويسرا
##شائر
##شاة
##شكيك
##صابون
##صاد
##صالح
##صدقاء
##صطدام
##صقور
##صمود
##صنف
##صيلة
##ضية
##طاع
##طبخ
##طوطات
##طيم
##غاني
##غراد
##غرس
##غلبية
##غنام
##فتة
##فجار
##فرار
##فسك
##فضيحة
##فك
##قاعة
##قراض
##قصص
##قنع
##قيام
##كره
##كرون
##لتهم
##لتيك
##لعاب
##مارية
##مب
##مباراة
##مترو
##محتاجين
##محكمة
##مروحية
##مزاعم
##مشاهد
##معالجة
##معايير
##معسكر
##موقوفين
##ميناء
##نادي
##نشتاين
##نويات
##هيبة
##واد
##واه
##وسياسية
##يدا
##يدين
##ينسكي
##يوط
##ييه
113
114
128
777
آبار
أجهزتها
أخلاقية
أسفل
أمهات
أوركسترا
أوسلو
إسلاميين
إغراق
ابتكارات
اتجاه
الأبناء
الأعداء
الأمامية
الأنف
الإجهاد
الإجهاض
الإعداد
الإنجاز
الاتفاقات
الاحتفاظ
الاشتباك
الاشتباه
الاقتراب
الالتحاق
البرلماني
البعثات
البياتلون
التأكيد
التشيلي
التنبؤ
التنمر
التوسع
الخصاونة
الخصخصة
الخليفي
الخيار
الخيارات
الدبابة
الذات
الرصيفة
الري
الزوجات
الساعدي
السمع
السيرك
الصفوف
الضخمة
الضم
الطرد
العائد
العملاء
الغريب
الفاصل
الفرقاء
القاري
القفص
القيم
الكاريبي
الكتل
المانش
المتعلق
المحاصرة
المحتجون
المستفيدين
المهندسين
الموريتانية
الموسمية
النامية
النسور
النمور
الواحد
انتر
انترنت
انتقاما
اندماج
انهيارات
باحتجاز
باحترام
باخرة
باغتصاب
بالأطفال
بالأمم
بالقاعدة
بالمجان
بالمخدرات
ببراعة
ببيروت
بتراجع
بحسب
بحكومة
بحياته
بذريعة
بطرق
بظلالها
بغرب
بقنبلة
بلغة
بلقبه
بلوك
بمراجعة
بمقديشو
بمليوني
بولندية
بوينس
بيضة
تأتي
تأسيسها
تثمن
تجني
تخوض
ترمي
تستفيد
تستقيل
تستورد
تسلح
تشانغ
تشايكوفسكي
تضامنية
تضرر
تضيق
تطيل
تعادلا
تعززان
تعقيم
تعيق
تقليد
تقليدية
تنشط
تنفصل
تواصلان
توفي
ثروته
جامعي
جامعية
جدران
حامد
حاولا
حاوية
حبل
حتفه
حقن
حلفائها
خاركوف
خبرا
خروجه
خيري
خيمة
دراج
دعاية
رأي
راونيتش
رايس
رشاش
رصيد
رعدية
رفيق
رواندا
روسيف
زرداري
زفافه
سائحين
ستشارك
ستولتنبرغ
سعيدة
سكرتير
سلافيانسك
سنوي
سوار
سيفاستوبول
شبابية
شح
شفاف
شفرة
شهيد
صالحة
صغيرا
صفارات
طالبي
طبيا
طياريها
عجزا
عملتها
عمليتها
عميد
عنكبوت
عينه
غاليري
غاية
غور
فارهة
فنانا
فيتالي
فيودور
كاردشيان
كارولينا
كاسيني
كوينز
كينغ
لألمانيا
لأمريكي
لإخراج
لإعداد
لإعطاء
لإغلاق
لانفجار
لبايدن
لبنانيون
لتصميم
لرياضة
لسرطان
لضربة
لطفلة
لعباس
لفنزويلا
لقبول
للأجهزة
للأولمبياد
للاستخدام
للتسامح
للتوجه
للدراسات
للرقص
للرياضيين
للسماح
للعقوبات
للعلاقات
للكويت
للمصريين
لمتهم
لمحكمة
لمد
لمسلحي
لمسلمي
لموظف
لموقع
لنتائج
لوزان
لوف
ليبيديف
مأساوية
ماركيز
ماسة
مبدأ
مبيعا
متباينة
متنزه
محاضرة
محترف
محمولة
مخ
مخالفا
مداره
مدانين
مسام
مستخدمو
مستقر
مسيحيين
مشادة
مشروعي
مصرفا
مصعد
مصغرة
مطور
مظاهر
معابر
معدة
معصوم
مغمور
مفتوحا
مفقودين
مقيم
ممثلو
ممثلين
منحنية
منشورات
منير
مواطنتها
موظفيه
ميني
نهارا
نيروبي
هافانا
هرتوغينبوش
هزيمته
هنديا
والريال
والعمل
واوباما
وبين
وتشكيل
وتصيب
وحل
وزنها
وزيادة
وصالح
وطائرات
وطنيا
وعملية
وغارات
ومسؤولين
ومضيفه
ونحو
ويغان
وينتزع
يتأهلان
يتجرع
يتحدثون
يتسلح
يتمكن
يثبتون
يجني
يحاصر
يحلون
يدحض
يرعى
يشد
يصلي
يضاعف
يضغط
يطبق
يعلقون
يعير
يمتنع
يموت
ينوون
يودعان
##45
##K
##ce
##id
##آداب
##آن
##أب
##أستراليا
##أسعار
##أسود
##أصابع
##أهالي
##ؤسس
##إثيوبيا
##إجلاء
##إحالة
##إدارة
##إسكان
##إعجاب
##إفشال
##إقناع
##إيقاف
##ئدة
##ائز
##اتة
##استعراض
##استقلال
##اسدة
##اشي
##اطلاع
##اعتذار
##اعمال
##اقتها
##اقية
##اهضين
##باييفا
##برلمان
##بكستان
##بلاد
##بولي
##تاجر
##تحطيم
##تخلف
##تخوف
##تراب
##تسمم
##تشهير
##تصحيح
##تعمد
##تفشي
##تفقد
##تقنية
##تكرر
##تنصيب
##تورط
##تولى
##تيش
##ثيوبية
##جابهة
##جامعة
##جانب
##جبان
##جرات
##جراح
##جزر
##جلد
##جلي
##جميع
##جهود
##حادي
##حافة
##حدد
##حسان
##حلة
##حوالي
##خاطر
##خضر
##خطار
##خمس
##خونة
##دستان
##دمة
##دهس
##دوب
##ديد
##ذاكرة
##ذكى
##ذية
##رأي
##رتون
##رخ
##رش
##رفع
##رقية
##روضة
##روين
##ريين
##سبارتاك
##سبب
##ستية
##سجون
##سعوديين
##سمة
##سيارات
##سيخ
##سيوي
##شجب
##شراء
##شعاعي
##شوارع
##شوب
##شيات
##شياطين
##شيونال
##صبر
##صص
##صلع
##صليب
##صومال
##ضاربة
##ضرائب
##ضل
##ضمام
##طبع
##طبيب
##طفئ
##طقم
##طوانات
##ظير
##عائلات
##عائلة
##عاطلين
##عباء
##عتيادية
##عداء
##عضائه
##عطلات
##عمد
##عناصر
##عنيف
##غلب
##فء
##فادة
##فرنسي
##فضاء
##فلات
##قاتلي
##قناع
##قهوة
##قوف
##قويم
##كاذيب
##كاف
##كايا
##كتتاب
##كز
##كنة
##كوبا
##لادة
##لتزم
##لغاز
##مؤتمر
##مجزرة
##محادثات
##مدنيين
##مزاد
##مسدس
##مسيحيين
##معرفة
##مكافأة
##نائب
##نازي
##نامو
##نزع
##نطلاق
##نظف
##نفر
##نيابة
##هاج
##هداف
##همة
##هوى
##وابق
##واة
##واعق
##وتة
##وعية
##ويب
##ويين
##يثلون
##يجاد
##يريا
##يفر
##يلات
##يلندي
##ينو
1967
225
4K
آيسلندا
أتالانتا
أحيانا
أرجنتينية
أسطوري
أسقطت
أشياء
أصحابها
أطفالا
أغلبية
أمنها
أولمرت
أوهايو
إبداع
إبداعات
إدانات
إقامته
إقلاعها
احالة
احتكار
احتمالات
احتياطياتها
ارهابيين
اسلامية
اصلاحات
اقتراع
اقتناء
الأبرز
الأذربيجاني
الأصدقاء
الأقليات
الأمواج
الإعادة
الإفلاس
الإليزيه
الإيرانيون
الائتمان
الائتمانية
الابتدائية
الاجانب
الاركان
الاسبق
الاستيعابية
الانترنيت
الانجليزي
البطلة
البلديات
البوسفور
البيئي
التجار
التجديد
التجريبي
التحديث
التطبيقية
التوعية
الثابت
الثقل
الثني
الثورات
الجراد
الجلطة
الجليلة
الجيشين
الحافلة
الحساسية
الحقوق
الحملات
الخان
الخطورة
الديزل
الراب
الرسالة
الرمال
السنوسي
السوقية
الشاهد
الشعراوي
الطرفين
الغارقة
الغنية
الفرار
الفرج
الفشل
الفيضان
القارس
القبرصية
القدامى
القط
القناع
الكلمة
المؤدية
المتواضع
المثالي
المجاورة
المحامين
المرافق
المرتبطة
المرصد
المزعجة
المسلسلات
المشير
المطبخ
المعاشات
المعتدلة
المعنية
المفتي
المقاعد
المكلا
الملح
المنتج
المنيا
النظيفة
الهروب
الهيئات
الهيكل
الوجوه
الوزارات
اليسار
اليومي
امني
انتصارا
انحراف
انقرة
اولمبياد
بأوامر
بإقليم
بالتأهل
بالحرب
بالدولار
بالذخيرة
بالذكاء
بالسرقة
بالعلامة
بالكف
بالمزيد
بالنقاط
بالوكالة
ببوتين
بتأمين
بتسليح
بتغريدة
بتقنيات
بجانب
بجنيف
بحجب
بحريا
بحفل
براينت
برلمانيون
برويز
بشاحنة
بعدن
بعلبك
بقبول
بل
بلغ
بلفور
بملياري
بندر
بهجومين
بوحدة
بيانو
تأثر
تؤهل
تاتا
تترستان
تتكبد
تتوصلان
تحف
تحير
تخترع
تخفق
تدعي
تردي
تسعد
تسعيان
تصاميم
تطمئن
تطير
تعازيه
تعاود
تعجز
تكتفي
تنصب
توماس
ثابتة
ثري
جداول
جرى
جمل
جمهوري
جوليان
جونيور
جيرو
جيوش
حرم
حمامة
خارجيتها
خصائص
خطية
داعشية
دعاوى
دماء
ديك
ذخيرة
رأيه
رعاة
روضة
روغوزين
روك
ريجيني
سباح
سبيرز
سفنا
سفيري
سلطانوف
سيبحث
سيتروين
سيمونيان
سينمائية
شرس
شرعيين
شركتي
شريكا
شطرنج
شوارزنيغر
صباحي
صخرة
صديقها
ضاحي
ضلوع
طائلة
طبيبا
طقوس
طموحات
عائم
عداد
عدو
عسقلان
عسكرييها
علاقاته
علق
علنا
علوش
غارتين
غارسيا
غلاء
غول
فابريغاس
فادح
فالفيردي
فلك
فنزويلية
قدمه
قلنديا
قمرة
قواعدها
كفر
كوشنير
كيت
لأسبوعين
لاجئي
لاسرائيل
لبريطانيا
لتلبية
لجمهور
لخطف
لزوجها
لسنوات
لعامين
للابتكار
للاستخدامات
للبيت
للتبرع
للحيوانات
للزوار
للصحفيين
للطب
للطرق
للمستخدمين
للمنشآت
للمواد
للموارد
للنظر
للهجن
للوحدة
للوكالة
لنجم
لوجود
ليبيريا
مادية
مايك
متبادلة
مختبرات
مخيبة
مداهمات
مدرج
مرخصة
مرضا
مركبتين
مزاولة
مستعدون
مشاركا
مصيره
مصيرية
مضادات
مطرقة
معاداة
معادلة
معارضا
معجب
معقدة
معهم
مغادرته
مغلق
مقربة
مكتبها
ملزم
مملكة
منسوب
مهاجمه
موتكو
مودي
موراليس
موزمبيق
ميثاء
نسر
نشوء
نطنز
نوير
هارب
هارفي
هاله
هايبرلوب
هجمة
هدفين
هضبة
هليكوبتر
هواء
هيثرو
وآبي
وأزمة
وارداتها
واقعية
والتطرف
والجهاد
والديه
والسرطان
والقضاء
والمطاعم
والموسيقى
وتطلب
وتقدم
وتمويل
وتواصل
وتوقعات
وجندي
وحمص
ورق
وشركة
وعود
وقاية
ونجليه
ونيجيريا
وهم
ووفيات
ويبر
ويتوعد
ويليام
يأتي
يبتلع
يتخلص
يترقب
يتزود
يتنحى
يجد
يحارب
يحتشدون
يحشد
يدهش
يرأس
يرحبون
يستثمر
يستغني
يستكمل
يصعب
يعاود
يعملون
يفتتحان
يفرون
يقارن
يكفي
يملك
ينشئ
يو
يوضحون
يونغ
##15
##21
##41
##48
##98
##99
##w
##آيفون
##أحد
##أربعة
##أضخم
##ؤلمة
##إبلاغ
##إتمام
##إصابة
##إعمار
##إفريقيا
##إقالة
##إمارة
##إنترنت
##إنجاب
##إنفلونزا
##إهانة
##إيدز
##ئتمان
##ئس
##ئنها
##ابت
##اتجار
##اتو
##اثنين
##ادش
##ادين
##اردن
##اصلة
##اعب
##افق
##اكين
##اليزا
##اليون
##انته
##اهة
##اويات
##بطء
##بنية
##بيع
##تأييد
##تباع
##تجارة
##تجز
##تخزين
##تدقيق
##تراجع
##تردد
##تسريع
##تعاطف
##تعداد
##تغيب
##تغيير
##تفاء
##تفعيل
##تقدام
##تقليص
##تلفزيون
##تلقي
##تمثيل
##تهن
##تياز
##ثلاث
##ثلوج
##جاء
##جار
##جبيل
##جلسات
##جهاد
##حتجاجات
##حريق
##حساب
##حواسيب
##خضع
##خطف
##خفاق
##خم
##دانة
##دجوكوفيتش
##درهم
##ذكاء
##ربين
##رتو
##رجم
##رخيصة
##رغم
##رهم
##ريضة
##زارينكو
##زمان
##ساد
##ساعات
##ساعدات
##سبة
##ستبق
##ستمتع
##سجل
##سح
##سحر
##سخرية
##سراج
##سعد
##سلسل
##سمنة
##سيط
##شباب
##شيال
##صبي
##صفحة
##صمت
##صومه
##طاد
##طنة
##طوانة
##ظهار
##عاقد
##علاقة
##عور
##غارات
##غالية
##غب
##غت
##غسيل
##غش
##غلال
##غوص
##فتش
##فجر
##فجع
##فحوص
##فكر
##فندق
##فهم
##فهوم
##فورية
##فيون
##قائمة
##قاليد
##قراطيين
##قصي
##قلوب
##قنابل
##قناة
##قوات
##قيود
##كاس
##كته
##كرملين
##كست
##كسور
##كلي
##كيمياء
##كيميائي
##لاقاة
##لوسكوني
##لياف
##لينكو
##مالا
##مبعوث
##مثول
##مخاطر
##مدارس
##مدفوعات
##مركبة
##مسجد
##مصادرة
##مصالحة
##مطعم
##مكاتب
##ملف
##مهر
##مواجهات
##موقع
##نتيجة
##نوفا
##هرامات
##هروب
##هوفن
##هول
##هيمنة
##وائد
##وابط
##وادي
##واقع
##وبية
##وتسك
##وتي
##وثة
##ورين
##وزة
##وقف
##ونت
##يخوت
##يفي
##يمون
##ينتي
104
116
137
138
1600
270
أباد
أبعد
أزمتها
أطفالها
أف
أكاديمي
أكسفورد
أكياس
أمله
أمنيين
أنور
إضرابهم
إنعاش
إنقاص
إنماء
إيجابيا
اجتياز
اربيل
ارسنال
استخدامه
استراتيجيا
اشتراطات
اف
اكتشافات
الأبواب
الأحذية
الأساس
الأسوأ
الأصغر
الأضرار
الأفكار
الأمهات
الأورال
الأولي
الإبادة
الإيجار
الاحداث
الارتفاع
الارهابي
الاصابة
الاعلى
البالغ
البروستات
البنكية
البوليفي
التبت
التجديف
التجنيد
التربة
التركيز
التشكيلية
التمارين
التوأم
التوازن
التوظيف
الثأر
الجابر
الجبوري
الجراحية
الحجم
الحلول
الحمية
الخبرات
الخصم
الخضار
الخور
الخيري
الدراج
الديموقراطية
الذكريات
الذهنية
الرؤوس
الربو
الزائدة
السيادة
السياسات
الشاباك
الشرطي
الشروط
الشقيق
الشك
الشكوك
الشهرية
الصيانة
الضاحية
الظاهري
العاجلة
العادلي
العبادة
العلا
العيار
الغرامات
الفئات
الفارهة
الفاشلة
الفجر
الفكر
الفندق
القنبلة
اللمسات
الماسي
المانشافت
المجاهدين
المزودة
المساعد
المستمر
المطلوب
المفرطة
المقدسيين
المناسب
المنهار
الموز
النرويجية
النزال
النسائي
النفوذ
النقود
النمل
الواحدة
الوحش
الوفاء
الين
اليوتيوب
انتشارا
انتصاراتها
بأحدث
بأغلبية
بإصدار
بإيقاف
باستثناء
بافتتاح
بالحديدة
بالعنصرية
بانضمام
بانفجارات
بترحيل
بتورطه
بتوضيح
بحادثة
بحقوق
بحملة
بحوث
بخط
بخطر
بركة
بركلات
بروفة
بشهادته
بعنف
بلاس
بلجيكية
بمؤتمر
بماذا
بمحركات
بمزيد
بمعارك
بورصات
بيتزا
بيعها
تألقه
تأييدها
تبهر
تتعافى
تجنبا
تدخلا
تدور
تستنجد
تسعة
تسونغا
تشل
تشويه
تشيك
تصاب
تغمر
تفتيشية
تفسد
تفيد
تقلع
تمتنع
توترات
توليه
ثغرات
جدارا
جديدتان
جسور
جنرالات
جني
جوهرة
حاخام
حاشد
حافلتين
حامية
حسام
حياتهم
حيثيات
خروقات
خضراء
خطتها
خيا
داوود
دروغبا
دهوك
رغد
ريادة
زجاج
زواجه
زيارات
ساخرة
سافتشينكو
ستامفورد
ستبدأ
سرقسطة
سفاري
سفيتولينا
سكر
سلبيا
سهل
سياسته
شارة
شنغن
شنه
شهري
صباحا
صحوته
صداقة
صفوفها
صمتها
ضحاياه
ضوئية
طباعة
طويلا
عاجزة
عالميين
عرضه
عفو
عقيد
عقيلة
علاقاتهما
غبار
غداة
فدية
فقدت
فهمي
فوج
قاضي
قاطع
قتلا
قمح
كابوس
كاظم
كرات
كسب
كلايسترز
كلغ
كولورادو
كومان
لأمراض
لإنعاش
لارتفاع
لاكورونيا
لامبورجيني
لايبزيغ
لتوجيه
لجلسة
لجنوب
لحج
لدعمها
لرفضه
لسيارات
لفنان
لقائد
لقاتل
لك
للأسرى
للإخوان
للالتحاق
للبنتاغون
للركاب
للسرقة
للصيد
للطلاب
للقصف
للمصابين
للمنطقة
لمرسي
لمروحية
لمهاجرين
لنجوم
لوح
لوحدة
لوحيا
لويز
مأوى
مؤلف
مؤيدين
ماركة
مارينو
مبخوت
مبدئي
متظاهرا
متقدمة
متمردو
متميزة
متوجهة
مجلسا
مجنح
محتجزة
مدون
مرخص
مرماه
مسارات
مساعدتها
مستحضر
مسنا
مشجعو
مشيط
معالجات
مقاتلا
ملوك
ممن
مناخ
موافقتها
موراتا
ميدانية
نانو
نزهة
نشرت
نظر
نفسك
نيجيرية
نيكي
هاريس
هجين
وأبو
وإجلاء
واحة
والأمريكي
والجنسية
والدتها
والرقة
والملف
والنساء
وبلجيكا
وتصفية
وحظر
ودور
ودولية
وزيرين
وسواريز
وشفاء
وضح
وغرامة
وفاء
وورلد
ويعتقل
ويفوز
ويهاجم
يباشر
يبرم
يتأهب
يتحكم
يتعرضون
يتعرف
يتعهدون
يحوم
يريدون
يشق
يشككون
يضرمون
يضمد
يغضب
يفعل
يقبض
يقدر
يقي
يكتب
ينقض
##57
##IA
##ion
##or
##أت
##أعوام
##أن
##أنصار
##أوامر
##أوركسترا
##ؤجج
##ؤلؤة
##إدخال
##إذاعة
##إسترليني
##إصابته
##إصلاح
##إطالة
##إطفاء
##إقراض
##ئز
##ئنه
##ئيا
##ابيا
##اتم
##اجد
##احتيال
##ادل
##ارتا
##ارتفاع
##ارس
##ارها
##اسك
##اسم
##اسيس
##اصم
##اغن
##افرة
##اقشات
##اكات
##اليا
##انفصال
##اهب
##اولات
##باراغواي
##بترول
##بريطاني
##بطاقات
##بطاقة
##بطولة
##تجمد
##تحديث
##تخصصات
##ترات
##ترام
##ترانزيت
##ترى
##تشريعات
##تصوير
##تظام
##تظاهرات
##تعريف
##تفادى
##تفاقم
##تفاوض
##تفي
##تكوين
##تنساخ
##تهاب
##تيها
##ثمار
##جارة
##جراثيم
##جيرة
##جيوش
##حاجز
##حاسوب
##حاق
##حج
##حرارة
##حظر
##حكي
##حمير
##حير
##خاطب
##ختلف
##خداع
##خدام
##خرات
##خري
##خلط
##خيانة
##دادات
##دراء
##درك
##دق
##دلي
##ديس
##ذار
##ذعة
##ذه
##راشة
##راضي
##راقصة
##رامة
##رتا
##رتكبها
##رخصة
##رطب
##رعة
##ركز
##رمنية
##روح
##زجاج
##سبت
##سترجع
##ستيقظ
##سجين
##سعى
##سفر
##سفينة
##سكر
##سلي
##سليماني
##سهام
##سونغ
##سياسية
##سيفا
##شاعة
##شجار
##شح
##شحي
##شعب
##شقة
##شوة
##شونة
##صداقية
##صديق
##صعوبات
##صلة
##صمات
##صواريخ
##صيانة
##ضانات
##ضخم
##طائفي
##طاحة
##طفلة
##طهاد
##طوارق
##طيب
##عاصمة
##عبارات
##عبوات
##عرس
##عسكري
##عضلات
##عقم
##غبر
##غراق
##غريم
##غواي
##فادع
##فاع
##فرق
##فضل
##قاتلين
##قبلات
##قشف
##قلم
##قمع
##قيق
##كآبة
##كاو
##كتور
##كك
##كلمات
##كول
##كولومبيا
##كومبيوتر
##كييف
##لبي
##لمس
##لولة
##ليتش
##ليزية
##مارك
##مبية
##متمردين
##مجد
##محرك
##مدون
##مسؤولين
##معاناة
##معتصمين
##معلم
##معهد
##مغادرة
##مغتربين
##مقعد
##ملء
##ملك
##ممثل
##موث
##مود
##ميتة
##نتصارات
##نتقال
##نتي
##نزف
##هدت
##واردات
##وبيل
##وتوغرافي
##وحدات
##وذة
##وره
##وريخ
##وسفات
##ونها
##يتسكي
##يص
##يغ
##يلسون
119
145
148
165
175
260
370
850
B12
LG
آمور
أبدا
أبنائهم
أحادية
أدبية
أرصدة
أشباح
أشجار
أضواء
أعظم
ألماس
ألميريا
أمريكيان
أوتوفاز
أوكرانيون
إحراز
إستوريل
إعتقال
إغاثية
إفشال
إندونيسي
إيسكو
إيكاردي
إيواء
اباد
اتحادي
احمد
استباقية
اعداد
الأبد
الأخوة
الأشباح
الأغلبية
الألبان
الإداري
الإسرائيليون
الإفراط
الإيجارات
الاستشاري
الاستفزازات
الاطلسي
الاف
الافتتاحية
الاولمبية
الباليستي
البديلة
البلدة
البيضاوي
التايلندية
التجمع
التطبيق
التمساح
التورط
الثرى
الجامع
الجدران
الجودة
الحرارية
الخالد
الدوائر
السامة
السيولة
الشباك
الشخير
الشكل
الشهري
الصعيد
الصقيع
الطلبات
الظل
العابر
العادية
العطاء
العلامات
العموم
الفائقة
القاع
القوارب
القيصر
الكسندر
الكلام
اللحم
المتعة
المتعثرة
المتقاعدين
المري
المسابقات
المشفى
المظلم
المغادرة
المفاعل
المقالة
المقر
المكفوفين
الملحق
الملونة
المنتجة
المندب
المنفذ
الميلان
النزاهة
النصفي
النقطة
النني
الوافدة
الوثيقة
الوردية
الوسيط
اليها
امير
انتهاكا
انطلاقا
اوروبية
بأوروبا
بإدانة
بالإنترنت
بالبكاء
بالتسبب
بالتعاقد
بالثلاثة
بالرئاسة
بالزانة
بالستيا
بالسماح
بالعام
بالعفو
بالقاضية
بالكذب
بالكونغرس
باناسونيك
ببراءة
ببطارية
بتصعيد
بحار
برام
بردى
بريزبين
بزعم
بسعة
بسفينة
بشعار
بضربات
بقاعدة
بقطر
بقنابل
بكسر
بلدانهم
بمبنى
بمستوى
بمن
بمنظومات
بميزات
بنادي
بورنموث
بيسكوف
بينتو
تتحضر
تتزوج
تتعاقد
تحوم
تحوي
تخطو
تخطيط
تدير
ترسانة
تسرح
تسويق
تشاكفيتادزه
تشكيلته
تصريف
تطورا
تعكس
تعليقات
تعويم
تفاعل
تقديرا
تلتحق
تلعب
تنفس
توائم
تواضروس
توثيق
جاكوار
جامايكا
جبلية
جدي
جمجمة
جيت
حافظ
حالتي
حسابا
حسناوات
حشرات
حصر
حلال
حلمها
حلوى
حيل
خبيثة
خريجي
دراجته
دقيق
ديمقراطي
ذراع
رأسها
رائعا
رابتلي
رصاص
رفسنجاني
رهينتين
رينجرز
زنجبار
ستزود
سجال
سراحه
سلفي
سوبرجيت
سياحيا
شجاعة
شكسبير
شهيدا
صبري
صربي
صلاحية
صمود
صوماليين
صيام
ضيوف
طرده
طرقا
طريقته
طفلتها
عاد
عارض
عاشوراء
عالي
عزبة
عقابية
عقبات
علبة
علميا
عماد
عوائد
غرينلاند
فتاتين
فحم
فرانسيس
فرجينيا
فرعا
فيردر
فيزا
قادرا
قاديروف
قاسيا
قاصر
قتادة
قدره
قلم
قنصليتها
قيس
كاذب
كاسبرسكي
كلبة
كهربا
لأعضاء
لإدانة
لاسترداد
لانوف
لتجارة
لتشمل
لتصبح
لتصنيف
لتطعيم
لجهاز
لحشد
لرد
لساعات
لصيانة
لعالم
لعامل
لقتال
لكيري
للأقصى
للبنك
للتحرك
للتضامن
للتوسط
للرسوم
للزواج
للعملية
للغواصات
للكونغرس
للمدارس
للمغرب
للمنتخبات
للوقود
للوقوف
لليبيا
لمنفذ
مؤسسي
مائية
مايا
مايويذر
متابعيها
متنوعة
مختطف
مخطوطة
مخلوق
مخيما
مدرجات
مساره
مستلزمات
مسرب
مشجعا
مصرعه
مطارا
مطاراتها
مطرب
مطلق
مطلوبا
مغريا
مقار
مقبول
مكسيكو
ملاك
ملاكمة
مماثلة
منحها
منسق
منعه
منغوليا
مهجورة
موالين
نافورة
نزاعا
نظامنا
نوفغورود
نيمتسوف
هبة
وإنقاذ
والبحث
والجزيرة
والحوثيون
والدول
والسلامة
والمياه
وانباء
وتحذير
وتحقيق
وتصف
وتصفها
وتطلق
وتنشر
وحكومة
وروما
وفرة
وفيتنام
وفيسنينا
وقائع
ومأرب
ومؤسسات
وميلان
ويب
ويتقدم
ويخسر
ويكيبيديا
يانصيب
يثق
يجيب
يحبس
يحرض
يدعمون
يدينون
يربح
يسافر
يستبدل
يسهل
يضحي
يضيع
يعيق
يقرب
يقررون
يكاترينبورغ
يلقون
يمنيون
ينصب
يوليا
##71
##b
##ch
##ta
##vo
##آبل
##أجانب
##أجنة
##أدوات
##أذن
##أسماك
##أسنان
##أسوأ
##أقل
##أكراد
##أهم
##ؤم
##إجازات
##إشبيلية
##إقلاع
##إقليم
##ئري
##ئض
##ئوية
##ائيا
##ابيب
##اتا
##اختراق
##استحواذ
##استقالة
##اسيين
##اصات
##اعتها
##افراج
##افل
##اقلة
##الس
##اله
##اهتمام
##اهل
##اوس
##اوين
##بتسم
##بز
##بشرة
##بلدية
##بنات
##بومبيو
##بوينغ
##بيئة
##بيونز
##تأمل
##تبر
##تجاه
##تجميع
##تحريك
##تحلي
##تدام
##تدريبات
##تدفق
##تراخيص
##ترالي
##ترخيص
##تركية
##تزاع
##تزود
##تسرب
##تسمية
##تسميم
##تسونامي
##تشار
##تشارات
##تشجيع
##تصفيات
##تصون
##تطوعي
##تفتاء
##تفع
##تقلص
##تكبد
##تلاميذ
##تليتيكو
##تمر
##تنحي
##تنموية
##توافق
##توح
##ثته
##ثق
##ثمرة
##ثون
##جدي
##جزء
##جزات
##جماهير
##جول
##جيال
##جيش
##حتساب
##حجاب
##حداث
##ختلاس
##خرية
##خضراوات
##خلاء
##خلاف
##خمور
##خيف
##خيه
##دارفور
##دالاي
##دتين
##دعوى
##دونيتسك
##ديمة
##ذراء
##رالي
##رانس
##راولة
##رباص
##رسام
##رسة
##رشيف
##رصد
##رضية
##رطبة
##ركته
##رمز
##رملة
##روز
##ريض
##زاخي
##زز
##زلة
##زما
##زمته
##زوجي
##زيدان
##ساعة
##سبح
##سبعة
##ستقبل
##ستنسخ
##سع
##سعة
##سكتلندي
##سنجر
##سيان
##سيس
##شابه
##شاد
##شارابوفا
##شاشة
##شامى
##شاي
##شركاء
##شعانبي
##شفرة
##شقق
##شمل
##صراع
##صمم
##صون
##ضاءة
##ضاعفات
##ضالع
##ضرار
##ضغط
##ضلات
##ضيع
##طاجيكستان
##طالي
##طن
##طهي
##طيرة
##ظف
##عابين
##عامة
##عان
##عبر
##عبور
##عزاز
##عصيان
##عقوبة
##عنان
##غاز
##غض
##غواصة
##غولن
##غين
##فاهيم
##فح
##فران
##فرص
##فلونزا
##فوا
##فيضانات
##قارة
##قاطع
##قاظ
##قاعس
##قباط
##قبل
##قتتال
##قحطاني
##قطار
##قظ
##قلة
##قلي
##قمار
##قن
##قنعة
##قوم
##كحول
##كرز
##كرم
##كزومارس
##كوكا
##لاذقية
##لافل
##لطيف
##لغ
##لقي
##مئات
##مائة
##متحف
##مدن
##مرونة
##مزايا
##مسؤول
##مسات
##مستأجرين
##مستثمرون
##معاملة
##معتمرين
##منازل
##مناصب
##منتجات
##مواشي
##مونديال
##ميلان
##نبأ
##نتقام
##نجم
##نرويج
##نشط
##نع
##نعكس
##نف
##نكس
##نوبات
##هاريج
##هانات
##هتم
##هدار
##هلع
##هيموفيتش
##وائية
##واصل
##واف
##وجود
##ورغان
##وسيا
##وفان
##وهة
##ياني
##يجيري
##يشة
##ييس
117
123
126
127
143
153
155
340
PCR
آية
أبنائها
أسوس
أشغال
أفخم
ألفيس
أمناء
أيقونة
إخوان
إرادة
إفلاسها
إكمال
إهمال
إيجار
إيني
اتباع
احتجازه
احذر
ادانة
استخدم
استيلاء
اعدام
الأقدام
الإحاطة
الإصدار
الإنتاجية
الإندونيسي
الاخير
الادارة
الاربعاء
الاستطلاع
الاصوات
الامير
البت
البنى
البيوت
التأهيل
التاكسي
الترجمة
التقارب
التقيد
التواجد
الثيران
الجمعيات
الجنسيات
الجنين
الحدائق
الحراسة
الحزن
الخطط
الخطوة
الدفاعي
الرمضاني
الرهينة
السبعة
السحاب
السفارات
الضرر
الضيافة
العادات
العازلة
العدد
العصور
العطلة
الفرح
الفلفل
الفياغرا
الفيلة
القصة
القمع
القولون
الكتروني
الكرادة
اللعبة
اللوحات
المارينز
الماليزي
المتظاهرون
المحدود
المحليين
المختبر
المختلفة
المخزون
المخضرم
المدرجات
المدرجة
المرفأ
المشردين
المشكلة
المطالب
المفرج
الموجة
الموظف
الميادين
الناشرين
النسر
النظافة
النقاش
الهيروين
الوحشية
الودائع
اليومين
اليونيفيل
ايجاد
بأربعة
بإحدى
بإدراج
بإعداد
بإفريقيا
بات
باخ
باركنسون
باسيل
باصطدام
بالاعدام
بالانتقام
بالبرازيل
بالحوار
بالخروج
بالخيانة
بالصحة
بالصومال
بالعلاقات
باللجوء
بالهاتف
بانتصار
باور
بتجربة
بتناول
بجدة
بجزيرة
بجوار
بخطف
برا
بروتين
بريتش
بشان
بشرطة
بعثات
بعروض
بعمل
بعين
بغياب
بغية
بفقدان
بقدرة
بكاء
بلقار
بلمسة
بليت
بمساندة
بنكا
بهذه
بوابات
بوب
بوخارست
بور
بيكسل
تأبين
تأثيرات
تترأس
تتمتع
تتهيأ
تحترق
تحريك
تحطمت
تحفيز
تخوم
تدخين
تدهش
تربح
تربك
تركز
تستأنفان
تستجيب
تسليمها
تشتكي
تشين
تصريحا
تصلح
تطل
تقلق
تقني
تلف
تلفاز
تلقائيا
تلميذة
تمارس
تمساحا
تمسكه
تنجب
تنفيذه
تنويان
توغل
توقيت
جزائريين
جمهوريا
جورجيس
حاضرة
حاضنة
حانة
حاويات
حسابه
حشود
حقاني
حلاق
حلمه
خاباروفسك
خريبين
خطابه
خلو
خودوركوفسكي
دجاجة
دفاعه
دفعات
دمى
دنماركية
دورتها
دوره
رواتبهم
روايات
روبليف
زمني
زورقا
ساكاشفيلي
ستصبح
سرير
سعوديات
سميث
سوزوكي
سوسة
سيرة
شارون
شريان
شفافة
شي
صفيح
صقور
طلاء
طلبت
عابرة
عار
عسكريتين
عسير
عشوائية
عطارد
علقت
عمار
عمدا
عيان
غاندي
غليون
غمار
غو
غيار
فصيلة
فيدال
فينوس
قادما
قاربا
قانونيا
قليلة
قيرغيزستان
كابيتال
كاسح
كرئيس
كعكة
كغ
كوفاكس
كوكبة
لآسيا
لأبطال
لإثبات
لإغاثة
لاجئة
لاستبدال
لاستغلال
لاستمرار
لاعادة
لانقاذ
لاول
لتقليل
لثورة
لجمهورية
لقبها
لكارثة
لكي
للأرقام
للاستفتاء
للاعبين
للتعرف
للتنبؤ
للتهدئة
للدورة
للعاهل
للفريق
للقانون
للمسنين
لمقاضاة
لنظيره
لنهائيات
ليدز
ماراثونية
ماكلارين
متجمدة
متسابق
مجتمع
مجسم
محامو
محكوم
محمولا
مداخل
مدرعات
مرتفعات
مركزية
مرنة
مزحة
مساءلة
مسبح
مستثمر
مشروب
مصادقة
مطعما
معدنية
مكانه
ملحق
ملصقات
مناوئة
منتسبي
مهربة
موسوي
نادرا
ناغورني
نظم
نظيراتها
نقيب
نوافذ
هاني
هجومي
هرمون
وآفاق
وأعمال
والأطفال
والاقتصادي
والدوحة
والسهول
والمتمردين
والمسلمين
والوكالة
وامرأة
وبعض
وحي
وزارات
وزارتي
وصلاح
وطنه
وفاتها
وقعت
ومراكز
ويحتفظ
ويصفها
وينفرد
يبلغان
يتحدون
يتعامل
يتقدمون
يحتل
يحط
يخترع
يخطفون
يساهم
يصفي
يطمح
يغري
يفتك
يفصح
يقاتلون
يقرأ
ينتج
ينفق
ينهون
يوصل
##66
##79
##89
##ds
##pple
##te
##أبحاث
##أتراك
##أسرار
##أصفر
##أضرار
##أغاني
##أغنياء
##أقرب
##أكاديمي
##أمين
##أي
##ؤخر
##ؤول
##إرادة
##إطلالة
##إنسان
##إيصال
##ئتين
##ئمين
##ائدة
##اجز
##اجس
##ادث
##ارث
##اردي
##اسب
##استيراد
##اسل
##اضحة
##اعل
##اكثر
##التزام
##امس
##انضمام
##انغ
##انون
##اوبة
##ايف
##باخ
##بتزاز
##برلين
##بعوض
##بغاء
##بقاع
##بكاء
##بوي
##تأجيج
##تائم
##تب
##تحاق
##تحرير
##تراض
##ترميم
##تسامة
##تسلح
##تسليم
##تشيلي
##تضاعف
##تعقيم
##تغيرات
##تقطاب
##تقل
##تقييد
##تلاس
##تلاع
##تموند
##تنسيق
##تنظيف
##تهام
##تهدف
##توفى
##ثى
##جرب
##جستية
##جله
##جنازة
##جنوب
##جوبة
##جولان
##جوم
##جيبة
##حتراف
##حترافية
##حديث
##حذو
##حراق
##حمام
##حوار
##حوذ
##حوكمة
##خارجها
##خصة
##خلف
##خماسية
##خميني
##داريا
##دخل
##دراسة
##دروع
##درية
##ديار
##رأة
##راح
##رادارات
##راقص
##راك
##رانيوم
##رباع
##ربح
##رجنتيني
##رلين
##رمينيا
##رهيب
##ريء
##ريام
##ريحا
##ريكسن
##ريكيين
##ريم
##زلزال
##زيف
##سفارة
##سفن
##سلطنة
##سنغافورة
##سوتشي
##سيكا
##شاطر
##شجاعة
##شلي
##شمال
##شه
##صابتين
##صابع
##صابي
##صادقة
##صدامات
##صوات
##ضارب
##ضرام
##ضطر
##ضغوط
##ضير
##ضيرة
##طريقة
##طلالة
##طمة
##طواحين
##طى
##ظلة
##ظوظ
##ظومات
##عاصفة
##عبرية
##عري
##عزم
##عضو
##عمارة
##عوية
##عيه
##غامرة
##غجر
##غراب
##غرض
##غز
##غيني
##غيوم
##فاز
##فخخ
##فوف
##فيدرالية
##فيق
##قائية
##قتصاد
##قذائف
##قرعة
##قرود
##قسام
##قعات
##قميص
##قوس
##قولة
##قوياء
##كاب
##كابولكو
##كاري
##كاليفورنيا
##كامل
##كتشفة
##كتلندا
##كتوبر
##كروبات
##كستان
##كسجين
##كلفة
##كوس
##كوين
##كيين
##لتقي
##لخت
##لع
##ليه
##مؤسسة
##ماركي
##متحولين
##متمردون
##متوسط
##محركات
##محيط
##مرحاض
##مزاج
##مساعدة
##مستودع
##مشاركين
##مشعل
##مطالب
##مظلات
##معارضين
##معلمين
##مفاجأة
##مكة
##ملا
##موهوبين
##ناجين
##نايا
##نتراخت
##نجاة
##نجوم
##ندية
##نزاع
##نقص
##نهوض
##نير
##هامة
##هلية
##هيئة
##واذ
##وحشية
##وزراء
##وسيلة
##وصة
##وضة
##وفوبيا
##وقود
##وكوست
##وكوفيتش
##وهات
##وير
##ويغور
##ويلات
##يبورغ
##يزا
##يقها
##يكاي
##يكسوس
##ينز
##ينكا
132
146
167
1700
A380
The
أثقل
أحضان
أردنيا
أسفها
أشبال
أصولها
أطفاله
أفاتار
أقباط
ألحان
أمنيات
أهدافها
إدارات
إرث
إطلاقه
إيفر
اجنبية
احترازيا
اختطفوا
اختناق
استرجاع
استقالات
اصطياد
الآجلة
الأجيال
الألبسة
الألقاب
الإبل
الإيرلندي
الا
الابتعاد
الاستغناء
الاكتفاء
الباحثين
البريقة
البلغارية
البوب
التحقق
التراثي
الترويكا
التشامبيونزليغ
التعليمي
التنوع
الجدول
الجنزوري
الجهاديين
الحاسم
الحاصلين
الحدث
الحريات
الحلفاء
الحوسني
الخالدية
الدامية
الدراجة
الدروس
الراعي
الربط
الريدز
الزوجي
السليمانية
السيئة
الشعيرات
الصدري
الصيام
العقار
العقم
العقيد
العمومية
العويس
الفندقية
الفورية
القدسي
الكرز
الكرواتية
الكهف
اللبنانيون
المتجمدة
المتشددة
المجاز
المجنحة
المحافظ
المخصص
المرعب
المسروقة
المشاهدين
المطربة
المليار
الممثلين
المنافسات
النازيين
النجيفي
الهيدروجين
الوردي
انجي
اندلع
انفراج
اوسيتيا
بأمن
بأنظمة
بؤر
بإنفلونزا
باستاد
بافاريا
بالأيدي
بالانتحار
بالبيت
بالتراجع
بالتنحي
بالسويد
بالقرم
بالي
ببقاء
بتايا
بتسريب
بتسليمها
بتلقي
بجريمة
بحافلة
بحالة
بحرب
بحوادث
بدائل
بداعش
بديع
براءته
براتب
برزبين
بريق
بسيارات
بشرة
بطريق
بكامل
بلاغا
بليسكوفا
بمقاتلات
بمنجم
بموعد
بنكية
بوشار
بيض
بينالي
تتحفظ
تترشح
تتعاونان
تتعرف
تتفاوض
تجتذب
تجرب
تزلج
تساعدك
تشتعل
تشجيع
تشريح
تشريعات
تشكيك
تضطر
تعاملاتها
تفسير
تقام
تقدير
تلاعب
تمهيدي
تميز
تنافسية
تنبؤات
تورطه
تورطها
تيار
تيتان
ثمنا
جذب
جنح
حاسة
حديدية
حرمة
حفاظا
حقلا
حكيم
حكيمي
حيتان
حيلة
خصوبة
خطيب
خياليا
دروس
درويش
دفعت
راقص
رضا
روبي
روماني
رين
زالت
زوما
سؤالا
سعيها
سفاراتها
سولار
سيصبح
سينوفاك
شبهات
شرعنة
شروطها
شنايدر
شهرية
صاحبها
صافرات
صحته
صناعيين
صورته
ضررا
طائرتي
طرفا
طعم
طلائع
طموح
عازلة
عالقة
عالقين
عبوتين
عزله
عشيرة
عقاري
عنيفا
غاضبون
غوتيريس
غوريون
فأر
فأرة
فؤاد
فاشل
فالديز
فتحي
فخري
فرحا
فرعونية
فويس
فيكتوري
فيلانوفا
قائده
قاربهم
قالت
قبردين
قبطان
قدامى
قدرته
قصيدة
قلقا
قمم
قوس
كارل
كثيرة
كرمان
كلام
كهف
كوبرا
كودريافتسيفا
كوكبا
كولا
كولن
كونيتسين
لأسبوع
لاختبارات
لاصقة
لاعتماد
لانسحاب
لايران
لايف
لبايرن
لبعثة
لحين
لربط
لردع
لرفضها
للأجور
للأغراض
للألمنيوم
للانتصار
للتعذيب
للتوحد
للحظة
للخارج
للخدمة
للدستور
للذكاء
للرحلات
للرماية
للسفارة
للسنة
للقادمين
للمتضررين
للمساعدات
للمسجد
للمصارعة
للمناخ
للنمو
لمحادثات
لمدرب
لمسؤول
لمسرح
لمنتدى
لودريان
لوفيات
ليبرتادوريس
ليصبح
مؤتمره
مؤيديه
مائي
مارفيك
مباراتين
متانة
متحديه
محافظا
محروقات
مخترع
مدربي
مدعي
مرآة
مرسى
مستحضرات
مستخدميه
مشتبهين
مشغل
مطاردته
معينة
ملكا
ملونة
منصبها
منهاتن
مهن
موافقته
مواقعها
موسعة
موقفا
موقوفين
ميدانيا
ميدو
ميشيغان
نائبه
نانت
نباتات
نجومه
نخلة
نفقة
هالاند
هجومه
هروبه
هيثم
هيرتا
وآسيا
وأسلحة
وإنذار
وابنته
وابنتها
واستئناف
والأكراد
والإعلام
والثقافة
والدولار
والسياحة
والفنون
والفواكه
والمساواة
وتسيسكا
وتوقع
وخروج
ودعوات
وسندان
وفرض
وكفريا
ومدن
ومدير
ونقل
ونيمار
ووحدة
ووفاة
ويهزم
يؤخر
يتحرك
يتعاون
يتعلمون
يحثون
يدفن
يدق
يدل
يدور
يربك
يرعب
يركب
يزف
يستنجد
يسلط
يشتبك
يشنون
يصلان
يصمم
يطالبان
يطرق
يعض
يفكون
يكافئ
يمنعون
يناشدون
ينتجون
ينتظرون
ينفصل
يودعون
يومه
##32
##46
##81
##96
##ad
##ei
##أثرين
##أخضر
##أخطار
##أديب
##أساة
##أساطير
##أطلس
##أعداد
##أعظم
##أفاعي
##أفعال
##أكبر
##أمطار
##أناقة
##أوراق
##أى
##ؤيد
##إبرام
##إجازة
##إربد
##إسمنت
##إصلاحات
##إضافة
##إطارات
##إلزام
##إيراني
##ئناف
##احرة
##احية
##اختطاف
##ادعة
##ارض
##ارق
##ازية
##استجواب
##اسلام
##اشتباك
##اطفة
##اعتراف
##افقت
##اليس
##انسي
##اهض
##اهق
##اهوك
##بادرة
##بارشا
##بال
##ببة
##بكر
##بكين
##بلاي
##بلغاريا
##بناء
##بورون
##بوس
##بيولوجية
##تأجيل
##تالية
##تبط
##تحقاق
##تدامة
##ترجاع
##تسابق
##تسلق
##تسيير
##تشفى
##تشكل
##تصالح
##تصنيف
##تضرر
##تقديم
##تقويض
##تكليف
##تلاند
##تلتيك
##تمدة
##تمرار
##تنقية
##تهجير
##تهديدات
##تهكي
##توتنهام
##توديو
##تولي
##توية
##ثبات
##ثرين
##جابي
##جدت
##جرد
##جرعة
##جسام
##جستي
##جنس
##جنين
##حاح
##حادية
##حاسبة
##حباط
##حتك
##حتمال
##حذاء
##حصان
##حصن
##حصي
##حفز
##حفلات
##حكومات
##حمر
##حمى
##حمي
##حولة
##حيوانات
##خاب
##ختيار
##خصوبة
##خطاء
##خلى
##دائي
##داف
##درائية
##دراسات
##دعوة
##دفاع
##دهشة
##دوام
##ديك
##ديه
##ذكرة
##ذلة
##راسي
##راسيا
##رباخ
##رتبط
##ركلة
##رمني
##روابارينا
##رياس
##ريتريا
##زاخية
##زعاج
##زقة
##زنة
##زويلي
##سامة
##ستجيب
##ستغني
##سرعات
##سق
##سكوي
##سلطان
##سلوفاكية
##سماوي
##سمى
##سيناتور
##سينبايفا
##سيوية
##شارك
##شاكس
##شتين
##شحات
##شفي
##شكا
##شكال
##شكل
##شمير
##شهار
##شيط
##شيو
##صبة
##صحح
##صحوة
##صربيا
##صى
##صير
##ضاحات
##ضاف
##ضافة
##ضافتها
##ضب
##ضيفة
##طابع
##طتين
##طعم
##طلاب
##ظارات
##ظفر
##عار
##عارة
##عالمية
##عجز
##عراض
##عشاق
##عقاقير
##عواصف
##عوام
##عوم
##عيادات
##غامرات
##غريمه
##غيبوبة
##فالة
##فالنسيا
##فترقان
##فرة
##فسد
##فط
##فوة
##فود
##فيين
##قاضون
##قاه
##قبيل
##قدرة
##قرض
##قرم
##قصور
##قلعة
##كاذبة
##كاسات
##كاش
##كانيات
##كتة
##كتساح
##كتسي
##كتمل
##كتيكا
##كرمة
##كلف
##كوزنيتسوفا
##كيم
##لسة
##لط
##لوانية
##لونزا
##ليكون
##ماع
##مبيا
##متهم
##متين
##مجاني
##مداد
##مدبر
##مدفعية
##مرح
##مزة
##مزق
##مستوطنين
##مسلم
##مشاركات
##مشاعر
##مشجع
##مشروبات
##مصادر
##مصافحة
##معارك
##معة
##معيشية
##ملاكمة
##مهاجرين
##مهام
##مهلة
##مهندس
##مواطنين
##موسم
##موضة
##موهبة
##ناة
##ناقل
##نامية
##نتشل
##نتفض
##ندلع
##ندهوفن
##نذار
##نفجر
##نفق
##نقذ
##نوي
##هاء
##هاتف
##هاون
##هشة
##هلة
##هيمي
##واتير
##واليد
##وتيا
##وثائق
##وذكسية
##ورنيش
##وص
##وغلو
##وقع
##ولاية
##ولوجيا
##وليك
##وهاب
##ياح
##يتون
##يجني
##يسة
##يسف
##يضة
##يغان
##ينتون
3500
430
520
آمر
أبعاد
أروقة
أساء
أستاذ
أعقاب
أمامية
أملا
أنطاليا
أودى
أوسمة
إدارته
إذن
إرما
إشادة
إضاءة
إضرابه
إطارات
إيداع
ابتزاز
ابوظبي
اتجاهات
اثينا
احتفاله
اذربيجان
اربعة
ازدواجية
استراتيجيتها
استرداد
اشتداد
اصطناعيين
اصلاح
اطراف
اغتصب
اقتصادات
الأشعة
الأقاليم
الإضافية
الإلزامية
الإنجازات
الإيفواري
الاجتماعات
الاجهزة
الاختراق
الارهابيين
الازدحام
الاستهلاك
الاشتراك
الافغان
الانتاج
البجعة
البعيد
البنيان
البوركيني
التدريبي
التعرفة
الثقب
الجارية
الجسد
الجلاء
الجهة
الجينات
الحاد
الحبيب
الحضانات
الخطاب
الخفيف
الداعمة
الدرون
الدورية
الرائد
الرائع
الرافض
الرحم
الركود
الرميثي
الرواية
الرومي
الزيارة
السعوديون
السكة
السكتة
السكني
السلفي
السيادية
الشاشات
الشاملة
الصادرة
الصديقة
الصفاقسي
الصفدي
الصلح
الصياد
الضحية
الضخم
الطراد
الطرقات
العبودية
العشائر
العقرب
الغرافة
الغوص
الغياب
الفار
الفرقة
الفوج
الفوعة
القابل
القاذفة
القذائف
القردة
القرض
القطع
القنب
الكتبي
الكرات
الكوبية
الكونغولي
اللاسلكية
الماراثون
الماريجوانا
الماريخوانا
المتألق
المتهمة
المجتمعات
المجتمعي
المحاربين
المحال
المحرقة
المحمودي
المختلط
المرصوص
المزدوج
المساكن
المستقيل
المستوطنون
المسيحيون
المشرق
المصابة
المصانع
المعيشة
المغناطيسي
المفاجئة
المقاولون
المقداد
المكالمات
المكوك
المناظرة
المنح
المهنية
الموسيقار
المولدافي
الميداليات
النخيل
النزلاء
النقالة
النقدي
النيبال
الهاتفية
اليوفا
انتصاره
انتظارها
اهتماما
اوغلو
ايطالية
بإخلاء
بإصلاح
بإمكانية
باتت
باتمان
بارون
باغرام
بالإسكندرية
بالتزام
بالتصدي
بالدفاع
بالدوحة
بالرغم
بالزواج
بالسلالة
بالشرطة
بالفلبين
بالمبادرة
بالموت
بانيتا
باهظة
بتايلاند
بتحديد
بتخفيف
بتدخل
بترامب
بحذف
بخطوات
براكين
برشلوني
برفض
برقية
برلمانيا
بروفيسور
بصفوف
بصوت
بغاز
بفحص
بفستان
بفشل
بفيضانات
بقرة
بمعلومات
بملابس
بمهاجمة
بند
بنسلفانيا
بنوبة
بوروندي
بوكس
بوكسينغ
بوي
بيتا
بينغ
بينيت
تأخره
تبكي
تتأثر
تتلف
تجاربها
تجربتها
تجلب
تحذران
تخصصات
تراجعه
تريتياكوف
تريليونات
تستجوب
تسترد
تسلق
تسيبولكوفا
تشيليابينسك
تصحيح
تعبئة
تعداد
تعرضوا
تعرفة
تفتش
تفك
تقسيط
تقهر
تلد
تنهار
توحد
ثكنة
جانبا
جدوى
جديدان
جلسته
جهوده
جوابية
جورجينا
حبسا
حجرا
حصانا
حضورها
حمار
حوارات
حوافز
خداع
خشبية
خماسية
داخليا
دبلوماسيون
درونات
ذويهم
ذيل
راس
راضية
رحمة
رفضت
رقميا
رماد
ريابكوف
ريختر
ريفر
زيتون
زيد
سائقها
سائقين
ساويرس
سبايس
ستشهد
ستون
سحري
سكاي
سكن
سلوان
سنوية
سودانيا
سوسيداد
سيحصل
شاحن
شدة
شظايا
شيفرة
شينجيانغ
شيوعا
صائب
صارم
صدر
صرافة
ضرباتها
ضرورية
ضوئي
ظهوره
عبارات
عطر
عقدها
عقليا
علمه
علنية
عمانية
غاباشفيلي
غاتيلوف
فاجن
فسخ
فيجي
فيضان
قائما
قطاري
قناصة
كثيرا
كروي
كيس
لآسيوي
لأنقرة
لإدخال
لإيطاليا
لاحقا
لاختراق
لبان
لتخزين
لتدخل
لتشيلسي
لتصريحات
لثالث
لحياة
لشرطي
لعدة
لقاءه
لقفز
لقواتها
للأرصاد
للإطاحة
للإعلان
للاستيطان
للاعتداء
للتقاعد
للجمهورية
للذخيرة
للراغبين
للرحيل
للرياض
للرياضات
للشعر
للعزل
للعمال
للفحم
للكلاب
للمبارزة
للمركبات
للمونديال
للنظام
لليابان
لمجرد
لمستوى
لملاحقة
لملك
لهبوط
ليوا
ماهر
متبرعان
متجرا
متسابقا
متمردي
متنقل
محسن
محطتها
مخالفي
مخفضة
مخيفة
مدانا
مدنيون
مدهش
مراهقين
مسبق
مستثمرين
مشتريات
مصلين
مطعوم
معاذ
معارضتها
مقاتلاتها
مقره
مكانة
ملفي
مناخية
منتجا
منشطات
منفصلة
منكوبة
مهاجرون
مواقعه
موزة
موسيقيا
موقوف
ميتة
ميزان
ناحية
ناديا
ناديه
نافاس
نجا
نزاربايف
نفذه
نفطيا
نوال
نوفاك
نيفا
هاجم
هاشتاغ
هتك
هوك
هيئات
وأحمد
وأطفال
وابنه
واز
واقية
والبرلمان
والجوف
والحرب
والرياضة
والعشرين
والقبائل
والمريخ
والمفرق
والموصل
والوحدات
والوحدة
وبعد
وبوروشينكو
وتدمر
وتسجيل
وتعادل
وتعز
وتمنع
وتيلرسون
وجامعة
وجوده
وجورجيا
ورام
ورفض
وزارية
وصفه
وطأة
وعكة
وقد
وقصف
ومحاربة
ومحاولة
وملف
ون
ونشر
ووتر
ويدمر
ياسمين
يجلب
يحاصرون
يحيى
يخالف
يرزق
يستعرضون
يشهر
يعقدان
يقص
يكافح
يكن
ينتمون
##!
##"
###
##$
##%
##'
##(
##)
##*
##+
##,
##-
##.
##=
##F
##H
##J
##L
##Q
##U
##W
##Y
##Z
##[
##\
##]
##_
##c
##f
##h
##j
##q
##v
##z
##|
##«
##»
##،
##؟
##آ
##إ
##ٔ
##ٕ
##٪
##–
##’
##“
##”
##…
